#ifndef SINE_MODEL_H
#define SINE_MODEL_H


unsigned int sine_model_len = 5908;
unsigned char sine_model[] = {
 0x1c, 0x00, 0x00, 0x00, 0x54, 0x46, 0x4c, 0x33, 0x14, 0x00, 0x20, 0x00,
  0x1c, 0x00, 0x18, 0x00, 0x14, 0x00, 0x10, 0x00, 0x0c, 0x00, 0x00, 0x00,
  0x08, 0x00, 0x04, 0x00, 0x14, 0x00, 0x00, 0x00, 0x1c, 0x00, 0x00, 0x00,
  0x98, 0x00, 0x00, 0x00, 0xf0, 0x00, 0x00, 0x00, 0xf4, 0x0f, 0x00, 0x00,
  0x04, 0x10, 0x00, 0x00, 0xc0, 0x16, 0x00, 0x00, 0x03, 0x00, 0x00, 0x00,
  0x01, 0x00, 0x00, 0x00, 0x10, 0x00, 0x00, 0x00, 0x00, 0x00, 0x0a, 0x00,
  0x10, 0x00, 0x0c, 0x00, 0x08, 0x00, 0x04, 0x00, 0x0a, 0x00, 0x00, 0x00,
  0x0c, 0x00, 0x00, 0x00, 0x1c, 0x00, 0x00, 0x00, 0x3c, 0x00, 0x00, 0x00,
  0x0f, 0x00, 0x00, 0x00, 0x73, 0x65, 0x72, 0x76, 0x69, 0x6e, 0x67, 0x5f,
  0x64, 0x65, 0x66, 0x61, 0x75, 0x6c, 0x74, 0x00, 0x01, 0x00, 0x00, 0x00,
  0x04, 0x00, 0x00, 0x00, 0x90, 0xff, 0xff, 0xff, 0x0c, 0x00, 0x00, 0x00,
  0x04, 0x00, 0x00, 0x00, 0x08, 0x00, 0x00, 0x00, 0x64, 0x65, 0x6e, 0x73,
  0x65, 0x5f, 0x32, 0x39, 0x00, 0x00, 0x00, 0x00, 0x01, 0x00, 0x00, 0x00,
  0x04, 0x00, 0x00, 0x00, 0x9e, 0xf0, 0xff, 0xff, 0x04, 0x00, 0x00, 0x00,
  0x0e, 0x00, 0x00, 0x00, 0x64, 0x65, 0x6e, 0x73, 0x65, 0x5f, 0x32, 0x36,
  0x5f, 0x69, 0x6e, 0x70, 0x75, 0x74, 0x00, 0x00, 0x02, 0x00, 0x00, 0x00,
  0x34, 0x00, 0x00, 0x00, 0x04, 0x00, 0x00, 0x00, 0xdc, 0xff, 0xff, 0xff,
  0x0f, 0x00, 0x00, 0x00, 0x04, 0x00, 0x00, 0x00, 0x13, 0x00, 0x00, 0x00,
  0x43, 0x4f, 0x4e, 0x56, 0x45, 0x52, 0x53, 0x49, 0x4f, 0x4e, 0x5f, 0x4d,
  0x45, 0x54, 0x41, 0x44, 0x41, 0x54, 0x41, 0x00, 0x08, 0x00, 0x0c, 0x00,
  0x08, 0x00, 0x04, 0x00, 0x08, 0x00, 0x00, 0x00, 0x0e, 0x00, 0x00, 0x00,
  0x04, 0x00, 0x00, 0x00, 0x13, 0x00, 0x00, 0x00, 0x6d, 0x69, 0x6e, 0x5f,
  0x72, 0x75, 0x6e, 0x74, 0x69, 0x6d, 0x65, 0x5f, 0x76, 0x65, 0x72, 0x73,
  0x69, 0x6f, 0x6e, 0x00, 0x10, 0x00, 0x00, 0x00, 0x00, 0x0f, 0x00, 0x00,
  0xf8, 0x0e, 0x00, 0x00, 0xe4, 0x0e, 0x00, 0x00, 0x8c, 0x0e, 0x00, 0x00,
  0x3c, 0x0e, 0x00, 0x00, 0xac, 0x0d, 0x00, 0x00, 0x1c, 0x0d, 0x00, 0x00,
  0x0c, 0x05, 0x00, 0x00, 0xfc, 0x00, 0x00, 0x00, 0xac, 0x00, 0x00, 0x00,
  0xa4, 0x00, 0x00, 0x00, 0x9c, 0x00, 0x00, 0x00, 0x94, 0x00, 0x00, 0x00,
  0x8c, 0x00, 0x00, 0x00, 0x6c, 0x00, 0x00, 0x00, 0x04, 0x00, 0x00, 0x00,
  0x5a, 0xf1, 0xff, 0xff, 0x04, 0x00, 0x00, 0x00, 0x58, 0x00, 0x00, 0x00,
  0x0c, 0x00, 0x00, 0x00, 0x08, 0x00, 0x0e, 0x00, 0x08, 0x00, 0x04, 0x00,
  0x08, 0x00, 0x00, 0x00, 0x10, 0x00, 0x00, 0x00, 0x28, 0x00, 0x00, 0x00,
  0x00, 0x00, 0x06, 0x00, 0x08, 0x00, 0x04, 0x00, 0x06, 0x00, 0x00, 0x00,
  0x04, 0x00, 0x00, 0x00, 0x01, 0x00, 0x00, 0x00, 0xea, 0x03, 0x00, 0x00,
  0x00, 0x00, 0x0a, 0x00, 0x10, 0x00, 0x0c, 0x00, 0x08, 0x00, 0x04, 0x00,
  0x0a, 0x00, 0x00, 0x00, 0x02, 0x00, 0x00, 0x00, 0x02, 0x00, 0x00, 0x00,
  0x04, 0x00, 0x00, 0x00, 0x06, 0x00, 0x00, 0x00, 0x32, 0x2e, 0x31, 0x35,
  0x2e, 0x30, 0x00, 0x00, 0xbe, 0xf1, 0xff, 0xff, 0x04, 0x00, 0x00, 0x00,
  0x10, 0x00, 0x00, 0x00, 0x31, 0x2e, 0x35, 0x2e, 0x30, 0x00, 0x00, 0x00,
  0x00, 0x00, 0x00, 0x00, 0x00, 0x00, 0x00, 0x00, 0x24, 0xeb, 0xff, 0xff,
  0x28, 0xeb, 0xff, 0xff, 0x2c, 0xeb, 0xff, 0xff, 0x30, 0xeb, 0xff, 0xff,
  0xea, 0xf1, 0xff, 0xff, 0x04, 0x00, 0x00, 0x00, 0x40, 0x00, 0x00, 0x00,
  0xd9, 0xbc, 0xc2, 0x3e, 0xb7, 0x52, 0x12, 0x3f, 0xca, 0x7f, 0x0e, 0xbf,
  0xb4, 0xab, 0x7f, 0xbe, 0x24, 0x48, 0x0f, 0xbf, 0x6f, 0x31, 0xf5, 0x3e,
  0x10, 0x53, 0x04, 0x3f, 0x68, 0x86, 0xe2, 0x3d, 0x0b, 0x3b, 0x85, 0x3f,
  0x7a, 0xfd, 0xc8, 0xbe, 0x63, 0xd7, 0x06, 0xbf, 0x97, 0x63, 0x3a, 0xbe,
  0x40, 0xbd, 0x61, 0xbf, 0x3b, 0x8a, 0x9f, 0x3e, 0xc0, 0xdc, 0xbd, 0x3e,
  0x41, 0xb4, 0xaf, 0xbe, 0x36, 0xf2, 0xff, 0xff, 0x04, 0x00, 0x00, 0x00,
  0x00, 0x04, 0x00, 0x00, 0xbf, 0x94, 0x34, 0x3e, 0x8a, 0x8e, 0x29, 0x3e,
  0x8b, 0x85, 0xce, 0x3e, 0x3d, 0x06, 0xad, 0xbe, 0xce, 0x1c, 0xdb, 0xbd,
  0x6f, 0x97, 0x4e, 0x3e, 0x76, 0x15, 0xd4, 0xbe, 0x6a, 0x1e, 0x69, 0xbd,
  0x0f, 0x50, 0xe1, 0x3d, 0xc8, 0xd0, 0x01, 0x3f, 0x8f, 0x96, 0x44, 0x3f,
  0x5c, 0xc0, 0x3c, 0x3e, 0x46, 0xa7, 0x13, 0xbe, 0x6a, 0xbb, 0x3e, 0x3e,
  0x1f, 0x3e, 0x92, 0xbe, 0xa6, 0x2f, 0xa1, 0x3e, 0xc6, 0xb6, 0x93, 0xbe,
  0x71, 0x8e, 0xc7, 0x3e, 0x9c, 0x92, 0xc1, 0x3e, 0x92, 0x94, 0xcc, 0xbe,
  0xae, 0xc3, 0x5b, 0xbe, 0xbe, 0xfa, 0xe0, 0x3d, 0xe0, 0xb1, 0x3a, 0x3d,
  0xf5, 0xe7, 0xc1, 0xbe, 0xe8, 0x06, 0x54, 0xbe, 0xbc, 0x48, 0x1f, 0x3f,
  0x24, 0xd5, 0xc3, 0x3e, 0xab, 0x4b, 0x5d, 0x3e, 0xaa, 0x71, 0xcf, 0xbe,
  0x2a, 0x46, 0x21, 0x3e, 0xbd, 0xe5, 0xa5, 0x3d, 0x1f, 0x17, 0x58, 0x3e,
  0xbd, 0x0c, 0xd5, 0xbe, 0x4f, 0xb6, 0xbb, 0x3e, 0x51, 0x20, 0x48, 0xbe,
  0x4e, 0x11, 0x59, 0x3d, 0x5a, 0x54, 0x75, 0xbe, 0x0b, 0x7f, 0xc1, 0x3e,
  0x78, 0x55, 0x85, 0xbd, 0xf0, 0xb5, 0x90, 0x3d, 0xd4, 0xe9, 0xee, 0xbd,
  0x07, 0x13, 0xd0, 0xbe, 0x87, 0xbb, 0x75, 0xbe, 0x61, 0xe2, 0x03, 0xbd,
  0x1a, 0xc9, 0x27, 0xbe, 0xac, 0x4b, 0x84, 0xbe, 0x95, 0xbb, 0x8c, 0x3e,
  0x21, 0xbb, 0x91, 0x3e, 0x47, 0x7b, 0xdd, 0xbe, 0x32, 0x3b, 0x80, 0xbe,
  0x00, 0x27, 0xa3, 0xbd, 0xa2, 0x90, 0x98, 0xbe, 0xe6, 0x50, 0x02, 0x3e,
  0x86, 0x36, 0x7f, 0xbe, 0xd4, 0x91, 0xd3, 0x3d, 0x16, 0xa2, 0x39, 0xbe,
  0x3c, 0x20, 0xbd, 0x3d, 0x5e, 0x38, 0x4e, 0x3e, 0xce, 0x0f, 0x9b, 0xbe,
  0x5c, 0x5d, 0xcf, 0x3d, 0x38, 0x5f, 0x37, 0xbd, 0x8e, 0xaf, 0x16, 0xbe,
  0xa3, 0x10, 0x68, 0xbe, 0x40, 0x62, 0xac, 0xbc, 0x3f, 0x6f, 0x8d, 0x3e,
  0x9d, 0x97, 0x16, 0xbf, 0x95, 0x72, 0x84, 0x3d, 0x80, 0x48, 0xaa, 0xbe,
  0xd6, 0xc1, 0xba, 0xbe, 0x61, 0x99, 0x44, 0xbf, 0x28, 0xe6, 0x62, 0xbd,
  0x54, 0xd9, 0x25, 0x3e, 0x90, 0x16, 0xa5, 0x3d, 0xfd, 0xf8, 0x13, 0xbe,
  0x06, 0xeb, 0x04, 0x3f, 0x69, 0x53, 0x8f, 0x3d, 0x44, 0xe4, 0x9c, 0xbe,
  0xd9, 0x0e, 0x83, 0x3e, 0xef, 0xaf, 0x9a, 0xbe, 0x16, 0x80, 0x3f, 0xbd,
  0x60, 0x0b, 0x95, 0xbe, 0x7a, 0x45, 0x03, 0x3e, 0x9b, 0x1d, 0x96, 0x3e,
  0x17, 0x42, 0x27, 0x3e, 0x91, 0xa0, 0x95, 0xbe, 0x35, 0x15, 0xa4, 0xbe,
  0xb5, 0x38, 0xc7, 0xbe, 0x73, 0x2c, 0x28, 0x3e, 0x6c, 0x6e, 0xe7, 0x3e,
  0x19, 0xc0, 0x5e, 0xbe, 0xaf, 0x2b, 0x0e, 0x3f, 0x50, 0x57, 0x64, 0x3e,
  0x92, 0x8f, 0x6b, 0x3e, 0x24, 0x00, 0xea, 0xbd, 0xc9, 0xe0, 0x21, 0xbf,
  0xab, 0xfe, 0x73, 0x3e, 0xae, 0x0d, 0x3b, 0x3e, 0x90, 0xf6, 0xc0, 0xbe,
  0x74, 0xb9, 0xab, 0xbe, 0xc4, 0xfb, 0xf4, 0x3d, 0x14, 0xfd, 0x84, 0x3d,
  0x5a, 0x2a, 0xc4, 0xbe, 0xbe, 0xcf, 0x19, 0xbe, 0x9e, 0x5d, 0xb6, 0xbe,
  0xd6, 0xc0, 0xad, 0xbe, 0x1c, 0x49, 0xb0, 0x3d, 0xd0, 0xe8, 0x83, 0x3d,
  0x7c, 0xdd, 0x2a, 0xbe, 0x00, 0xfc, 0xa8, 0xba, 0xbc, 0x80, 0xb2, 0x3d,
  0x80, 0x27, 0xdd, 0xbb, 0x1f, 0xe8, 0xb2, 0x3e, 0x05, 0x21, 0xbb, 0xbe,
  0xfe, 0x73, 0x03, 0x3e, 0x0a, 0x13, 0x2e, 0x3e, 0xe8, 0x22, 0x5e, 0x3d,
  0x0a, 0x92, 0xbc, 0xbe, 0xf6, 0xb8, 0x90, 0xbe, 0xb0, 0xbe, 0x42, 0xbd,
  0x18, 0xbf, 0x06, 0xbd, 0x41, 0x4a, 0xa7, 0xbe, 0xe9, 0x06, 0x90, 0x3e,
  0x4c, 0xa4, 0x37, 0xbe, 0xc8, 0x78, 0x7d, 0x3d, 0xcc, 0x6d, 0xfa, 0x3d,
  0x14, 0xc4, 0x02, 0xbe, 0x05, 0x01, 0x4b, 0xbe, 0x43, 0x5d, 0x57, 0xbe,
  0xe4, 0xe9, 0x93, 0x3e, 0x1a, 0x63, 0x2b, 0x3e, 0x1b, 0x15, 0xbd, 0x3d,
  0x92, 0x3d, 0x91, 0x3d, 0x40, 0xae, 0x08, 0x3f, 0x92, 0xa0, 0x68, 0xbe,
  0x65, 0x9d, 0xdb, 0x3e, 0xdd, 0x9b, 0x83, 0xbf, 0x6a, 0xdc, 0x96, 0xbe,
  0x68, 0x88, 0xc9, 0x3e, 0x7f, 0xc9, 0x5b, 0xbe, 0x99, 0xa9, 0x26, 0xbf,
  0x58, 0xaf, 0x69, 0x3e, 0x57, 0xca, 0xea, 0x3e, 0xf8, 0x31, 0x1f, 0x3f,
  0xce, 0xec, 0xd9, 0xbe, 0xba, 0x3f, 0x6a, 0x3e, 0x00, 0x6c, 0x25, 0x3e,
  0xcc, 0x7f, 0xa2, 0xbe, 0x35, 0x69, 0x83, 0x3e, 0x82, 0xdb, 0x98, 0xbe,
  0x2b, 0x3a, 0x5b, 0x3d, 0x4f, 0xf5, 0xbf, 0x3e, 0x7a, 0xfc, 0x39, 0x3e,
  0x1c, 0x6f, 0xc8, 0x3e, 0x65, 0x3d, 0x84, 0xbe, 0x3a, 0xe4, 0x3f, 0xbf,
  0xb6, 0x05, 0x6e, 0xbe, 0x19, 0x97, 0xa5, 0x3d, 0xcf, 0xa0, 0x6b, 0x3e,
  0xce, 0xee, 0x82, 0x3e, 0x00, 0x49, 0x9b, 0xbe, 0x78, 0xbe, 0x23, 0xbe,
  0xf6, 0x01, 0x07, 0xbe, 0x30, 0x62, 0xb8, 0xbe, 0xd6, 0x22, 0x70, 0x3e,
  0x90, 0xd0, 0x99, 0xbe, 0xd1, 0xd9, 0x4c, 0xbe, 0x2f, 0xec, 0xda, 0x3e,
  0x84, 0xda, 0xb1, 0xbe, 0x6e, 0xab, 0x3f, 0x3e, 0x71, 0x37, 0xd5, 0xbe,
  0xc8, 0xfe, 0xca, 0xbd, 0x08, 0x73, 0x87, 0xbe, 0x40, 0x5a, 0xbc, 0xbe,
  0x96, 0x56, 0x24, 0x3e, 0x64, 0xe2, 0xd1, 0x3d, 0x66, 0x28, 0x24, 0xbe,
  0xeb, 0x24, 0x87, 0xbe, 0xaa, 0x61, 0xb3, 0x3e, 0xc5, 0x93, 0x92, 0x3e,
  0xfe, 0xfa, 0x2f, 0xbe, 0xd1, 0xcd, 0x64, 0x3d, 0x51, 0xb2, 0x8c, 0x3d,
  0x0e, 0x79, 0x5a, 0x3e, 0xb7, 0x77, 0x33, 0x3e, 0x40, 0xd2, 0x01, 0x3e,
  0xa3, 0xcc, 0x32, 0xbe, 0xbb, 0x53, 0x68, 0xbf, 0x47, 0xa0, 0x91, 0xbe,
  0x08, 0xad, 0x19, 0xbe, 0x39, 0x9f, 0x8e, 0xbc, 0xaa, 0x83, 0x08, 0xbe,
  0x96, 0x16, 0x31, 0x3c, 0x22, 0x83, 0x8e, 0xbe, 0x74, 0x2f, 0xa5, 0xbe,
  0xf2, 0xe6, 0xd3, 0xbd, 0xe0, 0x93, 0xbc, 0x3e, 0x4f, 0xa4, 0x8e, 0x3e,
  0x68, 0xe1, 0xcc, 0xbe, 0x71, 0xf4, 0xc1, 0xbe, 0xed, 0xe7, 0x5b, 0x3e,
  0x01, 0xa2, 0x40, 0xbe, 0x48, 0x83, 0x1f, 0xbe, 0x10, 0xa3, 0x1e, 0x3e,
  0x52, 0xbc, 0xcc, 0x3d, 0x88, 0x2b, 0x83, 0xbd, 0xfc, 0xc7, 0xcd, 0xbe,
  0x7c, 0x56, 0xef, 0xbd, 0x59, 0x87, 0x47, 0x3e, 0x73, 0x14, 0x97, 0x3c,
  0xe9, 0x72, 0x33, 0xbd, 0xca, 0x54, 0x9d, 0xbe, 0xa2, 0x12, 0x6f, 0x3e,
  0xbe, 0xc2, 0x93, 0xbe, 0x32, 0xd4, 0x60, 0x3e, 0x48, 0x3b, 0x31, 0x3d,
  0x21, 0x52, 0x2f, 0xbe, 0x99, 0x3d, 0xa2, 0x3e, 0x34, 0xf5, 0xe7, 0xbc,
  0x32, 0x01, 0x26, 0x3f, 0x8a, 0x51, 0x22, 0xbb, 0x71, 0x3b, 0x91, 0x3e,
  0x71, 0x07, 0xc8, 0xbe, 0xca, 0xe4, 0xef, 0x3e, 0x58, 0x7a, 0xc6, 0x3c,
  0x05, 0xbc, 0xbe, 0xbe, 0xf2, 0x25, 0xef, 0x3d, 0xaf, 0xa4, 0x76, 0xbe,
  0xa5, 0xb3, 0xba, 0x3e, 0x23, 0xf7, 0xdf, 0x3c, 0xf7, 0x26, 0x3b, 0xbd,
  0x16, 0xd6, 0xb3, 0xbe, 0x46, 0x44, 0x09, 0x3d, 0xc1, 0x73, 0xb5, 0xbe,
  0x33, 0x41, 0x51, 0xbe, 0xda, 0x13, 0x8a, 0x3e, 0xc8, 0x6c, 0x86, 0x3e,
  0xd9, 0x2c, 0x57, 0x3d, 0x9a, 0x4c, 0x97, 0xbd, 0xb5, 0x62, 0x7c, 0x3e,
  0x0b, 0x5e, 0x7d, 0xbe, 0x4e, 0x78, 0xc0, 0x3e, 0x7e, 0xfa, 0xe1, 0x3e,
  0x3d, 0x52, 0xac, 0x3e, 0x60, 0x17, 0x49, 0xbe, 0x9f, 0x7c, 0x9d, 0x3e,
  0xe7, 0x09, 0x5c, 0x3e, 0x2e, 0x1a, 0x25, 0xbe, 0x84, 0x00, 0x27, 0xbe,
  0xa5, 0x76, 0xc6, 0xbe, 0xf1, 0x46, 0x4c, 0x3d, 0xe4, 0x4b, 0xd8, 0xbe,
  0x10, 0xad, 0x80, 0x3d, 0x81, 0x69, 0x3e, 0xbe, 0x95, 0xb2, 0xc5, 0x3e,
  0xa0, 0xdd, 0xc1, 0xbe, 0x94, 0x8f, 0x48, 0xbd, 0x42, 0xf6, 0xff, 0xff,
  0x04, 0x00, 0x00, 0x00, 0x00, 0x08, 0x00, 0x00, 0x81, 0xd0, 0x68, 0xbe,
  0x8b, 0xc3, 0x70, 0xbe, 0x81, 0x0a, 0xc6, 0x3d, 0x17, 0x49, 0xa3, 0x3e,
  0x42, 0xf8, 0x28, 0x3e, 0xf2, 0x71, 0x61, 0x3e, 0x54, 0xd2, 0x9e, 0xbd,
  0xd8, 0xf6, 0xd2, 0x3d, 0xce, 0x41, 0xb8, 0x3e, 0x0c, 0x12, 0x8f, 0x3e,
  0x2a, 0xa6, 0x10, 0x3f, 0x56, 0x4a, 0x19, 0x3e, 0x82, 0x9a, 0x73, 0x3e,
  0xe3, 0x18, 0x87, 0x3e, 0x40, 0x2a, 0x76, 0xbd, 0x5f, 0x8b, 0x90, 0x3e,
  0xed, 0xfa, 0xa4, 0x3e, 0x2b, 0x99, 0x53, 0xbc, 0xf3, 0x8d, 0x0b, 0x3e,
  0x52, 0x42, 0xe5, 0x3d, 0x0a, 0x17, 0x6e, 0x3e, 0x34, 0xb8, 0x7f, 0xbe,
  0xe5, 0x0f, 0x87, 0x3e, 0x24, 0xa6, 0x96, 0x3d, 0x1d, 0xb3, 0xd5, 0xbd,
  0x08, 0x5d, 0x33, 0xbd, 0x69, 0xa4, 0xab, 0xbe, 0xf7, 0x03, 0xa5, 0x3e,
  0x24, 0x27, 0x90, 0xbe, 0xc6, 0xe5, 0x98, 0xbe, 0xf1, 0xb3, 0x5e, 0xbe,
  0xf9, 0xc5, 0x23, 0x3e, 0x0a, 0x89, 0x21, 0xbe, 0x00, 0x4b, 0x96, 0x3e,
  0x46, 0x06, 0x12, 0xbc, 0xfd, 0x51, 0x55, 0xbe, 0xaa, 0x71, 0x5c, 0x3e,
  0x00, 0x80, 0x03, 0x37, 0xa2, 0x5a, 0x73, 0x3e, 0x69, 0x33, 0xb8, 0x3e,
  0xd5, 0xf9, 0xf9, 0x3d, 0xf4, 0x44, 0x8b, 0x3e, 0xcd, 0x1c, 0xb9, 0xbe,
  0xbb, 0xcf, 0x52, 0x3e, 0x7c, 0x46, 0xf1, 0xbd, 0xf4, 0xa5, 0xec, 0x3d,
  0x80, 0xd2, 0x71, 0xbc, 0xae, 0xe1, 0x59, 0x3e, 0xf7, 0x4f, 0x6a, 0x3b,
  0x0c, 0xc3, 0xc0, 0xbd, 0xda, 0x79, 0x85, 0x3d, 0xdf, 0x75, 0x4e, 0x3e,
  0xe4, 0x05, 0xbb, 0xbd, 0x2a, 0xab, 0x6d, 0xbe, 0xb8, 0x85, 0x69, 0x3d,
  0x2a, 0xd4, 0x1a, 0x3e, 0x08, 0x58, 0xa4, 0x3e, 0x16, 0x87, 0xd6, 0xbd,
  0xc8, 0x68, 0x9b, 0x3d, 0x61, 0xa4, 0x81, 0x3e, 0xa7, 0x5f, 0xe1, 0xbc,
  0x9c, 0xbe, 0xc2, 0x3d, 0xd0, 0x36, 0xb5, 0xbc, 0xec, 0x21, 0x26, 0xbe,
  0x1c, 0x17, 0x8b, 0xbd, 0x98, 0xe2, 0x75, 0xbd, 0x4a, 0xb7, 0x61, 0xbe,
  0xac, 0x7a, 0xb2, 0x3d, 0x57, 0xea, 0xa2, 0x3e, 0xc0, 0x81, 0x42, 0xbc,
  0xe0, 0x17, 0x70, 0x3c, 0x00, 0x79, 0xf9, 0xba, 0xda, 0xb9, 0x6d, 0x3e,
  0x58, 0xb7, 0x9f, 0x3e, 0x4f, 0x26, 0xa2, 0xbe, 0xee, 0xe0, 0x88, 0x3e,
  0xbe, 0x25, 0x0f, 0xbe, 0xf8, 0x25, 0xab, 0x3d, 0xc8, 0xdc, 0x28, 0xbd,
  0x4a, 0x4b, 0x86, 0xbe, 0x63, 0x18, 0xd2, 0x3d, 0x2a, 0xca, 0x62, 0x3e,
  0x13, 0xf1, 0xf4, 0xbd, 0x0b, 0x61, 0x8e, 0x3e, 0xc9, 0x58, 0xb3, 0xbe,
  0x5d, 0xcf, 0xbf, 0xbe, 0x58, 0xfd, 0x17, 0xbe, 0x7a, 0x13, 0x71, 0x3e,
  0xec, 0x81, 0xed, 0x3d, 0x71, 0x05, 0xa5, 0xbe, 0x2a, 0x37, 0xad, 0xbe,
  0xd0, 0x0c, 0x45, 0x3d, 0xad, 0x1c, 0x57, 0x3e, 0x9e, 0xb3, 0x22, 0x3e,
  0xb2, 0x08, 0x0d, 0x3e, 0x60, 0x61, 0xab, 0x3d, 0x14, 0x82, 0x54, 0xbe,
  0xa7, 0x6a, 0x16, 0xbe, 0xb7, 0xde, 0xe0, 0xbb, 0x28, 0xc1, 0x64, 0x3d,
  0xe2, 0x46, 0x19, 0x3e, 0x00, 0x67, 0x85, 0xbd, 0x88, 0x43, 0xcd, 0xbd,
  0xa5, 0x02, 0xba, 0x3d, 0xb1, 0x09, 0xc1, 0xbe, 0x6b, 0x3a, 0x24, 0x3e,
  0xb6, 0x6c, 0x09, 0xbe, 0x1c, 0x45, 0x86, 0x3d, 0x46, 0x7b, 0x32, 0xbe,
  0xac, 0x90, 0x06, 0x3e, 0xf0, 0x6c, 0x0b, 0x3e, 0xdc, 0xe7, 0xa5, 0xbe,
  0xeb, 0x78, 0x9f, 0x3e, 0x3b, 0x47, 0x18, 0x3d, 0x78, 0x8c, 0x05, 0x3d,
  0x48, 0xb3, 0x58, 0x3e, 0x9e, 0xbe, 0x09, 0xbe, 0x69, 0x6b, 0x3a, 0xbd,
  0xec, 0x6c, 0xb1, 0xbd, 0x60, 0xbf, 0x5f, 0xbd, 0x96, 0xee, 0xc7, 0x3d,
  0x40, 0xa1, 0x75, 0xbc, 0x60, 0xe9, 0x66, 0xbe, 0x06, 0xcf, 0x2a, 0x3e,
  0xd1, 0xff, 0x55, 0xbe, 0x71, 0x2a, 0x9d, 0xbe, 0x90, 0xb9, 0x07, 0xbd,
  0x68, 0x24, 0xbe, 0xbd, 0xbe, 0x1b, 0xaf, 0xbe, 0xec, 0xb7, 0x0f, 0x3d,
  0xd8, 0x1f, 0x3c, 0xbd, 0x1f, 0xd8, 0x33, 0xbe, 0x4b, 0x65, 0x4e, 0xbe,
  0xc2, 0x55, 0x36, 0x3e, 0x86, 0x72, 0x14, 0xbe, 0xb5, 0xbe, 0x8b, 0xbe,
  0x1c, 0xe7, 0xad, 0x3e, 0xbd, 0x75, 0xc3, 0x3e, 0x5f, 0x72, 0x00, 0x3f,
  0x24, 0x46, 0x82, 0xbd, 0x0b, 0x15, 0x0e, 0xbe, 0x64, 0xfb, 0x9c, 0xbd,
  0x0a, 0xa8, 0xaa, 0xbe, 0xc4, 0xa3, 0x0a, 0xbe, 0x2c, 0x9c, 0x8f, 0x3e,
  0xa4, 0xa3, 0x68, 0x3e, 0x23, 0xe6, 0xfb, 0x3e, 0xb6, 0xbe, 0xb3, 0x3e,
  0x9a, 0xde, 0x67, 0x3e, 0x19, 0xc0, 0x1b, 0xbe, 0xb0, 0x77, 0xb4, 0x3c,
  0xdc, 0xf8, 0x13, 0xbe, 0x16, 0xb0, 0x5d, 0xbb, 0x60, 0xd3, 0x9e, 0x3c,
  0x40, 0x18, 0x2f, 0xbe, 0x47, 0x92, 0x60, 0xbe, 0x92, 0xc0, 0x86, 0xbd,
  0x60, 0xc0, 0x7e, 0xbd, 0xf4, 0x7a, 0xbb, 0xbd, 0xab, 0x55, 0x1e, 0xbe,
  0x30, 0xc8, 0xa7, 0x3d, 0x48, 0xaa, 0x77, 0x3e, 0xfd, 0x78, 0x83, 0x3e,
  0x41, 0xf0, 0x65, 0xbe, 0x5c, 0xd2, 0x08, 0x3e, 0xc7, 0x73, 0xa4, 0x3e,
  0xce, 0x0f, 0x6f, 0xbe, 0xd9, 0x29, 0xb2, 0x3e, 0x10, 0x74, 0x78, 0x3e,
  0xe5, 0xc0, 0x91, 0x3e, 0xa9, 0x77, 0x95, 0x3c, 0x2d, 0x31, 0xc0, 0x3e,
  0x01, 0xeb, 0x8f, 0x3e, 0x37, 0x44, 0x8c, 0x3e, 0x00, 0x9c, 0x5a, 0x3c,
  0x50, 0x3d, 0xb6, 0x3d, 0x83, 0xc5, 0xf9, 0x3d, 0x22, 0x7e, 0x86, 0x3e,
  0x09, 0x14, 0xd0, 0x3d, 0xac, 0x63, 0x67, 0x3e, 0x48, 0xb6, 0x47, 0xbd,
  0xca, 0xdc, 0x30, 0xbe, 0xf2, 0xa7, 0x44, 0x3e, 0x40, 0xe2, 0x1c, 0xbe,
  0x0f, 0xbf, 0x33, 0xbe, 0x06, 0x6d, 0x7a, 0x3e, 0x6c, 0xbd, 0x01, 0x3e,
  0x98, 0x27, 0xcf, 0x3d, 0xe4, 0x1b, 0x17, 0xbe, 0x79, 0x02, 0xad, 0x3e,
  0x10, 0x2f, 0x96, 0xbe, 0x86, 0x9f, 0x9f, 0x3e, 0xa9, 0x99, 0x9a, 0xbe,
  0x90, 0xa1, 0x37, 0xbe, 0xd6, 0x91, 0xa7, 0xbe, 0x53, 0x9b, 0x8f, 0x3e,
  0xca, 0xbc, 0x04, 0xbe, 0x05, 0x56, 0x8b, 0x3e, 0xff, 0x29, 0xb0, 0x3e,
  0x0a, 0x12, 0x3b, 0x3e, 0x9b, 0x50, 0x0c, 0xbe, 0x8b, 0x74, 0x3d, 0xbe,
  0x09, 0x67, 0x4f, 0xbe, 0x68, 0xdc, 0x29, 0xbd, 0xcc, 0x54, 0x80, 0x3d,
  0x37, 0x2c, 0xa0, 0xbe, 0x00, 0xa2, 0x6b, 0x3b, 0x00, 0xc5, 0x90, 0xbb,
  0x46, 0xa7, 0x42, 0xbe, 0xcc, 0x4d, 0xb9, 0xbd, 0x66, 0xb1, 0x20, 0x3e,
  0x88, 0x83, 0x48, 0xbe, 0xdd, 0x89, 0x98, 0x3e, 0x00, 0xfa, 0xe4, 0xbd,
  0xbb, 0x08, 0xa2, 0x3e, 0xdd, 0x6f, 0x83, 0xbe, 0xed, 0x0d, 0x1f, 0xbe,
  0x9c, 0xc2, 0x97, 0x3d, 0xea, 0xcf, 0x3a, 0x3e, 0xf0, 0x88, 0x52, 0xbe,
  0x32, 0x37, 0xec, 0xbd, 0x9e, 0x47, 0x89, 0xbe, 0xc8, 0xfd, 0xed, 0x3d,
  0xf8, 0xd4, 0x47, 0x3d, 0x42, 0x14, 0xa5, 0xbe, 0x9b, 0x74, 0x57, 0xbc,
  0x58, 0xb1, 0x1a, 0x3e, 0x38, 0x51, 0xd9, 0x3d, 0xc0, 0x12, 0x37, 0xbe,
  0xfc, 0xf3, 0x61, 0xbe, 0x26, 0xf3, 0xb4, 0xbe, 0x54, 0x5d, 0xc7, 0x3d,
  0x30, 0xd4, 0x26, 0x3c, 0x56, 0xfd, 0x17, 0x3e, 0xee, 0x90, 0xcd, 0xbe,
  0xe5, 0x51, 0x21, 0x3e, 0x3c, 0x5d, 0x90, 0xbe, 0x8c, 0xc8, 0x00, 0x3e,
  0x5c, 0xa9, 0x0a, 0x3e, 0x83, 0x50, 0x37, 0xbe, 0x7a, 0xe0, 0x02, 0xbd,
  0x44, 0xb2, 0xf4, 0x3d, 0x68, 0x73, 0x99, 0xbe, 0xfd, 0xc9, 0xa7, 0xbe,
  0x70, 0x02, 0xb5, 0xbd, 0x80, 0xb7, 0xa8, 0x3c, 0xc0, 0x6c, 0xd6, 0x3d,
  0x53, 0x97, 0xb2, 0x3e, 0x31, 0x8a, 0x3e, 0xbe, 0x02, 0x2f, 0x72, 0x3e,
  0x18, 0x57, 0x4e, 0xbd, 0x5c, 0x85, 0x82, 0x3d, 0xb6, 0xc8, 0xce, 0x3e,
  0xa0, 0x64, 0x16, 0x3d, 0x10, 0x84, 0x24, 0xbd, 0xb1, 0x09, 0xcb, 0xbe,
  0x2a, 0xc0, 0xa5, 0xbe, 0x65, 0xd3, 0x7f, 0xbe, 0x7c, 0x57, 0x54, 0xbd,
  0xff, 0x42, 0x8b, 0xbe, 0x26, 0x1b, 0x91, 0xbe, 0xf4, 0xc0, 0x93, 0xbd,
  0x48, 0x6a, 0x93, 0x3d, 0x86, 0xe7, 0x1f, 0x3e, 0x91, 0x3c, 0x18, 0xbf,
  0xd6, 0xfd, 0x9b, 0x3d, 0x7a, 0x5f, 0x4a, 0xbe, 0x38, 0x77, 0xae, 0x3e,
  0xea, 0xf3, 0xa3, 0xbe, 0x18, 0xaf, 0x3c, 0xbd, 0x44, 0x64, 0x59, 0xbe,
  0x52, 0x9f, 0x56, 0x3e, 0xbc, 0xfd, 0x97, 0x3e, 0xa6, 0xce, 0x8d, 0x3d,
  0xb2, 0x77, 0x56, 0xbe, 0x76, 0x84, 0x37, 0x3e, 0x60, 0x9a, 0x2e, 0x3c,
  0x58, 0x40, 0xbe, 0x3e, 0xe0, 0xac, 0x1e, 0xbe, 0xca, 0x33, 0xd4, 0xbd,
  0x60, 0x3c, 0xb4, 0xbe, 0x5c, 0x05, 0x8c, 0xbd, 0x6c, 0x7d, 0xad, 0x3d,
  0xb6, 0x4e, 0x91, 0xbe, 0xb6, 0x99, 0x8d, 0x3e, 0x4f, 0xe0, 0xaa, 0xbe,
  0x9a, 0xaa, 0x53, 0x3e, 0x17, 0x04, 0x76, 0x3e, 0xe6, 0x77, 0x70, 0x3e,
  0x11, 0xce, 0x8e, 0xbd, 0xdd, 0x25, 0xd5, 0x3b, 0x50, 0xe6, 0x86, 0xbe,
  0x0a, 0x92, 0x4d, 0x3e, 0x8b, 0xab, 0xac, 0xbe, 0xcf, 0x02, 0x80, 0x3e,
  0x44, 0x2c, 0x32, 0x3e, 0x48, 0x6c, 0x05, 0xbd, 0xe9, 0x95, 0xb6, 0xbe,
  0x07, 0x2d, 0x9c, 0x3e, 0xd7, 0xb5, 0xfb, 0xbd, 0x70, 0x64, 0xa7, 0x3c,
  0xaa, 0x1d, 0x30, 0x3e, 0xcd, 0x9c, 0xaa, 0x3e, 0xa6, 0x6e, 0x3b, 0x3e,
  0x7a, 0x5c, 0xbd, 0x3e, 0xa3, 0x61, 0x51, 0xbe, 0xff, 0x01, 0x96, 0x3e,
  0x12, 0x72, 0xae, 0xbe, 0x6a, 0xe9, 0x95, 0xbe, 0x06, 0x78, 0x34, 0x3e,
  0x57, 0xbb, 0x3d, 0xbe, 0x29, 0x32, 0x9c, 0x3e, 0x6c, 0xe9, 0x42, 0x3e,
  0x70, 0x1e, 0x8c, 0x3c, 0x4a, 0xb9, 0x30, 0x3e, 0xb8, 0x58, 0x6a, 0x3d,
  0x70, 0x07, 0x28, 0xbe, 0x7f, 0xf0, 0x65, 0xbe, 0xb1, 0xda, 0x94, 0x3e,
  0x46, 0xc9, 0x00, 0x3e, 0xd4, 0xfe, 0xa8, 0x3d, 0xae, 0x36, 0xb1, 0xbe,
  0x8e, 0xa4, 0xc4, 0xbe, 0xb0, 0xa8, 0xb1, 0xbe, 0x66, 0x9a, 0x7e, 0x3e,
  0x98, 0x00, 0xc6, 0xbd, 0xf0, 0x9e, 0xce, 0x3d, 0xe4, 0x5d, 0x2f, 0x3e,
  0x7f, 0x63, 0xe9, 0xbe, 0x3f, 0xaa, 0xf8, 0x3d, 0x53, 0xd2, 0xfb, 0xbe,
  0x80, 0x06, 0xb0, 0x3e, 0xef, 0x88, 0x14, 0xbe, 0x4b, 0xc5, 0x92, 0x3e,
  0x7a, 0x42, 0x45, 0x3e, 0x90, 0x8f, 0x58, 0xbd, 0xe1, 0xef, 0x5e, 0xbe,
  0xaa, 0xc9, 0xb9, 0xbe, 0xa4, 0x6d, 0xb8, 0xbe, 0x90, 0x78, 0x21, 0xbe,
  0x37, 0x50, 0x9d, 0xbe, 0x20, 0xb2, 0xa3, 0x3e, 0x67, 0xfc, 0x44, 0xbe,
  0xf2, 0x12, 0x62, 0xbe, 0x8e, 0xc1, 0x8b, 0x3e, 0x4a, 0x5b, 0x38, 0x3e,
  0x94, 0xcf, 0x74, 0xbe, 0x28, 0x7f, 0x4d, 0x3d, 0x62, 0xb2, 0xc4, 0x3e,
  0xbd, 0xcf, 0x93, 0x3e, 0x30, 0x09, 0xa9, 0xbe, 0x7b, 0x99, 0x73, 0xbe,
  0xba, 0x25, 0x66, 0x3e, 0xf0, 0x04, 0x3e, 0xbd, 0xdd, 0xc6, 0x6b, 0x3e,
  0xda, 0xab, 0x51, 0x3e, 0xbf, 0x64, 0xa9, 0x3e, 0x5b, 0xbf, 0x21, 0xbe,
  0x67, 0xa4, 0x89, 0xbe, 0x6a, 0xb9, 0x9d, 0xbc, 0x0e, 0x54, 0xde, 0xbe,
  0x40, 0xc1, 0x17, 0xbe, 0x86, 0x43, 0x34, 0x3d, 0xa9, 0xb0, 0xab, 0x3e,
  0x76, 0x01, 0x18, 0x3e, 0x8a, 0x90, 0x6b, 0xbe, 0x91, 0xdc, 0xa7, 0x3e,
  0xb1, 0xa3, 0x10, 0xbe, 0x48, 0xc8, 0xb1, 0xbd, 0x6d, 0x49, 0x6c, 0xbe,
  0x82, 0xc6, 0xac, 0xbe, 0xba, 0x25, 0xfb, 0x3d, 0xad, 0xc4, 0xb0, 0x3e,
  0x9c, 0xdf, 0x16, 0x3d, 0x60, 0x3f, 0xcf, 0x3d, 0x60, 0xac, 0x93, 0x3c,
  0x33, 0x0f, 0x9c, 0xbd, 0xae, 0xc9, 0x28, 0x3e, 0xd0, 0x1e, 0x57, 0x3d,
  0xa7, 0x21, 0xa2, 0xbe, 0x7d, 0x16, 0x32, 0x3e, 0x91, 0xf1, 0x8d, 0x3e,
  0x80, 0xdc, 0x12, 0xbc, 0x5a, 0x33, 0x27, 0x3c, 0x4e, 0x30, 0x4e, 0xbe,
  0x64, 0x0d, 0x7b, 0x3e, 0xb2, 0xf0, 0x6f, 0xbd, 0xb1, 0x41, 0x89, 0x3e,
  0x9b, 0xe1, 0x99, 0x3e, 0x1f, 0xe7, 0xb2, 0x3e, 0x3d, 0x09, 0x39, 0xbe,
  0xd2, 0xad, 0x7b, 0xbe, 0x3a, 0xff, 0x1c, 0x3e, 0x8a, 0xa1, 0xb2, 0xbd,
  0x95, 0xfb, 0x20, 0x3e, 0x9c, 0xbd, 0x25, 0xbe, 0x4b, 0x1f, 0xb0, 0x3e,
  0x4f, 0x5d, 0x88, 0xbe, 0x50, 0xa2, 0x75, 0x3d, 0xbc, 0x66, 0xbc, 0xbd,
  0x70, 0x1d, 0xb2, 0xbd, 0xe0, 0x64, 0x16, 0x3c, 0x5a, 0x15, 0x8d, 0xbe,
  0x60, 0xfb, 0xdf, 0x3d, 0x86, 0x3d, 0x28, 0x3e, 0xa8, 0x83, 0x67, 0xbe,
  0x3c, 0x51, 0x0a, 0x3e, 0x49, 0x15, 0x9c, 0x3e, 0xa9, 0xc7, 0x98, 0x3e,
  0x10, 0xf7, 0xab, 0xbe, 0x2d, 0x8f, 0xa9, 0xbe, 0xe0, 0x16, 0x2a, 0xbc,
  0x7e, 0xb9, 0x75, 0x3e, 0x69, 0x23, 0x22, 0xbe, 0x97, 0x26, 0xb1, 0x3e,
  0xcf, 0x5b, 0x79, 0xbe, 0xb7, 0xc4, 0xb0, 0x3e, 0xf1, 0x04, 0x8e, 0x3d,
  0xfe, 0xbc, 0x8f, 0x3c, 0xd0, 0x47, 0x4d, 0xbd, 0xb8, 0x21, 0xbd, 0x3d,
  0xc0, 0xc1, 0x01, 0xbc, 0x18, 0x78, 0x64, 0xbe, 0xc5, 0x39, 0x5d, 0x3e,
  0xcf, 0xce, 0x06, 0x3e, 0xba, 0x8e, 0x5b, 0xbe, 0xf4, 0xc4, 0x14, 0x3f,
  0xed, 0xde, 0xd4, 0x3d, 0x79, 0xdb, 0x9b, 0xbe, 0x50, 0xc0, 0x73, 0xbd,
  0x3d, 0xbe, 0x1b, 0xbe, 0x62, 0x22, 0x39, 0xbe, 0x4e, 0xe8, 0xcf, 0x3d,
  0xd1, 0x1c, 0x2e, 0x3e, 0xc6, 0x3c, 0x48, 0x3d, 0x0f, 0xf5, 0xa6, 0xbe,
  0x66, 0x4f, 0x68, 0x3e, 0xac, 0xa7, 0x73, 0x3d, 0x78, 0xf0, 0x03, 0xbd,
  0x60, 0x6a, 0x11, 0xbc, 0xab, 0x93, 0x81, 0x3e, 0xbe, 0x02, 0x27, 0x3e,
  0x1e, 0x55, 0xdf, 0xbd, 0x28, 0xc8, 0xb5, 0xbd, 0xb7, 0x37, 0x85, 0xbe,
  0x85, 0x0d, 0x9e, 0x3e, 0x3d, 0x16, 0x90, 0x3e, 0x13, 0x95, 0xc0, 0x3e,
  0x40, 0x31, 0xe8, 0xbd, 0xf2, 0x21, 0x64, 0xbc, 0xd5, 0x41, 0xd2, 0x3e,
  0x80, 0x31, 0x22, 0x3d, 0x59, 0x40, 0x52, 0xbe, 0xcf, 0x6a, 0xa1, 0x3e,
  0x30, 0x51, 0xac, 0x3c, 0xed, 0xad, 0xb0, 0xbe, 0x63, 0x22, 0x91, 0x3e,
  0xbf, 0x75, 0xc1, 0x3e, 0xc6, 0xb0, 0x3b, 0x3f, 0x3b, 0x96, 0x84, 0xbc,
  0xc0, 0x15, 0x48, 0xbc, 0xac, 0x7f, 0x4b, 0xbe, 0xbc, 0x08, 0xcc, 0xbd,
  0x20, 0xc2, 0x0f, 0x3e, 0xf6, 0x25, 0x11, 0x3d, 0x97, 0x8a, 0xaf, 0xbd,
  0x2c, 0x1f, 0xec, 0xbd, 0x11, 0x9b, 0x8c, 0xbe, 0x01, 0x71, 0xa2, 0xbe,
  0xbe, 0x38, 0x97, 0xbd, 0xe8, 0xe5, 0xfa, 0x3d, 0x9c, 0xd6, 0xc2, 0xbd,
  0x62, 0x2e, 0x82, 0x3e, 0xa6, 0x20, 0x53, 0x3e, 0xda, 0xb9, 0x3f, 0x3e,
  0x92, 0x76, 0xa7, 0xbe, 0xaf, 0xcf, 0x47, 0xbc, 0x33, 0x79, 0x96, 0xbe,
  0x28, 0x75, 0xe4, 0xbd, 0x07, 0x8d, 0xb7, 0x3e, 0x7e, 0x75, 0x63, 0x3e,
  0xd6, 0x34, 0xf6, 0xbd, 0xaa, 0x30, 0x63, 0x3c, 0xc2, 0x80, 0x79, 0xbe,
  0xb8, 0x5f, 0xbd, 0x3d, 0x64, 0xad, 0xe0, 0x3d, 0x62, 0x26, 0x1f, 0x3e,
  0xf7, 0x94, 0x8b, 0x3e, 0xd1, 0x13, 0x3e, 0xbe, 0xae, 0xd1, 0x88, 0xbb,
  0xd5, 0x86, 0xbc, 0xbe, 0xeb, 0x77, 0x3f, 0xbe, 0x4d, 0xdc, 0x8e, 0x3e,
  0xd6, 0x03, 0x93, 0xbe, 0x63, 0x61, 0x83, 0x3e, 0xc0, 0x30, 0x9b, 0xbe,
  0x65, 0xc3, 0x10, 0xbe, 0x98, 0xa9, 0xad, 0x3d, 0x3d, 0xed, 0x45, 0xbe,
  0xf3, 0xe0, 0x8e, 0x3e, 0xc0, 0x85, 0x58, 0x3d, 0x12, 0xd8, 0xd0, 0x3d,
  0xef, 0x85, 0x8f, 0x3e, 0xd4, 0xe3, 0x91, 0xbd, 0xe7, 0x52, 0x32, 0xbe,
  0x59, 0x89, 0x9d, 0xbe, 0x93, 0x15, 0x55, 0xbe, 0x3c, 0x01, 0xc2, 0x3d,
  0xdc, 0x17, 0xd3, 0x3b, 0xb5, 0xf2, 0x8a, 0xbe, 0xc0, 0x31, 0x1c, 0x3d,
  0xc5, 0xd4, 0x43, 0x3e, 0x4e, 0xfe, 0xff, 0xff, 0x04, 0x00, 0x00, 0x00,
  0x80, 0x00, 0x00, 0x00, 0x97, 0x12, 0xc4, 0xbe, 0x6a, 0xa2, 0xd3, 0x3e,
  0x61, 0x1c, 0xa7, 0x3e, 0x85, 0xe9, 0x3c, 0xbe, 0x0a, 0x13, 0xac, 0xbe,
  0x64, 0x80, 0x46, 0xbe, 0xc0, 0x72, 0xe2, 0xbc, 0x0d, 0xa8, 0xbb, 0x3e,
  0x84, 0x5e, 0x14, 0x3e, 0xd5, 0x8a, 0xb0, 0x3e, 0x19, 0x7a, 0xde, 0x3d,
  0x95, 0x8e, 0xa9, 0x3e, 0xb0, 0x07, 0x26, 0xbd, 0x63, 0x02, 0x63, 0xbe,
  0xb6, 0x97, 0x68, 0xbe, 0xb6, 0xb8, 0x2b, 0xbe, 0xeb, 0x64, 0xbe, 0x3e,
  0xff, 0xc2, 0x8c, 0x3e, 0x02, 0x36, 0x21, 0x3e, 0x0f, 0x5c, 0x37, 0x3e,
  0x2e, 0xd7, 0x10, 0xbe, 0x7b, 0xb8, 0x71, 0x3e, 0x5c, 0xc3, 0x00, 0xbe,
  0x95, 0xf8, 0xd7, 0xbe, 0x73, 0xa2, 0xbd, 0x3e, 0x19, 0x17, 0x92, 0xbe,
  0x36, 0x83, 0x60, 0xbe, 0x9c, 0x72, 0x8b, 0xbe, 0xd5, 0x08, 0x58, 0x3d,
  0xd0, 0xd2, 0x1d, 0xbe, 0x78, 0x28, 0xe5, 0xbd, 0x48, 0x7f, 0x97, 0x3e,
  0xda, 0xfe, 0xff, 0xff, 0x04, 0x00, 0x00, 0x00, 0x80, 0x00, 0x00, 0x00,
  0x00, 0x00, 0x00, 0x00, 0x24, 0xe8, 0x56, 0xbe, 0x11, 0x50, 0x55, 0xbe,
  0x00, 0x00, 0x00, 0x00, 0x00, 0x00, 0x00, 0x00, 0x00, 0x00, 0x00, 0x00,
  0x00, 0x00, 0x00, 0x00, 0x8e, 0xf9, 0x46, 0x3e, 0x16, 0x4c, 0x90, 0xbe,
  0xe1, 0xcc, 0x2f, 0x3d, 0xf8, 0x17, 0x99, 0xbe, 0x0c, 0x21, 0x69, 0x3e,
  0x00, 0x00, 0x00, 0x00, 0x00, 0x00, 0x00, 0x00, 0x00, 0x00, 0x00, 0x00,
  0x00, 0x00, 0x00, 0x00, 0x8b, 0xa4, 0xba, 0xbe, 0x62, 0x1a, 0x4f, 0xbe,
  0x66, 0xea, 0x9e, 0xbe, 0x11, 0xe3, 0x28, 0x3d, 0x00, 0x00, 0x00, 0x00,
  0x69, 0x1e, 0x49, 0x3e, 0x00, 0x00, 0x00, 0x00, 0x00, 0x00, 0x00, 0x00,
  0xab, 0x54, 0x34, 0xbe, 0x00, 0x00, 0x00, 0x00, 0x00, 0x00, 0x00, 0x00,
  0x00, 0x00, 0x00, 0x00, 0x27, 0xf1, 0x83, 0x3e, 0x00, 0x00, 0x00, 0x00,
  0x00, 0x00, 0x00, 0x00, 0x87, 0x35, 0xe0, 0xbe, 0x66, 0xff, 0xff, 0xff,
  0x04, 0x00, 0x00, 0x00, 0x40, 0x00, 0x00, 0x00, 0x21, 0xc0, 0xaf, 0xbe,
  0x9c, 0x7e, 0x5c, 0xbc, 0x87, 0x19, 0xaa, 0xbc, 0xe2, 0x02, 0x81, 0xbd,
  0x66, 0x6b, 0x91, 0xbe, 0xf2, 0x11, 0x2f, 0xbb, 0x00, 0x00, 0x00, 0x00,
  0xe0, 0xde, 0xd6, 0x3e, 0x48, 0x62, 0x6c, 0x3e, 0x9e, 0x7c, 0x66, 0xbe,
  0x2f, 0x03, 0x69, 0x3e, 0x2d, 0x54, 0x18, 0x3e, 0x1d, 0xb6, 0x37, 0xbb,
  0xe3, 0xf7, 0xf0, 0xbe, 0x0f, 0xbe, 0xb2, 0xbe, 0x84, 0x79, 0x0e, 0x3e,
  0xb2, 0xff, 0xff, 0xff, 0x04, 0x00, 0x00, 0x00, 0x40, 0x00, 0x00, 0x00,
  0xef, 0xd3, 0x8f, 0xbd, 0xbc, 0x6b, 0x0b, 0xbd, 0xb5, 0xa0, 0x55, 0xbd,
  0x00, 0x00, 0x00, 0x00, 0xd3, 0x33, 0xbd, 0x3e, 0x2b, 0x8b, 0x1c, 0x3e,
  0x00, 0x00, 0x00, 0x00, 0x00, 0x00, 0x00, 0x00, 0x2d, 0x2f, 0xb9, 0xbe,
  0x0f, 0xe3, 0xda, 0x3c, 0x00, 0x00, 0x00, 0x00, 0x54, 0x25, 0x13, 0xb9,
  0xc9, 0x9b, 0x13, 0x3e, 0x19, 0x9d, 0x91, 0xbd, 0x00, 0x1b, 0x4f, 0xbb,
  0xa1, 0x66, 0x80, 0x3a, 0x00, 0x00, 0x06, 0x00, 0x08, 0x00, 0x04, 0x00,
  0x06, 0x00, 0x00, 0x00, 0x04, 0x00, 0x00, 0x00, 0x04, 0x00, 0x00, 0x00,
  0xa4, 0x66, 0x8a, 0xbd, 0x60, 0xf9, 0xff, 0xff, 0x64, 0xf9, 0xff, 0xff,
  0x0f, 0x00, 0x00, 0x00, 0x4d, 0x4c, 0x49, 0x52, 0x20, 0x43, 0x6f, 0x6e,
  0x76, 0x65, 0x72, 0x74, 0x65, 0x64, 0x2e, 0x00, 0x01, 0x00, 0x00, 0x00,
  0x14, 0x00, 0x00, 0x00, 0x00, 0x00, 0x0e, 0x00, 0x18, 0x00, 0x14, 0x00,
  0x10, 0x00, 0x0c, 0x00, 0x08, 0x00, 0x04, 0x00, 0x0e, 0x00, 0x00, 0x00,
  0x14, 0x00, 0x00, 0x00, 0x1c, 0x00, 0x00, 0x00, 0x10, 0x01, 0x00, 0x00,
  0x14, 0x01, 0x00, 0x00, 0x18, 0x01, 0x00, 0x00, 0x04, 0x00, 0x00, 0x00,
  0x6d, 0x61, 0x69, 0x6e, 0x00, 0x00, 0x00, 0x00, 0x04, 0x00, 0x00, 0x00,
  0xb8, 0x00, 0x00, 0x00, 0x70, 0x00, 0x00, 0x00, 0x38, 0x00, 0x00, 0x00,
  0x04, 0x00, 0x00, 0x00, 0x66, 0xff, 0xff, 0xff, 0x10, 0x00, 0x00, 0x00,
  0x00, 0x00, 0x00, 0x08, 0x0c, 0x00, 0x00, 0x00, 0x10, 0x00, 0x00, 0x00,
  0xe0, 0xf9, 0xff, 0xff, 0x01, 0x00, 0x00, 0x00, 0x0c, 0x00, 0x00, 0x00,
  0x03, 0x00, 0x00, 0x00, 0x0b, 0x00, 0x00, 0x00, 0x08, 0x00, 0x00, 0x00,
  0x01, 0x00, 0x00, 0x00, 0x96, 0xff, 0xff, 0xff, 0x10, 0x00, 0x00, 0x00,
  0x00, 0x00, 0x00, 0x08, 0x10, 0x00, 0x00, 0x00, 0x14, 0x00, 0x00, 0x00,
  0x86, 0xff, 0xff, 0xff, 0x00, 0x00, 0x00, 0x01, 0x01, 0x00, 0x00, 0x00,
  0x0b, 0x00, 0x00, 0x00, 0x03, 0x00, 0x00, 0x00, 0x0a, 0x00, 0x00, 0x00,
  0x07, 0x00, 0x00, 0x00, 0x02, 0x00, 0x00, 0x00, 0xca, 0xff, 0xff, 0xff,
  0x10, 0x00, 0x00, 0x00, 0x00, 0x00, 0x00, 0x08, 0x10, 0x00, 0x00, 0x00,
  0x14, 0x00, 0x00, 0x00, 0xba, 0xff, 0xff, 0xff, 0x00, 0x00, 0x00, 0x01,
  0x01, 0x00, 0x00, 0x00, 0x0a, 0x00, 0x00, 0x00, 0x03, 0x00, 0x00, 0x00,
  0x09, 0x00, 0x00, 0x00, 0x06, 0x00, 0x00, 0x00, 0x03, 0x00, 0x00, 0x00,
  0x00, 0x00, 0x0e, 0x00, 0x16, 0x00, 0x00, 0x00, 0x10, 0x00, 0x0c, 0x00,
  0x0b, 0x00, 0x04, 0x00, 0x0e, 0x00, 0x00, 0x00, 0x18, 0x00, 0x00, 0x00,
  0x00, 0x00, 0x00, 0x08, 0x18, 0x00, 0x00, 0x00, 0x1c, 0x00, 0x00, 0x00,
  0x00, 0x00, 0x06, 0x00, 0x08, 0x00, 0x07, 0x00, 0x06, 0x00, 0x00, 0x00,
  0x00, 0x00, 0x00, 0x01, 0x01, 0x00, 0x00, 0x00, 0x09, 0x00, 0x00, 0x00,
  0x03, 0x00, 0x00, 0x00, 0x00, 0x00, 0x00, 0x00, 0x05, 0x00, 0x00, 0x00,
  0x04, 0x00, 0x00, 0x00, 0x01, 0x00, 0x00, 0x00, 0x0c, 0x00, 0x00, 0x00,
  0x01, 0x00, 0x00, 0x00, 0x00, 0x00, 0x00, 0x00, 0x0d, 0x00, 0x00, 0x00,
  0x14, 0x05, 0x00, 0x00, 0xa0, 0x04, 0x00, 0x00, 0x2c, 0x04, 0x00, 0x00,
  0xd0, 0x03, 0x00, 0x00, 0x74, 0x03, 0x00, 0x00, 0x24, 0x03, 0x00, 0x00,
  0xd4, 0x02, 0x00, 0x00, 0x84, 0x02, 0x00, 0x00, 0x34, 0x02, 0x00, 0x00,
  0x98, 0x01, 0x00, 0x00, 0xfc, 0x00, 0x00, 0x00, 0x60, 0x00, 0x00, 0x00,
  0x04, 0x00, 0x00, 0x00, 0x36, 0xfb, 0xff, 0xff, 0x00, 0x00, 0x00, 0x01,
  0x14, 0x00, 0x00, 0x00, 0x1c, 0x00, 0x00, 0x00, 0x1c, 0x00, 0x00, 0x00,
  0x0d, 0x00, 0x00, 0x00, 0x34, 0x00, 0x00, 0x00, 0x02, 0x00, 0x00, 0x00,
  0xff, 0xff, 0xff, 0xff, 0x01, 0x00, 0x00, 0x00, 0x20, 0xfb, 0xff, 0xff,
  0x19, 0x00, 0x00, 0x00, 0x53, 0x74, 0x61, 0x74, 0x65, 0x66, 0x75, 0x6c,
  0x50, 0x61, 0x72, 0x74, 0x69, 0x74, 0x69, 0x6f, 0x6e, 0x65, 0x64, 0x43,
  0x61, 0x6c, 0x6c, 0x3a, 0x30, 0x00, 0x00, 0x00, 0x02, 0x00, 0x00, 0x00,
  0x01, 0x00, 0x00, 0x00, 0x01, 0x00, 0x00, 0x00, 0x8e, 0xfb, 0xff, 0xff,
  0x00, 0x00, 0x00, 0x01, 0x14, 0x00, 0x00, 0x00, 0x1c, 0x00, 0x00, 0x00,
  0x1c, 0x00, 0x00, 0x00, 0x0c, 0x00, 0x00, 0x00, 0x74, 0x00, 0x00, 0x00,
  0x02, 0x00, 0x00, 0x00, 0xff, 0xff, 0xff, 0xff, 0x10, 0x00, 0x00, 0x00,
  0x78, 0xfb, 0xff, 0xff, 0x58, 0x00, 0x00, 0x00, 0x73, 0x65, 0x71, 0x75,
  0x65, 0x6e, 0x74, 0x69, 0x61, 0x6c, 0x5f, 0x31, 0x30, 0x2f, 0x64, 0x65,
  0x6e, 0x73, 0x65, 0x5f, 0x32, 0x38, 0x2f, 0x4d, 0x61, 0x74, 0x4d, 0x75,
  0x6c, 0x3b, 0x73, 0x65, 0x71, 0x75, 0x65, 0x6e, 0x74, 0x69, 0x61, 0x6c,
  0x5f, 0x31, 0x30, 0x2f, 0x64, 0x65, 0x6e, 0x73, 0x65, 0x5f, 0x32, 0x38,
  0x2f, 0x52, 0x65, 0x6c, 0x75, 0x3b, 0x73, 0x65, 0x71, 0x75, 0x65, 0x6e,
  0x74, 0x69, 0x61, 0x6c, 0x5f, 0x31, 0x30, 0x2f, 0x64, 0x65, 0x6e, 0x73,
  0x65, 0x5f, 0x32, 0x38, 0x2f, 0x42, 0x69, 0x61, 0x73, 0x41, 0x64, 0x64,
  0x00, 0x00, 0x00, 0x00, 0x02, 0x00, 0x00, 0x00, 0x01, 0x00, 0x00, 0x00,
  0x10, 0x00, 0x00, 0x00, 0x26, 0xfc, 0xff, 0xff, 0x00, 0x00, 0x00, 0x01,
  0x14, 0x00, 0x00, 0x00, 0x1c, 0x00, 0x00, 0x00, 0x1c, 0x00, 0x00, 0x00,
  0x0b, 0x00, 0x00, 0x00, 0x74, 0x00, 0x00, 0x00, 0x02, 0x00, 0x00, 0x00,
  0xff, 0xff, 0xff, 0xff, 0x10, 0x00, 0x00, 0x00, 0x10, 0xfc, 0xff, 0xff,
  0x58, 0x00, 0x00, 0x00, 0x73, 0x65, 0x71, 0x75, 0x65, 0x6e, 0x74, 0x69,
  0x61, 0x6c, 0x5f, 0x31, 0x30, 0x2f, 0x64, 0x65, 0x6e, 0x73, 0x65, 0x5f,
  0x32, 0x37, 0x2f, 0x4d, 0x61, 0x74, 0x4d, 0x75, 0x6c, 0x3b, 0x73, 0x65,
  0x71, 0x75, 0x65, 0x6e, 0x74, 0x69, 0x61, 0x6c, 0x5f, 0x31, 0x30, 0x2f,
  0x64, 0x65, 0x6e, 0x73, 0x65, 0x5f, 0x32, 0x37, 0x2f, 0x52, 0x65, 0x6c,
  0x75, 0x3b, 0x73, 0x65, 0x71, 0x75, 0x65, 0x6e, 0x74, 0x69, 0x61, 0x6c,
  0x5f, 0x31, 0x30, 0x2f, 0x64, 0x65, 0x6e, 0x73, 0x65, 0x5f, 0x32, 0x37,
  0x2f, 0x42, 0x69, 0x61, 0x73, 0x41, 0x64, 0x64, 0x00, 0x00, 0x00, 0x00,
  0x02, 0x00, 0x00, 0x00, 0x01, 0x00, 0x00, 0x00, 0x10, 0x00, 0x00, 0x00,
  0xbe, 0xfc, 0xff, 0xff, 0x00, 0x00, 0x00, 0x01, 0x14, 0x00, 0x00, 0x00,
  0x1c, 0x00, 0x00, 0x00, 0x1c, 0x00, 0x00, 0x00, 0x0a, 0x00, 0x00, 0x00,
  0x74, 0x00, 0x00, 0x00, 0x02, 0x00, 0x00, 0x00, 0xff, 0xff, 0xff, 0xff,
  0x20, 0x00, 0x00, 0x00, 0xa8, 0xfc, 0xff, 0xff, 0x58, 0x00, 0x00, 0x00,
  0x73, 0x65, 0x71, 0x75, 0x65, 0x6e, 0x74, 0x69, 0x61, 0x6c, 0x5f, 0x31,
  0x30, 0x2f, 0x64, 0x65, 0x6e, 0x73, 0x65, 0x5f, 0x32, 0x36, 0x2f, 0x4d,
  0x61, 0x74, 0x4d, 0x75, 0x6c, 0x3b, 0x73, 0x65, 0x71, 0x75, 0x65, 0x6e,
  0x74, 0x69, 0x61, 0x6c, 0x5f, 0x31, 0x30, 0x2f, 0x64, 0x65, 0x6e, 0x73,
  0x65, 0x5f, 0x32, 0x36, 0x2f, 0x52, 0x65, 0x6c, 0x75, 0x3b, 0x73, 0x65,
  0x71, 0x75, 0x65, 0x6e, 0x74, 0x69, 0x61, 0x6c, 0x5f, 0x31, 0x30, 0x2f,
  0x64, 0x65, 0x6e, 0x73, 0x65, 0x5f, 0x32, 0x36, 0x2f, 0x42, 0x69, 0x61,
  0x73, 0x41, 0x64, 0x64, 0x00, 0x00, 0x00, 0x00, 0x02, 0x00, 0x00, 0x00,
  0x01, 0x00, 0x00, 0x00, 0x20, 0x00, 0x00, 0x00, 0xc6, 0xfd, 0xff, 0xff,
  0x00, 0x00, 0x00, 0x01, 0x10, 0x00, 0x00, 0x00, 0x10, 0x00, 0x00, 0x00,
  0x09, 0x00, 0x00, 0x00, 0x2c, 0x00, 0x00, 0x00, 0x30, 0xfd, 0xff, 0xff,
  0x1d, 0x00, 0x00, 0x00, 0x73, 0x65, 0x71, 0x75, 0x65, 0x6e, 0x74, 0x69,
  0x61, 0x6c, 0x5f, 0x31, 0x30, 0x2f, 0x64, 0x65, 0x6e, 0x73, 0x65, 0x5f,
  0x32, 0x39, 0x2f, 0x4d, 0x61, 0x74, 0x4d, 0x75, 0x6c, 0x00, 0x00, 0x00,
  0x02, 0x00, 0x00, 0x00, 0x01, 0x00, 0x00, 0x00, 0x10, 0x00, 0x00, 0x00,
  0x12, 0xfe, 0xff, 0xff, 0x00, 0x00, 0x00, 0x01, 0x10, 0x00, 0x00, 0x00,
  0x10, 0x00, 0x00, 0x00, 0x08, 0x00, 0x00, 0x00, 0x2c, 0x00, 0x00, 0x00,
  0x7c, 0xfd, 0xff, 0xff, 0x1d, 0x00, 0x00, 0x00, 0x73, 0x65, 0x71, 0x75,
  0x65, 0x6e, 0x74, 0x69, 0x61, 0x6c, 0x5f, 0x31, 0x30, 0x2f, 0x64, 0x65,
  0x6e, 0x73, 0x65, 0x5f, 0x32, 0x38, 0x2f, 0x4d, 0x61, 0x74, 0x4d, 0x75,
  0x6c, 0x00, 0x00, 0x00, 0x02, 0x00, 0x00, 0x00, 0x10, 0x00, 0x00, 0x00,
  0x10, 0x00, 0x00, 0x00, 0x5e, 0xfe, 0xff, 0xff, 0x00, 0x00, 0x00, 0x01,
  0x10, 0x00, 0x00, 0x00, 0x10, 0x00, 0x00, 0x00, 0x07, 0x00, 0x00, 0x00,
  0x2c, 0x00, 0x00, 0x00, 0xc8, 0xfd, 0xff, 0xff, 0x1d, 0x00, 0x00, 0x00,
  0x73, 0x65, 0x71, 0x75, 0x65, 0x6e, 0x74, 0x69, 0x61, 0x6c, 0x5f, 0x31,
  0x30, 0x2f, 0x64, 0x65, 0x6e, 0x73, 0x65, 0x5f, 0x32, 0x37, 0x2f, 0x4d,
  0x61, 0x74, 0x4d, 0x75, 0x6c, 0x00, 0x00, 0x00, 0x02, 0x00, 0x00, 0x00,
  0x10, 0x00, 0x00, 0x00, 0x20, 0x00, 0x00, 0x00, 0xaa, 0xfe, 0xff, 0xff,
  0x00, 0x00, 0x00, 0x01, 0x10, 0x00, 0x00, 0x00, 0x10, 0x00, 0x00, 0x00,
  0x06, 0x00, 0x00, 0x00, 0x2c, 0x00, 0x00, 0x00, 0x14, 0xfe, 0xff, 0xff,
  0x1d, 0x00, 0x00, 0x00, 0x73, 0x65, 0x71, 0x75, 0x65, 0x6e, 0x74, 0x69,
  0x61, 0x6c, 0x5f, 0x31, 0x30, 0x2f, 0x64, 0x65, 0x6e, 0x73, 0x65, 0x5f,
  0x32, 0x36, 0x2f, 0x4d, 0x61, 0x74, 0x4d, 0x75, 0x6c, 0x00, 0x00, 0x00,
  0x02, 0x00, 0x00, 0x00, 0x20, 0x00, 0x00, 0x00, 0x01, 0x00, 0x00, 0x00,
  0xf6, 0xfe, 0xff, 0xff, 0x00, 0x00, 0x00, 0x01, 0x10, 0x00, 0x00, 0x00,
  0x10, 0x00, 0x00, 0x00, 0x05, 0x00, 0x00, 0x00, 0x3c, 0x00, 0x00, 0x00,
  0x60, 0xfe, 0xff, 0xff, 0x2d, 0x00, 0x00, 0x00, 0x73, 0x65, 0x71, 0x75,
  0x65, 0x6e, 0x74, 0x69, 0x61, 0x6c, 0x5f, 0x31, 0x30, 0x2f, 0x64, 0x65,
  0x6e, 0x73, 0x65, 0x5f, 0x32, 0x36, 0x2f, 0x42, 0x69, 0x61, 0x73, 0x41,
  0x64, 0x64, 0x2f, 0x52, 0x65, 0x61, 0x64, 0x56, 0x61, 0x72, 0x69, 0x61,
  0x62, 0x6c, 0x65, 0x4f, 0x70, 0x00, 0x00, 0x00, 0x01, 0x00, 0x00, 0x00,
  0x20, 0x00, 0x00, 0x00, 0x4e, 0xff, 0xff, 0xff, 0x00, 0x00, 0x00, 0x01,
  0x10, 0x00, 0x00, 0x00, 0x10, 0x00, 0x00, 0x00, 0x04, 0x00, 0x00, 0x00,
  0x3c, 0x00, 0x00, 0x00, 0xb8, 0xfe, 0xff, 0xff, 0x2d, 0x00, 0x00, 0x00,
  0x73, 0x65, 0x71, 0x75, 0x65, 0x6e, 0x74, 0x69, 0x61, 0x6c, 0x5f, 0x31,
  0x30, 0x2f, 0x64, 0x65, 0x6e, 0x73, 0x65, 0x5f, 0x32, 0x37, 0x2f, 0x42,
  0x69, 0x61, 0x73, 0x41, 0x64, 0x64, 0x2f, 0x52, 0x65, 0x61, 0x64, 0x56,
  0x61, 0x72, 0x69, 0x61, 0x62, 0x6c, 0x65, 0x4f, 0x70, 0x00, 0x00, 0x00,
  0x01, 0x00, 0x00, 0x00, 0x10, 0x00, 0x00, 0x00, 0xa6, 0xff, 0xff, 0xff,
  0x00, 0x00, 0x00, 0x01, 0x10, 0x00, 0x00, 0x00, 0x10, 0x00, 0x00, 0x00,
  0x03, 0x00, 0x00, 0x00, 0x3c, 0x00, 0x00, 0x00, 0x10, 0xff, 0xff, 0xff,
  0x2d, 0x00, 0x00, 0x00, 0x73, 0x65, 0x71, 0x75, 0x65, 0x6e, 0x74, 0x69,
  0x61, 0x6c, 0x5f, 0x31, 0x30, 0x2f, 0x64, 0x65, 0x6e, 0x73, 0x65, 0x5f,
  0x32, 0x38, 0x2f, 0x42, 0x69, 0x61, 0x73, 0x41, 0x64, 0x64, 0x2f, 0x52,
  0x65, 0x61, 0x64, 0x56, 0x61, 0x72, 0x69, 0x61, 0x62, 0x6c, 0x65, 0x4f,
  0x70, 0x00, 0x00, 0x00, 0x01, 0x00, 0x00, 0x00, 0x10, 0x00, 0x00, 0x00,
  0x00, 0x00, 0x16, 0x00, 0x18, 0x00, 0x14, 0x00, 0x00, 0x00, 0x10, 0x00,
  0x0c, 0x00, 0x08, 0x00, 0x00, 0x00, 0x00, 0x00, 0x00, 0x00, 0x07, 0x00,
  0x16, 0x00, 0x00, 0x00, 0x00, 0x00, 0x00, 0x01, 0x10, 0x00, 0x00, 0x00,
  0x10, 0x00, 0x00, 0x00, 0x02, 0x00, 0x00, 0x00, 0x3c, 0x00, 0x00, 0x00,
  0x80, 0xff, 0xff, 0xff, 0x2d, 0x00, 0x00, 0x00, 0x73, 0x65, 0x71, 0x75,
  0x65, 0x6e, 0x74, 0x69, 0x61, 0x6c, 0x5f, 0x31, 0x30, 0x2f, 0x64, 0x65,
  0x6e, 0x73, 0x65, 0x5f, 0x32, 0x39, 0x2f, 0x42, 0x69, 0x61, 0x73, 0x41,
  0x64, 0x64, 0x2f, 0x52, 0x65, 0x61, 0x64, 0x56, 0x61, 0x72, 0x69, 0x61,
  0x62, 0x6c, 0x65, 0x4f, 0x70, 0x00, 0x00, 0x00, 0x01, 0x00, 0x00, 0x00,
  0x01, 0x00, 0x00, 0x00, 0x00, 0x00, 0x16, 0x00, 0x1c, 0x00, 0x18, 0x00,
  0x00, 0x00, 0x14, 0x00, 0x10, 0x00, 0x0c, 0x00, 0x00, 0x00, 0x00, 0x00,
  0x08, 0x00, 0x07, 0x00, 0x16, 0x00, 0x00, 0x00, 0x00, 0x00, 0x00, 0x01,
  0x14, 0x00, 0x00, 0x00, 0x20, 0x00, 0x00, 0x00, 0x20, 0x00, 0x00, 0x00,
  0x01, 0x00, 0x00, 0x00, 0x40, 0x00, 0x00, 0x00, 0x02, 0x00, 0x00, 0x00,
  0xff, 0xff, 0xff, 0xff, 0x01, 0x00, 0x00, 0x00, 0x04, 0x00, 0x04, 0x00,
  0x04, 0x00, 0x00, 0x00, 0x20, 0x00, 0x00, 0x00, 0x73, 0x65, 0x72, 0x76,
  0x69, 0x6e, 0x67, 0x5f, 0x64, 0x65, 0x66, 0x61, 0x75, 0x6c, 0x74, 0x5f,
  0x64, 0x65, 0x6e, 0x73, 0x65, 0x5f, 0x32, 0x36, 0x5f, 0x69, 0x6e, 0x70,
  0x75, 0x74, 0x3a, 0x30, 0x00, 0x00, 0x00, 0x00, 0x02, 0x00, 0x00, 0x00,
  0x01, 0x00, 0x00, 0x00, 0x01, 0x00, 0x00, 0x00, 0x01, 0x00, 0x00, 0x00,
  0x10, 0x00, 0x00, 0x00, 0x0c, 0x00, 0x0c, 0x00, 0x0b, 0x00, 0x00, 0x00,
  0x00, 0x00, 0x04, 0x00, 0x0c, 0x00, 0x00, 0x00, 0x09, 0x00, 0x00, 0x00,
  0x00, 0x00, 0x00, 0x09
};

#endif //SINE_MODEL_H