#ifndef BBGT_MODEL_H
#define BBGT_MODEL_H


unsigned int bbgt_model_len = 18340;
unsigned char bbgt_model[] = {
 0x1c, 0x00, 0x00, 0x00, 0x54, 0x46, 0x4c, 0x33, 0x14, 0x00, 0x20, 0x00,
  0x1c, 0x00, 0x18, 0x00, 0x14, 0x00, 0x10, 0x00, 0x0c, 0x00, 0x00, 0x00,
  0x08, 0x00, 0x04, 0x00, 0x14, 0x00, 0x00, 0x00, 0x1c, 0x00, 0x00, 0x00,
  0x8c, 0x00, 0x00, 0x00, 0xe4, 0x00, 0x00, 0x00, 0x04, 0x3c, 0x00, 0x00,
  0x14, 0x3c, 0x00, 0x00, 0x10, 0x47, 0x00, 0x00, 0x03, 0x00, 0x00, 0x00,
  0x01, 0x00, 0x00, 0x00, 0x04, 0x00, 0x00, 0x00, 0xf2, 0xc2, 0xff, 0xff,
  0x0c, 0x00, 0x00, 0x00, 0x1c, 0x00, 0x00, 0x00, 0x3c, 0x00, 0x00, 0x00,
  0x0f, 0x00, 0x00, 0x00, 0x73, 0x65, 0x72, 0x76, 0x69, 0x6e, 0x67, 0x5f,
  0x64, 0x65, 0x66, 0x61, 0x75, 0x6c, 0x74, 0x00, 0x01, 0x00, 0x00, 0x00,
  0x04, 0x00, 0x00, 0x00, 0x90, 0xff, 0xff, 0xff, 0x11, 0x00, 0x00, 0x00,
  0x04, 0x00, 0x00, 0x00, 0x08, 0x00, 0x00, 0x00, 0x64, 0x65, 0x6e, 0x73,
  0x65, 0x5f, 0x33, 0x39, 0x00, 0x00, 0x00, 0x00, 0x01, 0x00, 0x00, 0x00,
  0x04, 0x00, 0x00, 0x00, 0xd6, 0xc3, 0xff, 0xff, 0x04, 0x00, 0x00, 0x00,
  0x0f, 0x00, 0x00, 0x00, 0x63, 0x6f, 0x6e, 0x76, 0x32, 0x64, 0x5f, 0x33,
  0x37, 0x5f, 0x69, 0x6e, 0x70, 0x75, 0x74, 0x00, 0x02, 0x00, 0x00, 0x00,
  0x34, 0x00, 0x00, 0x00, 0x04, 0x00, 0x00, 0x00, 0xdc, 0xff, 0xff, 0xff,
  0x14, 0x00, 0x00, 0x00, 0x04, 0x00, 0x00, 0x00, 0x13, 0x00, 0x00, 0x00,
  0x43, 0x4f, 0x4e, 0x56, 0x45, 0x52, 0x53, 0x49, 0x4f, 0x4e, 0x5f, 0x4d,
  0x45, 0x54, 0x41, 0x44, 0x41, 0x54, 0x41, 0x00, 0x08, 0x00, 0x0c, 0x00,
  0x08, 0x00, 0x04, 0x00, 0x08, 0x00, 0x00, 0x00, 0x13, 0x00, 0x00, 0x00,
  0x04, 0x00, 0x00, 0x00, 0x13, 0x00, 0x00, 0x00, 0x6d, 0x69, 0x6e, 0x5f,
  0x72, 0x75, 0x6e, 0x74, 0x69, 0x6d, 0x65, 0x5f, 0x76, 0x65, 0x72, 0x73,
  0x69, 0x6f, 0x6e, 0x00, 0x15, 0x00, 0x00, 0x00, 0x1c, 0x3b, 0x00, 0x00,
  0x14, 0x3b, 0x00, 0x00, 0xec, 0x3a, 0x00, 0x00, 0xc4, 0x3a, 0x00, 0x00,
  0xdc, 0x39, 0x00, 0x00, 0xbc, 0x34, 0x00, 0x00, 0xa0, 0x34, 0x00, 0x00,
  0x54, 0x34, 0x00, 0x00, 0x3c, 0x34, 0x00, 0x00, 0x8c, 0x01, 0x00, 0x00,
  0xc8, 0x00, 0x00, 0x00, 0xc0, 0x00, 0x00, 0x00, 0xb8, 0x00, 0x00, 0x00,
  0xb0, 0x00, 0x00, 0x00, 0xa8, 0x00, 0x00, 0x00, 0xa0, 0x00, 0x00, 0x00,
  0x98, 0x00, 0x00, 0x00, 0x90, 0x00, 0x00, 0x00, 0x88, 0x00, 0x00, 0x00,
  0x68, 0x00, 0x00, 0x00, 0x04, 0x00, 0x00, 0x00, 0xa6, 0xc4, 0xff, 0xff,
  0x04, 0x00, 0x00, 0x00, 0x54, 0x00, 0x00, 0x00, 0x0c, 0x00, 0x00, 0x00,
  0x08, 0x00, 0x0e, 0x00, 0x08, 0x00, 0x04, 0x00, 0x08, 0x00, 0x00, 0x00,
  0x10, 0x00, 0x00, 0x00, 0x24, 0x00, 0x00, 0x00, 0x00, 0x00, 0x06, 0x00,
  0x08, 0x00, 0x04, 0x00, 0x06, 0x00, 0x00, 0x00, 0x04, 0x00, 0x00, 0x00,
  0x00, 0x00, 0x00, 0x00, 0x00, 0x00, 0x0a, 0x00, 0x10, 0x00, 0x0c, 0x00,
  0x08, 0x00, 0x04, 0x00, 0x0a, 0x00, 0x00, 0x00, 0x02, 0x00, 0x00, 0x00,
  0x02, 0x00, 0x00, 0x00, 0x04, 0x00, 0x00, 0x00, 0x06, 0x00, 0x00, 0x00,
  0x32, 0x2e, 0x31, 0x35, 0x2e, 0x30, 0x00, 0x00, 0x06, 0xc5, 0xff, 0xff,
  0x04, 0x00, 0x00, 0x00, 0x10, 0x00, 0x00, 0x00, 0x31, 0x2e, 0x35, 0x2e,
  0x30, 0x00, 0x00, 0x00, 0x00, 0x00, 0x00, 0x00, 0x00, 0x00, 0x00, 0x00,
  0xe0, 0xba, 0xff, 0xff, 0xe4, 0xba, 0xff, 0xff, 0xe8, 0xba, 0xff, 0xff,
  0xec, 0xba, 0xff, 0xff, 0xf0, 0xba, 0xff, 0xff, 0xf4, 0xba, 0xff, 0xff,
  0xf8, 0xba, 0xff, 0xff, 0xfc, 0xba, 0xff, 0xff, 0x42, 0xc5, 0xff, 0xff,
  0x04, 0x00, 0x00, 0x00, 0xb4, 0x00, 0x00, 0x00, 0x0b, 0xca, 0x0e, 0xbe,
  0x88, 0xa2, 0x04, 0xbf, 0x9f, 0x24, 0x2e, 0x3d, 0x58, 0x6a, 0x38, 0x3e,
  0xfe, 0x6b, 0xd3, 0xbd, 0x21, 0x4a, 0x8e, 0xbe, 0x33, 0xa4, 0x83, 0x3e,
  0x81, 0xa8, 0xc1, 0xbe, 0xe4, 0xcb, 0x2d, 0xbe, 0x1a, 0x61, 0x3d, 0xbe,
  0x77, 0x92, 0x2a, 0x3f, 0x89, 0x10, 0x87, 0xbe, 0x11, 0x24, 0xd6, 0xbe,
  0x79, 0x67, 0x3c, 0x3f, 0x77, 0xb0, 0x58, 0xbd, 0x1c, 0x05, 0x33, 0x3f,
  0xc3, 0x8f, 0xad, 0xbe, 0xe6, 0x54, 0x31, 0x3f, 0x6f, 0x02, 0x34, 0xbf,
  0x77, 0xc5, 0xe6, 0x3e, 0x8d, 0x3a, 0x57, 0x3f, 0x98, 0x18, 0x24, 0x3e,
  0x15, 0x3f, 0x1d, 0xbf, 0x65, 0xec, 0xcc, 0xbe, 0x99, 0x37, 0x38, 0xbc,
  0x8c, 0xc6, 0x05, 0x3e, 0x4a, 0x2d, 0xc0, 0xbe, 0xa0, 0xd7, 0xda, 0x3e,
  0x5f, 0x90, 0x74, 0x3d, 0x4d, 0x61, 0x73, 0x3e, 0xf9, 0xf8, 0x18, 0xbf,
  0xce, 0xd7, 0x3c, 0x3f, 0x23, 0xcf, 0x05, 0xbf, 0xb5, 0x22, 0x87, 0x3e,
  0x39, 0xeb, 0xb5, 0xbe, 0xbe, 0x6a, 0x97, 0x3c, 0xbd, 0x70, 0x98, 0xbe,
  0x79, 0xa5, 0x09, 0x3f, 0xc6, 0x6f, 0xa8, 0x3e, 0x37, 0xf7, 0x7d, 0x3d,
  0x9d, 0x5d, 0x54, 0xbe, 0x7f, 0x0b, 0x41, 0xbf, 0x21, 0x90, 0xfc, 0xbe,
  0x89, 0xaf, 0xa7, 0x3d, 0x1d, 0xbe, 0x5d, 0xbf, 0x02, 0xc6, 0xff, 0xff,
  0x04, 0x00, 0x00, 0x00, 0xa0, 0x32, 0x00, 0x00, 0x09, 0x55, 0x0d, 0x3e,
  0x13, 0x34, 0x66, 0xbd, 0xfa, 0x3c, 0x19, 0x3e, 0x63, 0x68, 0x08, 0x3d,
  0x83, 0x60, 0x14, 0x3e, 0xc3, 0x9b, 0x9e, 0x3d, 0xce, 0xa1, 0xac, 0x3c,
  0xa7, 0xfb, 0x30, 0x3d, 0x96, 0xaa, 0x49, 0x3e, 0xf3, 0x86, 0x7b, 0x3d,
  0x85, 0x5a, 0xcf, 0xbd, 0xdb, 0xd0, 0x2d, 0xbc, 0xe1, 0xba, 0x17, 0xbd,
  0xce, 0x17, 0xf5, 0xba, 0xd0, 0x36, 0x06, 0x3e, 0xbf, 0xcd, 0x7b, 0xbd,
  0x86, 0xbd, 0x9a, 0xbd, 0xf0, 0x07, 0x7a, 0x3d, 0xd7, 0x66, 0xeb, 0xbd,
  0xb3, 0x77, 0x92, 0xbd, 0x7d, 0x26, 0x45, 0x3d, 0xa5, 0x39, 0x8d, 0xbd,
  0xa0, 0x85, 0xb4, 0x3c, 0xb0, 0x7f, 0xea, 0x3d, 0x2d, 0x4e, 0x24, 0xba,
  0x69, 0xfb, 0xb3, 0x3d, 0xf4, 0xa8, 0x7b, 0x3c, 0x54, 0x3c, 0x11, 0xbe,
  0x14, 0x46, 0x53, 0xbd, 0x86, 0x55, 0x9d, 0x3c, 0xc3, 0x5c, 0x04, 0x3e,
  0x92, 0x21, 0x1f, 0x3e, 0xb5, 0xc8, 0xbc, 0x3d, 0x16, 0x9e, 0x38, 0xbd,
  0x43, 0xe4, 0xc8, 0xbb, 0xc9, 0xc6, 0x05, 0xbc, 0x2c, 0x8e, 0x02, 0x3e,
  0x55, 0x0a, 0xf0, 0x3c, 0x44, 0xba, 0xa5, 0x3e, 0xbf, 0x58, 0x8c, 0xbd,
  0xe3, 0xd1, 0x9b, 0xbd, 0xfb, 0x99, 0xb0, 0xbc, 0x7c, 0x09, 0xa2, 0x3d,
  0xcd, 0x9c, 0x37, 0xbb, 0x64, 0xc9, 0x06, 0x3e, 0xdf, 0xa2, 0x84, 0x3d,
  0x42, 0xd9, 0xdd, 0x3d, 0x33, 0x9c, 0x64, 0xbe, 0xd2, 0x7f, 0xb9, 0xbd,
  0x12, 0xbd, 0xe7, 0x3d, 0x6a, 0x41, 0x1b, 0x3e, 0x3c, 0x19, 0xa9, 0xbd,
  0x37, 0x9c, 0x52, 0xbd, 0x65, 0x00, 0x32, 0xbe, 0xd4, 0xe6, 0xde, 0xbd,
  0x9f, 0x61, 0xd5, 0xbc, 0x6e, 0x66, 0x05, 0xbd, 0xd6, 0x0f, 0xac, 0xbd,
  0xaa, 0x90, 0xe1, 0x3d, 0x58, 0xb5, 0x17, 0xbd, 0x93, 0x2d, 0xd9, 0x3c,
  0xc4, 0xba, 0xfc, 0xbc, 0x00, 0x2c, 0xfd, 0xbd, 0x8a, 0x1b, 0x8a, 0xbc,
  0x80, 0x63, 0xf8, 0xbd, 0x9e, 0x77, 0xa1, 0x3d, 0x99, 0x41, 0x98, 0x3d,
  0x0d, 0x9c, 0x0b, 0x3e, 0x81, 0xb4, 0xac, 0xbd, 0x4c, 0xe0, 0x36, 0x3b,
  0xe8, 0x6a, 0x17, 0x3d, 0xbb, 0x90, 0x93, 0x3e, 0x8d, 0x1d, 0x9e, 0x3d,
  0x81, 0x46, 0xa6, 0x3c, 0xbb, 0xe1, 0x51, 0x3e, 0x1d, 0x26, 0x8f, 0x3d,
  0x9d, 0x1d, 0x8e, 0x3d, 0xe2, 0xb6, 0x09, 0x3d, 0x33, 0xde, 0x1c, 0x3e,
  0x27, 0xb6, 0xaa, 0xbd, 0xea, 0x3a, 0x0b, 0x3e, 0xdd, 0xce, 0x1d, 0x3e,
  0x43, 0x51, 0x08, 0x3e, 0xdc, 0xe0, 0x23, 0xbe, 0x11, 0x6b, 0xd9, 0xbd,
  0x5e, 0xc6, 0x95, 0xbe, 0x51, 0x44, 0x11, 0x3e, 0xc0, 0x5e, 0x97, 0xbb,
  0xd2, 0x05, 0xac, 0x3d, 0x34, 0x3a, 0x2a, 0xbd, 0x3e, 0x04, 0x9c, 0xbe,
  0x2a, 0xe9, 0x93, 0xbe, 0xcf, 0x51, 0x17, 0xbe, 0x7e, 0x7c, 0xdc, 0x3d,
  0x2a, 0x97, 0x58, 0xbd, 0x89, 0x68, 0x32, 0x3e, 0xe5, 0xf0, 0x85, 0xbe,
  0x86, 0xb7, 0x85, 0xbe, 0x25, 0xb6, 0x90, 0xbc, 0x7f, 0xfc, 0x15, 0x3e,
  0x34, 0x02, 0xe9, 0xbd, 0xd7, 0x85, 0x52, 0x3e, 0xdd, 0xf8, 0xc6, 0xbd,
  0x51, 0x67, 0x8e, 0xbc, 0x85, 0x9d, 0xba, 0xbd, 0x2b, 0xa0, 0x39, 0xbd,
  0xb4, 0x71, 0xaa, 0x3d, 0x95, 0x87, 0xe1, 0x3d, 0x1e, 0x05, 0x12, 0x3e,
  0xe0, 0xde, 0x07, 0x3d, 0xea, 0x29, 0x28, 0x3e, 0xd8, 0x62, 0x7c, 0x3d,
  0x4b, 0x55, 0x16, 0x3e, 0x93, 0x66, 0x25, 0xbd, 0x02, 0x65, 0x91, 0x3e,
  0x65, 0x7b, 0xc6, 0xbd, 0x7d, 0x24, 0xb7, 0x3d, 0x66, 0x4a, 0x07, 0xbe,
  0x18, 0xbd, 0x9a, 0x3d, 0x1a, 0xf1, 0x44, 0xbc, 0x23, 0xc8, 0x47, 0x3d,
  0x46, 0x8d, 0x9f, 0xbe, 0x40, 0xc4, 0x98, 0xbd, 0x73, 0xe2, 0x05, 0x3e,
  0x64, 0x27, 0x8b, 0xbc, 0x0d, 0x25, 0x6c, 0xbe, 0xe3, 0x8c, 0xa5, 0xbe,
  0x04, 0xef, 0x4e, 0xbe, 0xf0, 0xf4, 0xde, 0xbd, 0xcb, 0x8e, 0xb4, 0xbd,
  0x09, 0x2a, 0xa3, 0xbd, 0x4d, 0x05, 0xae, 0xbc, 0x8a, 0xf5, 0x3a, 0xbe,
  0x65, 0x62, 0x8c, 0xbc, 0x2c, 0xe3, 0x0c, 0xbe, 0xbd, 0xac, 0x15, 0x3e,
  0xe4, 0x53, 0x2a, 0xbd, 0x4d, 0x25, 0x5e, 0x3e, 0x72, 0x00, 0xe5, 0xbc,
  0xd9, 0x0c, 0xb0, 0xbd, 0xb1, 0x2c, 0x36, 0xbd, 0x56, 0x61, 0xce, 0xbd,
  0xe9, 0xea, 0x66, 0x3d, 0x2b, 0xb8, 0x16, 0x3d, 0x24, 0xa6, 0x8a, 0x3b,
  0xe8, 0xa8, 0x77, 0xbd, 0x47, 0x28, 0xa2, 0x3d, 0xdb, 0x6d, 0x24, 0x3e,
  0x18, 0xda, 0x00, 0xbe, 0x5c, 0xd2, 0x81, 0x3c, 0xbe, 0xf5, 0x7f, 0x3d,
  0xf7, 0x9d, 0x19, 0xbd, 0x94, 0xf4, 0xc3, 0xbd, 0x0c, 0xf4, 0x17, 0xbd,
  0x7a, 0xdf, 0x84, 0x3d, 0xe6, 0x77, 0xa1, 0x3d, 0x6c, 0xbf, 0x42, 0x3e,
  0x77, 0xb1, 0x25, 0xbe, 0x1b, 0x9e, 0xba, 0xbd, 0xb4, 0x91, 0xf6, 0xbd,
  0x7b, 0x02, 0xf1, 0xbd, 0xab, 0x2f, 0x6b, 0xba, 0xd2, 0x60, 0x4b, 0xbd,
  0x8f, 0xeb, 0x85, 0x3d, 0x18, 0x92, 0x54, 0xbe, 0xf6, 0xa7, 0x5d, 0xbd,
  0xe0, 0xcf, 0xf0, 0xbd, 0xc2, 0x43, 0x41, 0x3d, 0x39, 0x18, 0xba, 0xbd,
  0x58, 0xd5, 0xe7, 0x3d, 0x70, 0x9a, 0xc0, 0xbd, 0x57, 0x2d, 0x88, 0xbd,
  0xf2, 0x23, 0x21, 0x3e, 0xba, 0xfe, 0x0b, 0x3d, 0xb0, 0xc3, 0xfd, 0xbc,
  0x43, 0x93, 0xe9, 0xbc, 0x8d, 0xa1, 0x04, 0xbe, 0xd1, 0x1b, 0xef, 0x3c,
  0x4c, 0x08, 0x0e, 0xbd, 0xe5, 0xf8, 0xc2, 0x3c, 0xf4, 0x9c, 0xf1, 0xbd,
  0xd6, 0x1c, 0xce, 0x3d, 0x09, 0xe4, 0x8a, 0xbb, 0x42, 0xb9, 0x19, 0xbe,
  0x96, 0x47, 0x3d, 0xbd, 0xca, 0x45, 0x8e, 0xbd, 0xed, 0xaa, 0xb1, 0xba,
  0x1c, 0xda, 0xaa, 0xbc, 0x0b, 0x30, 0x94, 0xbc, 0x4a, 0x74, 0xf0, 0x3d,
  0xb9, 0xd5, 0x15, 0x3d, 0xc0, 0xe5, 0xb7, 0xbd, 0x15, 0x3e, 0x15, 0x3e,
  0xf1, 0xc4, 0x36, 0x3d, 0xf8, 0x7b, 0x02, 0xbe, 0x23, 0x30, 0xb1, 0x3d,
  0xe7, 0x39, 0xa2, 0xbd, 0x3a, 0x63, 0x4e, 0xbd, 0xc2, 0xb7, 0x93, 0xbc,
  0x01, 0x5c, 0xbc, 0xbc, 0xa6, 0xcf, 0xdf, 0xbd, 0x23, 0x0f, 0xe1, 0xbd,
  0xe6, 0x4b, 0xcb, 0x3d, 0xb2, 0xd8, 0xe5, 0x3b, 0x14, 0xd6, 0x86, 0xbd,
  0x10, 0xb8, 0x01, 0xba, 0x74, 0x62, 0x52, 0xbe, 0x9e, 0xab, 0xc7, 0xbd,
  0xf7, 0xbc, 0x11, 0x3e, 0x5a, 0x7b, 0xfe, 0xbd, 0xb6, 0xcf, 0xeb, 0x3d,
  0x4a, 0x56, 0x6d, 0x3d, 0x5d, 0xd7, 0x75, 0xbd, 0x6a, 0x93, 0x07, 0xb9,
  0xb2, 0x1a, 0x3c, 0xbd, 0xaf, 0x3f, 0x01, 0xbe, 0x89, 0xdc, 0xb2, 0x3d,
  0x53, 0xf6, 0x14, 0x3c, 0x11, 0xc7, 0x30, 0x3d, 0x8d, 0x67, 0xea, 0x3d,
  0x1a, 0x6f, 0xac, 0x3d, 0xcb, 0x97, 0xed, 0x3c, 0x97, 0xfb, 0xd5, 0xbd,
  0x1a, 0x0c, 0x72, 0xbd, 0x38, 0x7d, 0x2c, 0x3d, 0x5b, 0x17, 0x57, 0xbc,
  0xbd, 0x8f, 0x17, 0x3e, 0xe6, 0x03, 0xb4, 0xbd, 0x02, 0xae, 0x2e, 0x3e,
  0x99, 0xe2, 0xe7, 0x3d, 0x4f, 0xdf, 0x5e, 0x3d, 0x20, 0xcf, 0xe8, 0xbd,
  0x23, 0xaf, 0x23, 0xbe, 0xe8, 0xef, 0x8a, 0xbc, 0x73, 0x1c, 0xf4, 0x3d,
  0x52, 0x9c, 0xa5, 0xbd, 0x0c, 0xb1, 0x22, 0xbd, 0xd1, 0x37, 0x71, 0x3d,
  0xc0, 0xde, 0xb9, 0x3d, 0xce, 0x30, 0x81, 0xbd, 0x2c, 0xf2, 0xb8, 0xbd,
  0x31, 0x02, 0xa3, 0xbc, 0xec, 0xec, 0x1d, 0xbe, 0x3c, 0xdd, 0x45, 0xbc,
  0x81, 0x1b, 0xa8, 0x3d, 0x35, 0x12, 0x6a, 0x3d, 0xbb, 0xd2, 0x27, 0xbe,
  0xbb, 0x70, 0xd2, 0xbd, 0xdc, 0x07, 0xb6, 0xbc, 0x13, 0x8b, 0x02, 0x3e,
  0xb8, 0x0c, 0x17, 0xbe, 0x1f, 0x11, 0x9a, 0xbd, 0x03, 0x16, 0x95, 0x3c,
  0x21, 0x31, 0x1c, 0x3d, 0x39, 0x85, 0xc4, 0x3d, 0x24, 0x50, 0xa2, 0xbd,
  0xd5, 0x29, 0xac, 0xbd, 0x6a, 0xba, 0xc6, 0xbd, 0xff, 0x82, 0x7b, 0xbd,
  0x02, 0x13, 0xe7, 0xbd, 0x10, 0x06, 0x2a, 0xbd, 0x77, 0xac, 0x2a, 0xbd,
  0xe0, 0xd7, 0x06, 0x3e, 0xeb, 0x66, 0x20, 0xbe, 0x86, 0xb3, 0x41, 0xbd,
  0x63, 0xd4, 0xa2, 0xbd, 0xe7, 0x2b, 0x38, 0xbe, 0x40, 0x27, 0x06, 0xbd,
  0xb1, 0x9e, 0x0d, 0xbe, 0x05, 0x70, 0x5e, 0xbd, 0x2d, 0xb5, 0xbf, 0x3d,
  0xa0, 0xa4, 0x19, 0x3d, 0x67, 0x5c, 0xc9, 0xbd, 0x73, 0x87, 0x91, 0x3d,
  0x80, 0xd7, 0x8b, 0x3c, 0xa2, 0xb3, 0xbd, 0x3d, 0x24, 0xc6, 0x9a, 0xbc,
  0x76, 0x24, 0x0e, 0xbe, 0x2d, 0x14, 0xc5, 0xbd, 0x43, 0xb4, 0xdd, 0x3d,
  0xd1, 0xeb, 0x9b, 0xbd, 0xa1, 0x69, 0xce, 0xbd, 0x19, 0xd9, 0x3d, 0xbe,
  0x53, 0xdb, 0x20, 0xbe, 0xae, 0x8e, 0x03, 0xbe, 0xe0, 0xb3, 0x93, 0x3d,
  0x16, 0x18, 0xb9, 0x3d, 0x6f, 0xc3, 0xdf, 0x3d, 0xd6, 0x24, 0xf0, 0xbb,
  0xfb, 0xa6, 0x04, 0x3d, 0x32, 0x8f, 0xda, 0x3d, 0xfa, 0xbd, 0x37, 0x3d,
  0x13, 0xdb, 0x0b, 0xbe, 0x02, 0x4f, 0x02, 0xbe, 0x94, 0x43, 0xf9, 0xbd,
  0xef, 0x97, 0x6c, 0xbd, 0x69, 0x14, 0xf2, 0xbc, 0x93, 0x2e, 0xd2, 0xbd,
  0x02, 0x24, 0x90, 0x3d, 0x54, 0x84, 0xb0, 0x3d, 0xfb, 0xf3, 0x0f, 0xbe,
  0x17, 0xfe, 0xc1, 0x3d, 0x3d, 0x2b, 0xb6, 0xbc, 0x02, 0x48, 0xc1, 0x3d,
  0x38, 0xda, 0x3b, 0x3d, 0xe4, 0x90, 0x47, 0x3e, 0xb5, 0xae, 0x05, 0x3e,
  0x58, 0x78, 0x81, 0x3e, 0xc4, 0x7c, 0xb2, 0xbd, 0x4f, 0x6e, 0xb7, 0xbd,
  0x50, 0xe3, 0x41, 0xbd, 0xbc, 0x61, 0x99, 0x3d, 0xd7, 0xc6, 0xc9, 0x3d,
  0xf4, 0x60, 0x2d, 0x3d, 0xdc, 0xc3, 0x08, 0x3d, 0xfa, 0x43, 0xfe, 0xbc,
  0x3e, 0xaa, 0xa3, 0x3d, 0xeb, 0x0b, 0x8d, 0xbc, 0xd5, 0x07, 0xb3, 0xbd,
  0x1a, 0xa8, 0x0d, 0x3d, 0x37, 0x58, 0xdf, 0x3c, 0xd6, 0x45, 0x0f, 0xbe,
  0xfe, 0xd0, 0x9d, 0x3d, 0x92, 0xc1, 0xa8, 0xbd, 0xc2, 0x2c, 0x33, 0x3d,
  0x03, 0x2e, 0x03, 0x3d, 0x23, 0xc1, 0x10, 0xbc, 0x81, 0x88, 0xd8, 0x3d,
  0xb0, 0xea, 0x0e, 0x3e, 0x3e, 0x7c, 0xfa, 0x3d, 0xbb, 0xef, 0x13, 0xbd,
  0x7c, 0x74, 0x5a, 0x3e, 0x94, 0x87, 0x0c, 0xbe, 0x0c, 0xfa, 0x20, 0xbe,
  0x46, 0x25, 0xd2, 0x3d, 0x25, 0xa2, 0xc2, 0x3d, 0x96, 0x08, 0x1e, 0xbd,
  0xa9, 0xc3, 0x3f, 0x3b, 0x56, 0x25, 0xdf, 0xbd, 0x59, 0x4f, 0x00, 0x3e,
  0xaa, 0xe4, 0xa7, 0xbd, 0x4e, 0xf3, 0xf6, 0x3d, 0xaa, 0xf3, 0x41, 0xbd,
  0x9f, 0x53, 0x07, 0x3e, 0x60, 0x69, 0x23, 0x3e, 0x38, 0x1a, 0x15, 0x3d,
  0xac, 0x33, 0x2c, 0x3d, 0xc4, 0x33, 0x22, 0x3d, 0x3b, 0x90, 0x9c, 0x3d,
  0x64, 0x6c, 0x86, 0xbd, 0x38, 0x9f, 0x82, 0x3e, 0x80, 0x82, 0x5e, 0xbd,
  0x1f, 0xed, 0x10, 0x3e, 0xd2, 0x25, 0x71, 0xbd, 0x41, 0x31, 0xca, 0x3d,
  0xe2, 0x5f, 0x7b, 0xbc, 0xa4, 0x4e, 0x22, 0x3c, 0x38, 0xf7, 0xe6, 0xbd,
  0x10, 0x98, 0x12, 0x3d, 0x40, 0x99, 0xc4, 0xbd, 0xc0, 0x62, 0xbb, 0xbd,
  0xa7, 0x86, 0x18, 0x3e, 0x1e, 0xf7, 0x5b, 0x3d, 0x04, 0xb7, 0xa1, 0xbd,
  0xd1, 0x3a, 0xda, 0x3d, 0x90, 0xeb, 0x1b, 0x3d, 0xd0, 0x30, 0x6c, 0xbe,
  0x2c, 0xe4, 0x69, 0x3e, 0x08, 0x29, 0x30, 0x3d, 0x30, 0x44, 0xf0, 0x3b,
  0xec, 0x26, 0x6b, 0x3d, 0xf3, 0xdd, 0x8a, 0x3d, 0x7c, 0xc5, 0x3d, 0xbd,
  0x84, 0x85, 0x9a, 0x3b, 0x0a, 0x94, 0x84, 0xbd, 0x61, 0x0f, 0x50, 0x3d,
  0x50, 0x39, 0xae, 0x3d, 0x53, 0x7a, 0x81, 0x3e, 0x4e, 0xdb, 0x18, 0x3e,
  0xf8, 0xd7, 0xd9, 0xbc, 0x6c, 0xeb, 0xa2, 0x3d, 0x7c, 0x82, 0xfe, 0x3d,
  0x60, 0xaa, 0xd7, 0xbd, 0xad, 0x5a, 0x04, 0x3e, 0x77, 0x57, 0xfd, 0x3d,
  0x24, 0xf6, 0x01, 0xbd, 0x00, 0xeb, 0xf3, 0x3d, 0x4f, 0x66, 0xd5, 0x3d,
  0x57, 0xa4, 0xa2, 0xbd, 0x53, 0x89, 0x21, 0xbe, 0xaa, 0x30, 0x8c, 0x3e,
  0x51, 0x4e, 0x1a, 0x3d, 0x4f, 0x19, 0x11, 0x3e, 0x85, 0xea, 0x59, 0xbd,
  0xfd, 0xe5, 0x86, 0xbd, 0xee, 0x2e, 0x1f, 0xbe, 0xfb, 0x88, 0xe6, 0xbd,
  0x44, 0xef, 0xa5, 0x3d, 0xcb, 0xc8, 0x54, 0xbc, 0x48, 0xd7, 0x29, 0xbe,
  0x36, 0x49, 0xb8, 0x3d, 0x9a, 0x97, 0xbe, 0x3d, 0x05, 0xb4, 0x27, 0xbd,
  0x0c, 0x4c, 0x22, 0x3e, 0x8b, 0xd3, 0xab, 0xbc, 0xd7, 0x7e, 0x18, 0xbe,
  0x88, 0xb4, 0xca, 0x3d, 0xa6, 0x2d, 0xf3, 0x3d, 0xe0, 0x9d, 0xbd, 0xbd,
  0x0a, 0x16, 0x6b, 0xbd, 0xc3, 0xa4, 0x92, 0x3d, 0x32, 0xde, 0x19, 0x3e,
  0xab, 0x29, 0x04, 0xbe, 0xd4, 0xfa, 0xf0, 0x3c, 0x0d, 0x34, 0xdc, 0x3d,
  0xf8, 0x46, 0x2f, 0x3d, 0x39, 0xf5, 0xa7, 0xbd, 0x80, 0xa9, 0x00, 0x3b,
  0x18, 0xd6, 0x9f, 0x3c, 0x4c, 0x4d, 0xd5, 0x3d, 0xae, 0x8c, 0xa5, 0x3d,
  0x8f, 0xe7, 0x16, 0x3e, 0xc6, 0x3a, 0xca, 0xbc, 0x05, 0x8d, 0x0b, 0xbe,
  0x08, 0xdb, 0x83, 0x3d, 0x2a, 0xdf, 0xaf, 0xbd, 0x26, 0x56, 0x2f, 0x3e,
  0x72, 0x62, 0x68, 0x3d, 0xc9, 0x55, 0x70, 0x3e, 0x93, 0x1e, 0x26, 0xbe,
  0x00, 0x97, 0xb4, 0x3b, 0xce, 0x82, 0x0f, 0xbe, 0x77, 0x40, 0x1e, 0x3d,
  0x93, 0xde, 0x77, 0xbd, 0x79, 0xd5, 0xf7, 0x3c, 0x6a, 0x05, 0xee, 0x3d,
  0x15, 0x81, 0xac, 0x3c, 0xd0, 0x9f, 0xac, 0xbd, 0xa2, 0x1b, 0x1d, 0x3e,
  0x9b, 0x06, 0x80, 0x3d, 0xae, 0x31, 0x2b, 0x3a, 0x5b, 0x6c, 0xe7, 0xbd,
  0x2e, 0x34, 0x12, 0x3e, 0x72, 0x8c, 0xf6, 0x3c, 0xcc, 0x27, 0xc6, 0xbd,
  0xa7, 0xe0, 0xbb, 0x3d, 0xab, 0xcb, 0xb4, 0xbc, 0x3d, 0x17, 0xb3, 0xbc,
  0x3c, 0x60, 0x20, 0x3d, 0x2f, 0x63, 0x04, 0xbe, 0x99, 0x40, 0x6b, 0x3d,
  0x7f, 0xe4, 0xce, 0xbc, 0x28, 0x21, 0x1f, 0xbd, 0x28, 0x05, 0xbf, 0x3d,
  0x4a, 0xa2, 0xfc, 0x3d, 0x3d, 0x95, 0xc9, 0xbb, 0xa5, 0xe5, 0xe2, 0xbd,
  0xff, 0x24, 0x77, 0x3e, 0x97, 0xf3, 0x09, 0x3d, 0x65, 0xdb, 0x14, 0x3e,
  0xe7, 0xa3, 0xf5, 0xbd, 0xae, 0x2b, 0xd6, 0x3d, 0xc9, 0xb9, 0xd0, 0x3d,
  0x53, 0x0c, 0x58, 0x3e, 0x7a, 0x1a, 0xbb, 0xbc, 0x47, 0x21, 0x94, 0x3d,
  0x11, 0xef, 0x34, 0x3c, 0x98, 0xd5, 0x2a, 0x3d, 0x5b, 0x48, 0xa5, 0x3c,
  0x4a, 0x31, 0x9b, 0xbd, 0x29, 0x28, 0x5b, 0x3e, 0xfd, 0x3b, 0x4c, 0x3c,
  0xcd, 0xbe, 0xa0, 0xbd, 0x53, 0x9c, 0x07, 0xbe, 0xc9, 0xe3, 0x61, 0x3c,
  0xa2, 0x44, 0xb9, 0x3c, 0x52, 0xd5, 0x85, 0xbd, 0xe7, 0x91, 0x5f, 0xbd,
  0x78, 0x4f, 0x4c, 0xbd, 0x7e, 0x58, 0x44, 0x3c, 0xeb, 0xc3, 0x6d, 0xbd,
  0x60, 0x5f, 0x11, 0xbb, 0x3b, 0xe5, 0xc2, 0x3d, 0x96, 0x95, 0x9a, 0x3d,
  0x0e, 0xee, 0x8f, 0xbd, 0x20, 0x0e, 0x2f, 0xbd, 0xec, 0xfe, 0x17, 0xbd,
  0x31, 0x38, 0x87, 0x3c, 0x66, 0x16, 0x76, 0xbd, 0xfa, 0xeb, 0x91, 0x3d,
  0x6a, 0x89, 0xa1, 0xbd, 0x11, 0x18, 0xa7, 0xbd, 0xc8, 0x06, 0x0f, 0xbc,
  0xa7, 0xa3, 0xae, 0xbd, 0xec, 0x9e, 0xb8, 0x3d, 0x6e, 0x28, 0x93, 0x3d,
  0x30, 0xa6, 0x9d, 0xbc, 0xfb, 0x95, 0x94, 0xbd, 0xdf, 0xb7, 0x47, 0xbd,
  0x29, 0x0a, 0x94, 0x3d, 0x47, 0xdf, 0xa8, 0x3d, 0x8e, 0x2b, 0x1c, 0x3e,
  0x16, 0x63, 0xc9, 0x3d, 0xcd, 0xf0, 0x9f, 0x3d, 0x43, 0x2f, 0x84, 0x3e,
  0x88, 0xc9, 0xde, 0xbd, 0x63, 0x60, 0xbd, 0x3d, 0xd4, 0xcd, 0x04, 0xbe,
  0x2b, 0x95, 0x17, 0x3e, 0x1e, 0xb3, 0x0c, 0x3e, 0x9d, 0xb3, 0x2f, 0x3c,
  0xef, 0x02, 0xaf, 0xbd, 0xd2, 0x1d, 0xfd, 0x3d, 0x6e, 0xb5, 0xed, 0x3d,
  0xb7, 0x92, 0x99, 0xbd, 0x12, 0x5a, 0x46, 0xbc, 0x08, 0xaf, 0x7a, 0xbd,
  0x32, 0xf1, 0x3f, 0xbd, 0xa6, 0x3c, 0x9d, 0xbd, 0x16, 0xc9, 0x62, 0xbd,
  0x4c, 0x67, 0xbf, 0xbd, 0x07, 0x42, 0x8a, 0x3d, 0x73, 0x9c, 0x66, 0xbe,
  0xb6, 0x67, 0xd3, 0xbd, 0xf5, 0x80, 0x88, 0xbb, 0x6a, 0x4c, 0xef, 0x3d,
  0x5b, 0xe0, 0x0b, 0xbe, 0xc2, 0x11, 0xf4, 0xbd, 0x72, 0xe6, 0x74, 0xbe,
  0xf6, 0x4c, 0xee, 0xbc, 0x40, 0x0c, 0xcc, 0xbd, 0x92, 0xd1, 0xda, 0x3d,
  0xf0, 0xa4, 0x79, 0xbd, 0x92, 0x97, 0x66, 0x3d, 0xc0, 0x2f, 0x65, 0xbd,
  0x02, 0x10, 0x07, 0x3e, 0x4f, 0xac, 0x3c, 0xbe, 0x5c, 0xfb, 0x48, 0x3d,
  0x5e, 0xe6, 0x79, 0xbd, 0x9d, 0x14, 0x48, 0x3e, 0xab, 0x2b, 0x5e, 0x3e,
  0x2c, 0xa8, 0x45, 0x3c, 0x85, 0xb5, 0x7b, 0xbd, 0x0b, 0x82, 0x1f, 0xbe,
  0x70, 0x07, 0xf3, 0xbd, 0xfd, 0xe0, 0x08, 0x3e, 0x20, 0x7a, 0xa2, 0x3d,
  0x92, 0x2e, 0x2b, 0xbe, 0x74, 0x7e, 0x48, 0x3e, 0xc9, 0xb6, 0x2e, 0x3d,
  0x72, 0xe5, 0xef, 0x3d, 0x7a, 0xa0, 0xc6, 0xbd, 0x8e, 0x20, 0x35, 0xbd,
  0x9c, 0xb6, 0x02, 0xbe, 0x26, 0x87, 0x28, 0x3e, 0x0e, 0xe7, 0x17, 0x3e,
  0x40, 0xe2, 0x64, 0xbd, 0xf1, 0x27, 0xc4, 0x3c, 0x4f, 0xdc, 0x2a, 0xbe,
  0x96, 0x62, 0x4f, 0xbe, 0x1a, 0xeb, 0x07, 0xbe, 0xe4, 0x50, 0x20, 0xbd,
  0xf8, 0x3a, 0xb8, 0xbc, 0x75, 0x6c, 0x91, 0xbc, 0xc4, 0x6e, 0x51, 0x3d,
  0xb1, 0xd4, 0x32, 0x3d, 0xf1, 0xbc, 0xd0, 0x3c, 0xe7, 0xdc, 0x0d, 0xbe,
  0xcb, 0x4e, 0x0f, 0xbe, 0x97, 0x51, 0x80, 0x3d, 0xa6, 0x48, 0xdf, 0x3b,
  0x15, 0x06, 0x6c, 0x3d, 0xd5, 0x2b, 0xe7, 0xbd, 0x32, 0x8e, 0xb7, 0x3d,
  0xe5, 0x8f, 0xe8, 0xbd, 0x13, 0x0d, 0xd1, 0x3d, 0x47, 0x72, 0xc5, 0x3d,
  0x5c, 0xf0, 0x87, 0x3b, 0x6e, 0x79, 0xc7, 0xbc, 0xad, 0x23, 0x8f, 0x3c,
  0x03, 0x4d, 0x04, 0xbe, 0xa5, 0xe2, 0xdc, 0x3d, 0x3c, 0x4c, 0xb5, 0x3d,
  0xb5, 0x0c, 0xbc, 0x3c, 0xde, 0x47, 0x76, 0xbd, 0xe3, 0x17, 0x13, 0xbe,
  0x20, 0xbc, 0xb4, 0xbb, 0xe1, 0x79, 0xf0, 0xbd, 0x9d, 0xb2, 0xdd, 0xbd,
  0xb9, 0x77, 0x22, 0xbe, 0x19, 0xce, 0xa6, 0x3d, 0xb2, 0x70, 0x27, 0xbd,
  0x86, 0xf4, 0xd2, 0x3d, 0x9c, 0xff, 0xed, 0xbd, 0x23, 0xf5, 0xcc, 0x3c,
  0xfb, 0xa0, 0xec, 0x3c, 0x75, 0xdf, 0x12, 0xbd, 0xb1, 0x9c, 0xce, 0xbd,
  0xd0, 0x3a, 0x99, 0xbc, 0x2c, 0x12, 0xba, 0x3d, 0x09, 0xba, 0x94, 0xbd,
  0x48, 0x7a, 0xe9, 0x3b, 0xc3, 0x18, 0x53, 0xbe, 0xe8, 0x3b, 0x6b, 0xbd,
  0x82, 0x2f, 0x6d, 0x3d, 0x4c, 0x47, 0x9d, 0x3c, 0x32, 0x5d, 0x95, 0xbc,
  0xc0, 0xef, 0xdf, 0x3d, 0x39, 0xc1, 0xd8, 0x3d, 0x40, 0xed, 0xc2, 0x3d,
  0xfe, 0xec, 0xee, 0x3d, 0x48, 0xe6, 0x5b, 0xbc, 0x68, 0x8b, 0x99, 0xbd,
  0x73, 0x14, 0x87, 0xbd, 0x1e, 0x84, 0xde, 0x3c, 0x0e, 0x3e, 0xca, 0xbd,
  0x5f, 0x6a, 0xbe, 0x3d, 0x2e, 0xbf, 0x9c, 0xbd, 0xec, 0xc3, 0x5a, 0xbd,
  0x71, 0x93, 0x6b, 0xbd, 0xef, 0xdc, 0xd4, 0xbd, 0xf2, 0x05, 0xd6, 0x3d,
  0xa0, 0x8f, 0x8b, 0x3c, 0xf4, 0xd5, 0x41, 0x3c, 0x2b, 0x9e, 0x40, 0x3d,
  0xc4, 0x56, 0x92, 0xba, 0x11, 0xf8, 0x9b, 0x3d, 0x67, 0xab, 0x09, 0x3e,
  0x45, 0x8f, 0xee, 0xbd, 0xcb, 0xed, 0x83, 0xbd, 0xf1, 0x3b, 0x22, 0xbe,
  0x3c, 0xf2, 0x1f, 0x3d, 0xd5, 0x23, 0x9f, 0xbd, 0xc8, 0xeb, 0x74, 0xbd,
  0x25, 0xfa, 0xc8, 0xbd, 0x91, 0xf8, 0x79, 0xbd, 0x6c, 0xd0, 0xa0, 0xbc,
  0x21, 0x72, 0xdf, 0x3d, 0xfc, 0x48, 0x84, 0xbd, 0x41, 0x05, 0x09, 0xbe,
  0x30, 0xed, 0x2a, 0x3d, 0xff, 0x89, 0x3f, 0x3b, 0xb4, 0x6b, 0x3c, 0x3d,
  0x0e, 0xfe, 0xab, 0xbc, 0xb6, 0x0a, 0x81, 0x3d, 0x05, 0x47, 0xe2, 0x3d,
  0x0a, 0x9a, 0x0e, 0xbe, 0x1c, 0x11, 0xaa, 0x3d, 0x9c, 0xcd, 0x62, 0xbd,
  0xca, 0xd0, 0x84, 0x3c, 0x44, 0xb8, 0x1c, 0xbe, 0x02, 0x18, 0xec, 0x3d,
  0x6d, 0x46, 0x0e, 0x3e, 0x7f, 0x2e, 0x3e, 0x3d, 0xa6, 0x62, 0xc6, 0xbd,
  0xa1, 0x5d, 0xd9, 0xbd, 0x65, 0x81, 0x11, 0xbe, 0xee, 0xe5, 0x98, 0xbd,
  0x0c, 0x4a, 0xdc, 0xbd, 0x3c, 0xf2, 0x30, 0x3e, 0xa1, 0x4e, 0x64, 0x3d,
  0x24, 0xbf, 0x76, 0x3d, 0xc8, 0x78, 0xec, 0xbd, 0x9a, 0x1a, 0x34, 0x3e,
  0x9c, 0x98, 0x48, 0x3d, 0x32, 0x46, 0x16, 0x3e, 0xfd, 0xde, 0xc6, 0x3c,
  0xfd, 0xd5, 0xf3, 0x3c, 0xc2, 0x59, 0x4c, 0xbc, 0x7c, 0x4a, 0xe8, 0xbd,
  0xdb, 0xfa, 0x05, 0xbe, 0x88, 0x65, 0x93, 0x3d, 0x19, 0x9c, 0xf3, 0xbc,
  0x72, 0xef, 0x5f, 0x3d, 0xdb, 0x45, 0x95, 0x3d, 0x48, 0x6c, 0x8d, 0x3c,
  0x53, 0xca, 0xec, 0xbd, 0x1c, 0x11, 0xd4, 0xbd, 0x5b, 0x24, 0xaf, 0xbc,
  0x31, 0x17, 0xec, 0xbd, 0x27, 0x77, 0x45, 0xbd, 0x9d, 0x23, 0x9c, 0xbd,
  0x51, 0x0f, 0x17, 0x3e, 0xe3, 0x08, 0x32, 0xbd, 0xba, 0x84, 0xab, 0xba,
  0x1b, 0xf0, 0x55, 0x3d, 0x84, 0x74, 0xbf, 0xbd, 0xd0, 0xfc, 0xa5, 0xbc,
  0xc8, 0x83, 0x71, 0xbd, 0xa7, 0x3b, 0xa3, 0xbd, 0x70, 0x91, 0x4c, 0xbe,
  0x96, 0xe8, 0x5b, 0xbc, 0x9c, 0xf1, 0x17, 0xbe, 0x40, 0x2b, 0x92, 0x3d,
  0x7c, 0x26, 0x92, 0xbd, 0xe8, 0x8d, 0x13, 0x3e, 0x84, 0xbe, 0xd0, 0x3d,
  0x5e, 0x27, 0x08, 0xbd, 0x35, 0xd6, 0x4e, 0xbe, 0x4f, 0x4c, 0xad, 0xbd,
  0xe0, 0xd9, 0x67, 0x3d, 0x9c, 0x55, 0x23, 0x3e, 0xf5, 0xd1, 0xca, 0x3d,
  0x8b, 0x9a, 0x63, 0x3d, 0x25, 0x75, 0x12, 0x3e, 0x60, 0x61, 0x09, 0xbe,
  0xb2, 0x8d, 0x1e, 0xbe, 0xe6, 0x1b, 0x9f, 0xbd, 0x89, 0xce, 0x15, 0x3e,
  0xf5, 0xb8, 0xfd, 0xbc, 0x49, 0xb1, 0xde, 0xbc, 0x03, 0xc8, 0x07, 0xbe,
  0xea, 0x01, 0xac, 0x3d, 0xb3, 0xa7, 0x8a, 0xbd, 0x86, 0x2d, 0xb7, 0x3c,
  0x2a, 0x15, 0x16, 0xbe, 0x7e, 0x1d, 0xcc, 0xbd, 0xc8, 0x15, 0x51, 0x3d,
  0x02, 0x84, 0x45, 0xbd, 0x48, 0x3d, 0x2b, 0xbe, 0x9b, 0x5c, 0x0c, 0xbe,
  0xd4, 0xa6, 0x60, 0x3d, 0x00, 0x94, 0x98, 0xbe, 0x01, 0xa4, 0x82, 0x3d,
  0x55, 0x63, 0x14, 0x3e, 0x9a, 0xbc, 0x04, 0xbd, 0x1d, 0x48, 0x58, 0xbe,
  0x85, 0x59, 0xbf, 0x3d, 0x5a, 0xbc, 0x90, 0xbe, 0xa6, 0xd8, 0xaa, 0xbd,
  0x31, 0x81, 0xc6, 0xbd, 0x95, 0x10, 0xd9, 0x3d, 0xcc, 0x82, 0x27, 0x3d,
  0x03, 0xa4, 0x56, 0x3e, 0x7b, 0x5a, 0xfb, 0xbd, 0x2f, 0x69, 0x8c, 0xbd,
  0x53, 0x45, 0x0a, 0x3e, 0xcf, 0xed, 0x69, 0x3e, 0x9a, 0x10, 0xf8, 0x3e,
  0x80, 0xba, 0xa6, 0x3e, 0x13, 0x50, 0x22, 0x3d, 0x50, 0xce, 0x62, 0x3c,
  0xd0, 0x43, 0xa6, 0xbc, 0x66, 0xd1, 0xa0, 0x3d, 0xc5, 0x80, 0x66, 0x3e,
  0xc9, 0x34, 0x6c, 0x3d, 0x54, 0x5f, 0xa7, 0x3d, 0x71, 0xda, 0x81, 0x3d,
  0xe6, 0x0e, 0xc6, 0x3d, 0x7c, 0x81, 0x29, 0xbd, 0x6d, 0xe8, 0x20, 0x3d,
  0x44, 0x9d, 0x0c, 0xbd, 0x3c, 0xac, 0x0b, 0xbd, 0x24, 0xbf, 0xd8, 0x3d,
  0x8c, 0xa4, 0x01, 0x3d, 0x0d, 0xaa, 0x82, 0xbe, 0x43, 0x7c, 0x67, 0xbd,
  0x62, 0x54, 0x3c, 0xbd, 0x07, 0x8e, 0x01, 0xbe, 0x30, 0xce, 0x1a, 0x3e,
  0x80, 0x9c, 0x90, 0xbb, 0x13, 0xa1, 0x3d, 0xbd, 0x18, 0xa7, 0xbc, 0xbd,
  0x4f, 0x01, 0x0f, 0x3e, 0x21, 0xc5, 0x1c, 0xbd, 0x2e, 0xcc, 0xdb, 0x3d,
  0xe4, 0x74, 0x81, 0xbd, 0xe1, 0x27, 0x56, 0x3e, 0xa6, 0x43, 0xd2, 0xbc,
  0x82, 0xf8, 0xbd, 0x3e, 0xe7, 0x63, 0x97, 0xbd, 0xe7, 0x42, 0xf0, 0x3d,
  0x00, 0x0f, 0x75, 0xbd, 0x67, 0xbc, 0xb9, 0x3d, 0xcf, 0x11, 0xa9, 0x3e,
  0x74, 0xc3, 0xee, 0x3e, 0x93, 0x23, 0x24, 0x3e, 0x5a, 0xb7, 0xc5, 0xbd,
  0x7e, 0xa8, 0x00, 0xbe, 0xf9, 0xb0, 0xc0, 0x3c, 0x57, 0x60, 0x62, 0x3e,
  0x63, 0xef, 0x64, 0x3e, 0x21, 0xea, 0x0f, 0x3e, 0xef, 0x9c, 0xc4, 0x3d,
  0xfa, 0x51, 0x92, 0x3d, 0xfb, 0x0b, 0x1c, 0xbe, 0x04, 0x31, 0xe5, 0x3d,
  0x3d, 0xff, 0xbf, 0x3d, 0x4a, 0xc0, 0xc0, 0x3d, 0xf3, 0x8c, 0x6e, 0xbd,
  0xea, 0x6e, 0xb8, 0x3c, 0x01, 0x6f, 0xf2, 0xbc, 0xc1, 0xea, 0xb3, 0x3d,
  0x32, 0xbc, 0xd7, 0x3c, 0x48, 0xca, 0x46, 0xbd, 0xda, 0x33, 0xc8, 0x3d,
  0xb9, 0x96, 0x3e, 0x3d, 0xad, 0x2c, 0x80, 0xbd, 0x68, 0x4c, 0xa0, 0xbd,
  0x52, 0x1a, 0xd8, 0x3d, 0xb7, 0xa2, 0x3f, 0x3e, 0xcf, 0xd5, 0x09, 0xbe,
  0x96, 0x13, 0x56, 0x3c, 0x40, 0x1e, 0x7b, 0xbd, 0xe0, 0xf9, 0xb0, 0xbd,
  0x7c, 0x96, 0x8b, 0x3d, 0x5a, 0x43, 0x5f, 0x3e, 0x83, 0xcc, 0xcc, 0xbd,
  0x71, 0x64, 0x13, 0x3e, 0xc9, 0x6b, 0x87, 0x3c, 0x31, 0xe8, 0xad, 0x3d,
  0x1d, 0x3d, 0x7e, 0x3d, 0x84, 0x1d, 0x56, 0x3e, 0xc4, 0x24, 0xcc, 0xbd,
  0xa0, 0xc8, 0x50, 0x3c, 0x6e, 0xbe, 0x7b, 0xbd, 0x9c, 0xc1, 0xef, 0xbb,
  0xf9, 0x09, 0x79, 0xbd, 0x5c, 0x9e, 0x6b, 0x3e, 0x91, 0x8e, 0x02, 0xbd,
  0xd0, 0xb4, 0x77, 0xbc, 0x2a, 0x24, 0x6f, 0x3b, 0xce, 0x22, 0x82, 0x3d,
  0xbc, 0x6d, 0x1c, 0x3e, 0x6a, 0x4c, 0x0f, 0x3b, 0xbf, 0xcf, 0xc6, 0x3c,
  0x90, 0x66, 0x9c, 0xbd, 0x14, 0x0e, 0x01, 0xbe, 0x55, 0x71, 0xb0, 0x3d,
  0xcf, 0x15, 0x55, 0x3d, 0x8e, 0x00, 0x4c, 0x3d, 0x10, 0x5e, 0x11, 0xbd,
  0x73, 0xe8, 0xb4, 0xbd, 0x1e, 0x68, 0xc2, 0xbd, 0x68, 0x56, 0xef, 0x3c,
  0xf3, 0x07, 0x87, 0xbc, 0x61, 0x74, 0x4a, 0x3d, 0x6c, 0xab, 0x09, 0xbe,
  0x51, 0x10, 0x1a, 0x3e, 0x7b, 0x54, 0x3f, 0xbd, 0x9a, 0xe9, 0xdd, 0xbc,
  0x43, 0xfd, 0x96, 0xbc, 0x74, 0xbc, 0x15, 0x3e, 0x25, 0xd7, 0x91, 0xbd,
  0x51, 0x4d, 0x2c, 0xbc, 0x06, 0xf9, 0x3d, 0x3d, 0xef, 0x53, 0x6f, 0x3d,
  0x25, 0xaa, 0xcc, 0xbd, 0x35, 0xed, 0x97, 0x3e, 0xd7, 0xe2, 0x4d, 0x3d,
  0xc7, 0x37, 0x91, 0xbd, 0x4b, 0x5b, 0x17, 0x3e, 0x2b, 0x87, 0x96, 0x3d,
  0x07, 0x02, 0x6d, 0xbd, 0xe4, 0x63, 0xeb, 0x3d, 0x57, 0xf4, 0x47, 0x3a,
  0x32, 0x7e, 0x00, 0xbe, 0x6f, 0x00, 0x18, 0x3d, 0x8c, 0xa7, 0x80, 0x3d,
  0xf0, 0x32, 0x25, 0x3e, 0xc2, 0x3f, 0xcd, 0x3d, 0xee, 0xc7, 0x24, 0xbe,
  0x28, 0x55, 0x27, 0xbd, 0xca, 0x0a, 0x0e, 0x3d, 0x53, 0x72, 0x35, 0x3e,
  0x15, 0xf9, 0x23, 0x3e, 0x2b, 0x4f, 0x61, 0x3e, 0x9b, 0x5e, 0x33, 0xbc,
  0x19, 0xd1, 0x29, 0xbc, 0xeb, 0x79, 0x33, 0x3e, 0x2c, 0xf0, 0x0d, 0x3e,
  0xbb, 0xf0, 0x10, 0x3e, 0xf5, 0x31, 0xa6, 0x3e, 0xc0, 0x1e, 0xe5, 0xbd,
  0xf2, 0xe0, 0x23, 0x3c, 0xd7, 0x02, 0x24, 0xbc, 0xf4, 0x12, 0xa8, 0xbd,
  0xcc, 0x26, 0x18, 0x3e, 0x1f, 0xb5, 0xc6, 0x3b, 0x73, 0x85, 0x17, 0xbe,
  0x13, 0x69, 0x24, 0xbd, 0x10, 0x5d, 0x15, 0x3c, 0xcb, 0x82, 0x4c, 0x3d,
  0x14, 0x44, 0x10, 0x3e, 0x3e, 0x3c, 0xde, 0xbd, 0xa7, 0xee, 0x11, 0xbe,
  0xd4, 0x3d, 0xeb, 0xbd, 0xed, 0xa7, 0x9f, 0xbc, 0xb6, 0xca, 0xc5, 0xb9,
  0x66, 0xf6, 0xe0, 0x3c, 0x85, 0xae, 0xc0, 0xbd, 0xf8, 0x75, 0xc2, 0x3c,
  0x8c, 0xf4, 0xe4, 0x3c, 0xc5, 0xde, 0xfc, 0x3c, 0x8b, 0x15, 0x1a, 0x3e,
  0x06, 0x5a, 0x82, 0x3e, 0xd4, 0xfb, 0x88, 0xbc, 0xa5, 0x3e, 0xe2, 0xbd,
  0x68, 0xfa, 0x1b, 0x3e, 0xab, 0x63, 0xa4, 0xbc, 0xf0, 0x3a, 0xbd, 0x3d,
  0xbd, 0x73, 0xd4, 0xbc, 0xc7, 0x3a, 0x48, 0x3e, 0x34, 0x2f, 0xc3, 0x3d,
  0x06, 0x3d, 0x5e, 0xbd, 0xaf, 0x68, 0xbf, 0x3d, 0xd7, 0x23, 0x89, 0x3e,
  0xc2, 0xd4, 0x0a, 0xbe, 0x87, 0xbe, 0x18, 0x3e, 0x28, 0x64, 0x87, 0xbc,
  0x2d, 0x1c, 0x58, 0xbd, 0x37, 0x63, 0xb2, 0xbc, 0xa5, 0xc7, 0xaa, 0xbd,
  0x4a, 0x08, 0xb8, 0x3d, 0x12, 0xf4, 0x84, 0xbd, 0x76, 0x8c, 0xcc, 0xbc,
  0x41, 0xc0, 0x80, 0xbd, 0x54, 0x06, 0xb7, 0xbd, 0x3c, 0x84, 0x06, 0xbd,
  0x47, 0xc2, 0xa1, 0x3c, 0x80, 0xf1, 0x3b, 0x3d, 0x00, 0x1c, 0xea, 0x3d,
  0xc0, 0x88, 0xa8, 0xbb, 0xf4, 0x1e, 0x10, 0x3e, 0x0d, 0x3c, 0xf4, 0x3c,
  0xe3, 0xb3, 0x8b, 0xbd, 0x7a, 0x09, 0x0c, 0xbe, 0xbd, 0x41, 0x0f, 0x3e,
  0xb0, 0x64, 0x37, 0x3c, 0x4a, 0x48, 0xf9, 0x3d, 0xd4, 0x66, 0x34, 0xbc,
  0xa9, 0x88, 0x1f, 0x3e, 0x37, 0x01, 0x16, 0xbd, 0xd1, 0xe1, 0x6f, 0xbd,
  0x9a, 0xfb, 0x63, 0xbd, 0xd8, 0xdd, 0x2d, 0x3e, 0xdf, 0x2f, 0x1e, 0x3e,
  0x64, 0x75, 0x2c, 0x3d, 0x1e, 0xc3, 0xfa, 0x3d, 0x16, 0xeb, 0xce, 0xbd,
  0x35, 0xe9, 0xd8, 0xbd, 0x9b, 0x86, 0xbc, 0xbd, 0x6a, 0x00, 0x82, 0x3e,
  0xc4, 0x7e, 0x59, 0xbe, 0x2a, 0x1a, 0x7f, 0x3e, 0x9c, 0x65, 0x47, 0xbd,
  0x26, 0xe9, 0x11, 0xbe, 0xa0, 0x39, 0x1c, 0xbd, 0xaa, 0xdd, 0x56, 0xbe,
  0xa6, 0x92, 0xbb, 0xbe, 0x8c, 0x16, 0x32, 0x3e, 0x32, 0xbd, 0xe3, 0x3d,
  0xcd, 0xd0, 0xaf, 0xbd, 0x4b, 0x17, 0x2a, 0xbe, 0x9e, 0x01, 0x40, 0xbe,
  0x6f, 0xb1, 0x77, 0xbe, 0x35, 0x0e, 0xc4, 0xbd, 0x02, 0x1e, 0x19, 0xbd,
  0x92, 0x69, 0x83, 0x3d, 0x0d, 0x57, 0xfe, 0x3d, 0xb8, 0x92, 0x24, 0xbe,
  0x20, 0x44, 0x29, 0xbe, 0xfc, 0xe1, 0x52, 0xbe, 0x3b, 0xb8, 0xbe, 0x3d,
  0xa8, 0xe4, 0x10, 0xbe, 0xd5, 0xf5, 0x7b, 0x3e, 0xf4, 0x62, 0x84, 0x3d,
  0x09, 0x5c, 0x50, 0xbb, 0xde, 0xbc, 0x73, 0x3d, 0x3e, 0xc6, 0x02, 0xbd,
  0x5b, 0x14, 0xc4, 0xbd, 0x29, 0x27, 0x94, 0x3e, 0x56, 0x17, 0x6c, 0x3d,
  0xfb, 0x45, 0xbe, 0xbd, 0x74, 0xc5, 0x02, 0x3e, 0xcf, 0x49, 0xc1, 0x3d,
  0x47, 0xf0, 0x00, 0x3e, 0xd0, 0x1a, 0x7c, 0xbd, 0x21, 0xc2, 0x7e, 0x3e,
  0x26, 0x67, 0x6d, 0xbd, 0x48, 0xb4, 0x2f, 0x3e, 0x6d, 0xdf, 0x6f, 0xbd,
  0x95, 0x3a, 0x89, 0xbc, 0x34, 0x66, 0x6a, 0xbe, 0xc2, 0xa1, 0x9b, 0x3d,
  0x48, 0xe4, 0x8e, 0xbe, 0x09, 0x77, 0x07, 0x3d, 0x5d, 0xba, 0xfc, 0x3d,
  0xa2, 0x4f, 0xd2, 0x3d, 0x3f, 0x57, 0x09, 0xbe, 0xac, 0x2b, 0x5f, 0xbe,
  0x77, 0x42, 0x94, 0xbe, 0x36, 0x62, 0xca, 0xbd, 0xca, 0xdd, 0x0b, 0xbe,
  0x78, 0xe6, 0xca, 0x3c, 0xe8, 0x6a, 0x9a, 0x3d, 0x73, 0x4c, 0x73, 0xbe,
  0x50, 0x58, 0x57, 0xbe, 0x28, 0x92, 0x62, 0xbe, 0x7d, 0x1c, 0x91, 0x3c,
  0x4c, 0x1d, 0xbf, 0x3c, 0x65, 0x1a, 0x12, 0x3d, 0xee, 0xbb, 0xd3, 0xbd,
  0x3c, 0xa9, 0x61, 0xbd, 0x4f, 0xee, 0xfa, 0xbd, 0x9b, 0x97, 0xd6, 0xbc,
  0x6e, 0xa2, 0x49, 0xbd, 0x87, 0x2f, 0x5e, 0x3e, 0xd8, 0xac, 0x75, 0xbd,
  0xa4, 0x26, 0xbb, 0xbd, 0x12, 0x8d, 0xa3, 0xbd, 0x13, 0x97, 0x11, 0x3e,
  0x87, 0xa2, 0xef, 0xbb, 0x26, 0x01, 0x82, 0xbd, 0x6f, 0x12, 0x5f, 0x3e,
  0x8a, 0xa4, 0x99, 0x3d, 0xb3, 0x97, 0xd6, 0xbd, 0x75, 0x5a, 0x39, 0x3d,
  0x40, 0x0b, 0xa5, 0x3d, 0xd0, 0xb3, 0xd0, 0xbd, 0x39, 0xb5, 0x6a, 0x3e,
  0x7d, 0x33, 0x42, 0xbe, 0xc3, 0xee, 0x3f, 0xbe, 0xd1, 0xd7, 0xeb, 0xbd,
  0x64, 0xe7, 0x32, 0x3d, 0x2c, 0x58, 0x31, 0xbe, 0x87, 0x36, 0xa6, 0xbd,
  0xf3, 0xeb, 0xe6, 0x3c, 0x33, 0x7c, 0x87, 0xbe, 0x52, 0x57, 0x1a, 0x3d,
  0xd8, 0x56, 0xf7, 0x3c, 0xbb, 0x89, 0x32, 0x3d, 0x99, 0x20, 0x40, 0xbd,
  0xee, 0x23, 0x27, 0x3e, 0x6d, 0x4d, 0x6a, 0xbd, 0x52, 0x89, 0xe1, 0xbd,
  0x64, 0x2e, 0x36, 0x3e, 0xe6, 0x6c, 0x1b, 0x3e, 0x6a, 0x54, 0x35, 0x3d,
  0x6a, 0x24, 0xaf, 0x3d, 0x08, 0xd3, 0x81, 0xbd, 0xd0, 0xe4, 0xec, 0xbd,
  0x98, 0x6b, 0xce, 0xbd, 0x0f, 0x6c, 0xbb, 0x3c, 0x8a, 0x24, 0x5a, 0xbd,
  0x28, 0x83, 0x42, 0x3c, 0x30, 0x53, 0xae, 0xbd, 0xd3, 0xf7, 0xb6, 0xbd,
  0xac, 0x26, 0xec, 0xbd, 0xe5, 0xac, 0x7e, 0x3d, 0x44, 0xaa, 0x5e, 0xbc,
  0x86, 0xaa, 0x8c, 0x3d, 0x19, 0x2d, 0x3f, 0x3d, 0xcb, 0xc0, 0x2f, 0x3d,
  0xf0, 0xfc, 0x81, 0xbc, 0x2e, 0x06, 0xaf, 0x3b, 0x55, 0x70, 0x8e, 0x3d,
  0x9f, 0xd5, 0xa2, 0x3d, 0x6d, 0x95, 0x9d, 0xbd, 0x85, 0x26, 0x99, 0xbd,
  0x7b, 0x9b, 0x76, 0x3d, 0xeb, 0x39, 0x13, 0x3e, 0x81, 0xfc, 0xa5, 0xbd,
  0x94, 0x9c, 0xe7, 0x3b, 0xba, 0xe3, 0x17, 0xbe, 0x90, 0x18, 0x4c, 0xbd,
  0xd0, 0x69, 0x6a, 0xbc, 0xe0, 0x2a, 0xb8, 0x3d, 0x5a, 0xd3, 0x3b, 0xbe,
  0x40, 0x8e, 0x72, 0xbc, 0x0a, 0x0d, 0x00, 0xbe, 0x3a, 0x31, 0x27, 0xbd,
  0xf8, 0x72, 0x1f, 0x3d, 0x47, 0x95, 0xc1, 0x3d, 0x90, 0x02, 0x8e, 0x3d,
  0x10, 0xfb, 0x1b, 0xbe, 0x1f, 0x30, 0x1e, 0xbe, 0xfd, 0x90, 0x8f, 0xbd,
  0x02, 0x64, 0x8e, 0xbd, 0x6e, 0x77, 0x47, 0xbd, 0x92, 0x43, 0x1a, 0x3d,
  0x98, 0xef, 0x9f, 0x3d, 0x58, 0x4a, 0xe2, 0x3d, 0x06, 0x2b, 0x4c, 0xba,
  0x8c, 0x4a, 0xd2, 0x3d, 0x2c, 0x40, 0x2f, 0x3e, 0xc7, 0x2a, 0x12, 0x3d,
  0xdb, 0x32, 0xed, 0x3d, 0x61, 0xc1, 0x18, 0x3e, 0xde, 0x6a, 0xdf, 0xbd,
  0x60, 0xb2, 0x4b, 0xbd, 0x1d, 0xe9, 0x15, 0x3c, 0xb9, 0x98, 0xd7, 0x3d,
  0x37, 0x78, 0x17, 0x3d, 0x6c, 0x02, 0x4a, 0x3e, 0x8f, 0xed, 0x08, 0xbe,
  0x10, 0x66, 0x8e, 0xbd, 0xd4, 0x3e, 0x82, 0xbd, 0xe0, 0x77, 0xd8, 0xbd,
  0x1c, 0x7f, 0xb4, 0x3d, 0x88, 0xa0, 0x26, 0xbe, 0xe8, 0xcf, 0x04, 0x3e,
  0x31, 0x60, 0xc5, 0x3d, 0x13, 0xa1, 0x27, 0x3d, 0xc0, 0x5c, 0x3c, 0x3d,
  0x46, 0x5e, 0x03, 0x3e, 0x88, 0xb9, 0x00, 0xbe, 0x8a, 0xa2, 0xf5, 0x3d,
  0x8c, 0xbf, 0x5f, 0xbd, 0xfd, 0xf4, 0x1e, 0x3d, 0x39, 0x0e, 0xbe, 0x3d,
  0xec, 0x75, 0x34, 0x3d, 0xaa, 0x31, 0x7a, 0xbd, 0x11, 0x7d, 0xfc, 0x3d,
  0xbb, 0x26, 0xe5, 0x3d, 0x12, 0x58, 0x5d, 0x3e, 0x97, 0x7a, 0x0a, 0x3e,
  0xde, 0x50, 0xd2, 0x3c, 0xd8, 0xa8, 0x0e, 0x3e, 0x6d, 0xd2, 0x15, 0x3e,
  0x16, 0x81, 0xfe, 0x3d, 0xc5, 0x18, 0x83, 0xbd, 0xa0, 0xdf, 0xdb, 0x3c,
  0x33, 0x05, 0x73, 0x3d, 0xe4, 0x10, 0x6b, 0x3e, 0x48, 0xb2, 0xb3, 0x3d,
  0x06, 0x3e, 0xa1, 0x3d, 0xbb, 0x8f, 0x73, 0xbe, 0x13, 0xf8, 0xe4, 0xbc,
  0xaa, 0xb6, 0x20, 0x3c, 0x17, 0xb6, 0x9a, 0x3c, 0x3a, 0x8c, 0xee, 0x3d,
  0x17, 0x17, 0xe4, 0xbc, 0xb2, 0xae, 0x1f, 0xbe, 0x93, 0x0c, 0x8d, 0xbc,
  0x72, 0xff, 0xbb, 0x3d, 0x88, 0x8e, 0xe0, 0xbd, 0x1c, 0xbf, 0xcc, 0xbd,
  0x0e, 0x4f, 0xe9, 0x3d, 0x38, 0x09, 0x14, 0x3e, 0xc8, 0x7b, 0x03, 0xbe,
  0x73, 0x6d, 0xec, 0x3d, 0xcc, 0x9c, 0xc4, 0xbc, 0x25, 0x83, 0x92, 0xbc,
  0x60, 0xed, 0x94, 0x3d, 0x91, 0x77, 0x86, 0x3e, 0xc0, 0x04, 0x01, 0x3e,
  0x6d, 0xb8, 0x56, 0xbd, 0x17, 0x7f, 0x50, 0x3c, 0x1a, 0x2c, 0xc9, 0xbc,
  0x62, 0x0e, 0x2e, 0xbd, 0x7b, 0xfc, 0x4c, 0x3e, 0x0a, 0x39, 0xb5, 0x3e,
  0xfb, 0x3c, 0x08, 0xbe, 0x7a, 0xec, 0x2d, 0x3e, 0xa3, 0x6c, 0x7a, 0x3d,
  0x4d, 0x1d, 0xca, 0xbd, 0x12, 0x98, 0xbd, 0x39, 0x64, 0x7f, 0xf5, 0x3d,
  0x73, 0x25, 0x14, 0xbe, 0x30, 0xb3, 0x45, 0x3e, 0xf0, 0x6b, 0xbf, 0xbd,
  0xf1, 0xaa, 0x46, 0x3b, 0x59, 0xf4, 0x1d, 0xbe, 0x94, 0x62, 0x69, 0xbe,
  0xba, 0xf2, 0x75, 0xbe, 0x13, 0x19, 0x40, 0xbd, 0x17, 0xe9, 0xdd, 0xbd,
  0x4e, 0xd1, 0xd7, 0x3d, 0x50, 0xe6, 0xad, 0xbd, 0x7b, 0x52, 0x5f, 0xbe,
  0x4f, 0x94, 0xe1, 0xbd, 0xd6, 0xdc, 0x2c, 0xbd, 0xb0, 0x61, 0x0d, 0xbc,
  0xac, 0x1a, 0x4a, 0x3d, 0x61, 0x2c, 0x16, 0xbd, 0x37, 0x59, 0xb0, 0xbd,
  0x52, 0x72, 0xef, 0xbc, 0x4f, 0x62, 0x45, 0xbe, 0xb5, 0x79, 0xd3, 0xbd,
  0xca, 0xfc, 0xd9, 0x3d, 0x06, 0xe9, 0x19, 0x3e, 0x68, 0x0e, 0x1c, 0xbe,
  0xb0, 0xe8, 0x03, 0xbe, 0x25, 0x31, 0x87, 0xbc, 0x58, 0xfa, 0xe0, 0x3d,
  0x04, 0x18, 0x29, 0xbd, 0x68, 0x5e, 0x93, 0x3e, 0x88, 0x38, 0x09, 0x3e,
  0x08, 0xac, 0x01, 0x3e, 0xbe, 0x3e, 0x07, 0x3e, 0xa2, 0x4d, 0x84, 0x3d,
  0x00, 0x90, 0x21, 0xbb, 0xc4, 0x42, 0xde, 0xbd, 0xc3, 0x44, 0xa3, 0x3e,
  0xa7, 0x0d, 0xd0, 0x3c, 0x74, 0xa2, 0x03, 0x3e, 0x80, 0x18, 0xf6, 0x3d,
  0xea, 0x7d, 0x7d, 0xbd, 0x70, 0xd4, 0x1b, 0xbe, 0xef, 0xaa, 0x53, 0x3e,
  0xb4, 0xa0, 0x44, 0xbe, 0x7e, 0xfa, 0x30, 0x3d, 0xdd, 0xff, 0x01, 0x3e,
  0x7b, 0x6a, 0x1c, 0x3e, 0x8b, 0xcf, 0x53, 0xbe, 0x97, 0x4d, 0x7d, 0xbe,
  0x87, 0x37, 0xa4, 0xbe, 0x51, 0x6a, 0x97, 0x3d, 0x50, 0xf7, 0x64, 0xbd,
  0xb5, 0x6c, 0xa0, 0xbd, 0x46, 0x7a, 0xa9, 0xbd, 0x6e, 0xa6, 0x61, 0xbe,
  0x51, 0xd7, 0xf5, 0xbd, 0x60, 0x47, 0x2c, 0xbd, 0xc9, 0x41, 0xa9, 0xbd,
  0x1e, 0x01, 0xf8, 0x3d, 0xd6, 0x70, 0xaa, 0x3d, 0xb3, 0x52, 0x23, 0xbd,
  0x75, 0xe4, 0x9b, 0x3d, 0x0e, 0x76, 0x93, 0x3d, 0x31, 0x7b, 0xd6, 0x3d,
  0x41, 0xdc, 0x1e, 0xbe, 0x94, 0x20, 0x10, 0x3d, 0x5e, 0x49, 0x45, 0xbd,
  0xb7, 0x1e, 0xa0, 0xbd, 0x86, 0xfe, 0x31, 0x3e, 0x4b, 0x32, 0x66, 0xbc,
  0x42, 0xfc, 0x82, 0xbd, 0x5d, 0x27, 0x15, 0x3d, 0x76, 0xbf, 0xed, 0xba,
  0x14, 0x90, 0x14, 0x3e, 0x97, 0x80, 0x2e, 0xbd, 0x43, 0x31, 0x56, 0x3d,
  0x93, 0x5e, 0xbb, 0xbd, 0x46, 0xbb, 0x20, 0x3d, 0x42, 0xbd, 0x89, 0x3e,
  0xf0, 0xbc, 0xa2, 0xbd, 0x8b, 0x30, 0x88, 0xbe, 0x1c, 0xe5, 0x62, 0xbc,
  0xa8, 0xd0, 0x2d, 0xbd, 0x79, 0x89, 0x88, 0xbd, 0x69, 0xdb, 0xf7, 0x3d,
  0x3b, 0x22, 0x4c, 0x3a, 0x05, 0x38, 0x31, 0xbe, 0xbe, 0x72, 0xe8, 0x3d,
  0xfa, 0xb9, 0xba, 0x3d, 0x2e, 0x35, 0x16, 0xbe, 0x06, 0x89, 0xc1, 0x3c,
  0x52, 0x12, 0x73, 0x3d, 0xa4, 0xaa, 0x4f, 0xbe, 0x72, 0x83, 0x25, 0x3d,
  0xc6, 0xef, 0xa0, 0x3d, 0xf1, 0x43, 0x7c, 0x3d, 0x55, 0x88, 0x30, 0x3e,
  0x0f, 0x26, 0x9a, 0x3d, 0x14, 0x81, 0x41, 0xbd, 0x74, 0x77, 0x53, 0x3d,
  0x54, 0x41, 0x83, 0x3d, 0x62, 0x97, 0xa2, 0x3d, 0x89, 0x27, 0x05, 0xbe,
  0x24, 0x86, 0x12, 0x3e, 0x35, 0x56, 0x4b, 0xbd, 0x00, 0xe7, 0xa3, 0xbc,
  0xd2, 0x43, 0xba, 0xbd, 0x98, 0x9d, 0x04, 0xbe, 0x05, 0x38, 0x04, 0xbe,
  0x7b, 0x4e, 0x3f, 0x3d, 0x98, 0x58, 0x20, 0xbe, 0x3a, 0x2b, 0x0e, 0xbe,
  0x14, 0x99, 0x13, 0xbe, 0x25, 0xce, 0xca, 0x3d, 0xd1, 0x9e, 0xa7, 0xbc,
  0x87, 0x64, 0x21, 0xbe, 0x46, 0x74, 0x9b, 0xbd, 0x17, 0x39, 0x00, 0xbd,
  0x39, 0x95, 0x0d, 0x3e, 0xa0, 0xdf, 0xdb, 0xbd, 0x5c, 0xa8, 0x60, 0xbd,
  0xb7, 0x76, 0x44, 0x3e, 0xa8, 0x08, 0x59, 0xbe, 0x5c, 0x7b, 0x1c, 0x3e,
  0xb4, 0xe2, 0x18, 0xbd, 0xec, 0x38, 0x6e, 0xbd, 0xce, 0xbe, 0x8f, 0x3d,
  0x8a, 0x9e, 0x33, 0xbd, 0x80, 0xdf, 0xc1, 0xbd, 0xce, 0x14, 0xf1, 0x3d,
  0xc1, 0x3d, 0xfe, 0x3d, 0x26, 0x9f, 0x0b, 0x3c, 0xf5, 0xa8, 0xf1, 0xbc,
  0x05, 0xf2, 0xef, 0xbd, 0x27, 0x8f, 0x2c, 0x3d, 0xf3, 0xd3, 0xb6, 0xbb,
  0x54, 0x0b, 0x4b, 0x3d, 0xa6, 0x46, 0x31, 0xbd, 0x8a, 0x4d, 0x6c, 0x3d,
  0x3a, 0x60, 0xa8, 0xbc, 0xd9, 0x27, 0x21, 0x3e, 0x04, 0x65, 0xd6, 0xbd,
  0x3e, 0xe2, 0xa2, 0x3d, 0xd6, 0x28, 0x8e, 0x3d, 0x11, 0x82, 0xa9, 0x3c,
  0xde, 0xf7, 0xc7, 0xbc, 0x3d, 0x54, 0x34, 0x3d, 0x48, 0xda, 0x0b, 0x3e,
  0xee, 0x35, 0xed, 0x3c, 0x3c, 0xb4, 0xad, 0x3d, 0xd2, 0x3f, 0x84, 0xbd,
  0x08, 0x64, 0x24, 0x3e, 0xd4, 0x0f, 0xcd, 0x3d, 0xdd, 0x02, 0x0a, 0xbe,
  0x3e, 0x2b, 0x9d, 0xbc, 0x76, 0x11, 0xcd, 0xbd, 0x7f, 0xc8, 0x46, 0x3d,
  0x6e, 0xda, 0x3b, 0x3e, 0x26, 0xcb, 0xb2, 0x3b, 0xab, 0x4f, 0xbf, 0x3d,
  0xf4, 0xaa, 0x9a, 0x3c, 0x63, 0x90, 0xee, 0x3d, 0x7d, 0xd5, 0x2e, 0x3e,
  0xef, 0xb1, 0xc9, 0x3d, 0x75, 0xc8, 0x09, 0x3d, 0xbe, 0x8e, 0xa4, 0xbd,
  0x4b, 0xfe, 0xa0, 0x3d, 0x23, 0x00, 0x99, 0xba, 0x56, 0xdc, 0x00, 0x3e,
  0x52, 0xf5, 0x20, 0x3e, 0x05, 0x8e, 0x7d, 0x3e, 0x0a, 0x1e, 0x1a, 0xbe,
  0x74, 0xd5, 0xaa, 0x3d, 0x64, 0x87, 0x03, 0x3e, 0x0e, 0x83, 0xf2, 0x3a,
  0x73, 0x2a, 0xbb, 0x3d, 0xa5, 0xd1, 0xdc, 0xbc, 0xe1, 0x3a, 0x51, 0x3d,
  0x5b, 0xb5, 0x9b, 0xbd, 0x15, 0x4d, 0x31, 0x3e, 0x3e, 0x2c, 0xa1, 0xbc,
  0x4b, 0xa2, 0x16, 0x3b, 0x27, 0x0d, 0x3d, 0x3d, 0x8b, 0x72, 0x95, 0xbd,
  0xc6, 0x20, 0x3c, 0x3d, 0x01, 0xe6, 0x5d, 0x3e, 0xbf, 0x7c, 0x5c, 0xbc,
  0xda, 0x3f, 0x55, 0xbd, 0x8a, 0xea, 0xb4, 0x3d, 0x00, 0xc3, 0x58, 0xbc,
  0x8e, 0xe0, 0x19, 0x3d, 0x37, 0x7e, 0x00, 0x3e, 0xd0, 0x08, 0xac, 0x3d,
  0x81, 0x84, 0xc2, 0x3d, 0x59, 0xf3, 0xea, 0x3d, 0x32, 0xdc, 0x0b, 0xbd,
  0xdd, 0xc5, 0x29, 0x3d, 0x31, 0xa2, 0x19, 0x3d, 0x30, 0xa3, 0xe0, 0x3b,
  0xe7, 0x27, 0x05, 0x3d, 0x62, 0x10, 0xb3, 0x3d, 0x3f, 0x2b, 0x22, 0x3e,
  0xbb, 0xd7, 0x8b, 0x3d, 0xff, 0xa2, 0x0c, 0x3e, 0x46, 0x5d, 0x36, 0x3e,
  0xb8, 0x29, 0x6f, 0x3e, 0x96, 0xa4, 0x6f, 0x3e, 0xa9, 0x65, 0x01, 0x3e,
  0x97, 0xec, 0xa0, 0x3d, 0x0f, 0xcd, 0xd2, 0x3d, 0xbe, 0xbb, 0x17, 0x3e,
  0x13, 0x05, 0x6c, 0x3e, 0x70, 0xc1, 0x21, 0x3d, 0xa3, 0x18, 0x00, 0xbe,
  0xe3, 0x01, 0x0d, 0x3e, 0x08, 0x32, 0x0b, 0xbd, 0x9c, 0xe3, 0xf3, 0x3a,
  0xd2, 0x83, 0xad, 0xbd, 0xae, 0x67, 0x57, 0x3e, 0xc8, 0x77, 0x1e, 0x3e,
  0xa4, 0xf6, 0x48, 0xbd, 0x49, 0xd6, 0xd7, 0xbc, 0x86, 0xcf, 0xb6, 0x3d,
  0x1a, 0xe5, 0x3e, 0xbe, 0xee, 0x37, 0x64, 0x3e, 0xeb, 0xd9, 0xfb, 0xbd,
  0x60, 0xbe, 0x68, 0x3c, 0xe1, 0xd5, 0xdf, 0x3c, 0x07, 0x51, 0x9e, 0xbd,
  0x4d, 0xaa, 0x0e, 0xbe, 0x85, 0xab, 0xb9, 0x3d, 0x22, 0xc6, 0x34, 0xbd,
  0x86, 0x4a, 0xc3, 0xbd, 0x12, 0xa4, 0x16, 0x3d, 0xa4, 0xec, 0xc5, 0xbd,
  0xde, 0x10, 0x3d, 0x3d, 0x3b, 0x4b, 0x3f, 0x3e, 0xc6, 0xe8, 0x01, 0xbe,
  0xea, 0x8a, 0xb3, 0x3d, 0x19, 0x9c, 0xe6, 0x3d, 0x38, 0xc1, 0x61, 0x3e,
  0x9a, 0x30, 0x43, 0x3e, 0x6d, 0x91, 0xc7, 0x3d, 0x1a, 0x01, 0xb1, 0x3d,
  0xa6, 0xbe, 0xf8, 0x3d, 0x19, 0xf4, 0xcf, 0x3c, 0x0f, 0x57, 0x6b, 0xbc,
  0xa3, 0x0a, 0xd4, 0xbd, 0x3b, 0x6f, 0x85, 0xbd, 0xef, 0xf6, 0x1a, 0x3e,
  0x20, 0x64, 0x86, 0x3c, 0xdc, 0x84, 0x08, 0xbe, 0x55, 0x17, 0xcc, 0x3d,
  0x11, 0x74, 0x49, 0xbe, 0x2d, 0x75, 0xe3, 0x3c, 0xee, 0x77, 0xed, 0x3d,
  0xfa, 0xa3, 0x39, 0xbd, 0xc1, 0xfa, 0x20, 0xbc, 0x1a, 0x16, 0xb9, 0x3c,
  0xbf, 0xf3, 0x0a, 0xbe, 0xf9, 0xe7, 0xb6, 0x3d, 0x8c, 0xc7, 0xb2, 0x3c,
  0xd3, 0x4b, 0x29, 0xbe, 0x25, 0xe3, 0xb2, 0x3b, 0x9b, 0xae, 0x36, 0xbe,
  0xf9, 0xb2, 0xce, 0xbd, 0x1c, 0x21, 0x3e, 0xbe, 0x88, 0x37, 0x9e, 0xbd,
  0xe0, 0xdf, 0xe6, 0xbd, 0xde, 0x9f, 0xb2, 0x3d, 0xfb, 0x3d, 0xcd, 0xbd,
  0x18, 0x79, 0xb5, 0x3d, 0x71, 0x9f, 0x63, 0xbe, 0x9b, 0x3e, 0xb1, 0xbc,
  0x1e, 0xe9, 0x19, 0xbe, 0xfc, 0x50, 0xbb, 0xbc, 0x3e, 0x38, 0xb9, 0xbd,
  0x9e, 0xef, 0xab, 0xbd, 0xc5, 0xa9, 0x57, 0xbe, 0xca, 0x3b, 0x83, 0xbd,
  0x05, 0xd8, 0x23, 0x3e, 0x6b, 0x10, 0x9b, 0x3d, 0x6c, 0x29, 0x09, 0x3e,
  0xeb, 0x02, 0xbd, 0xbc, 0xff, 0x9f, 0xef, 0xbd, 0x97, 0x79, 0x3a, 0xbd,
  0x7e, 0x12, 0x12, 0x3e, 0x9b, 0x93, 0xbd, 0xbd, 0x21, 0x51, 0xc1, 0x3e,
  0x9e, 0x15, 0x57, 0xbe, 0x4a, 0xa6, 0x27, 0x3e, 0x3f, 0x11, 0xa9, 0xbd,
  0x64, 0x6b, 0xdf, 0x3c, 0xfd, 0x80, 0x42, 0xbe, 0x69, 0x3a, 0x25, 0x3d,
  0xbd, 0xbe, 0x93, 0xbd, 0xa0, 0xd7, 0x47, 0xbc, 0x3b, 0x2f, 0xfd, 0xbc,
  0x90, 0xdc, 0x0b, 0x3d, 0x87, 0xde, 0x86, 0xbe, 0x57, 0x83, 0x27, 0xbe,
  0x2f, 0xf2, 0x12, 0x3e, 0x17, 0x0b, 0x1d, 0x3e, 0x9f, 0xbb, 0xdc, 0xbd,
  0x6c, 0x3b, 0x3a, 0x3d, 0x7e, 0x2f, 0xd6, 0x3c, 0x6a, 0xe0, 0x9e, 0xbe,
  0xce, 0xed, 0xb3, 0x3d, 0xa8, 0xaa, 0x41, 0xbe, 0xfe, 0x3b, 0xe4, 0xbd,
  0x18, 0x64, 0x2d, 0x3e, 0x6d, 0x0e, 0x99, 0x3d, 0x19, 0x16, 0x1f, 0xbd,
  0x56, 0x7f, 0xba, 0x3d, 0xa1, 0xcb, 0x71, 0xbe, 0x22, 0xcb, 0x04, 0xbe,
  0x88, 0x5d, 0x02, 0xbe, 0x99, 0x68, 0x6d, 0x3e, 0xb0, 0x01, 0x24, 0xbd,
  0xb9, 0x5a, 0x95, 0xbd, 0x01, 0x04, 0x2e, 0xbd, 0x11, 0xe0, 0x55, 0xbd,
  0xe9, 0x8c, 0xd7, 0x3d, 0xab, 0x50, 0xdd, 0x3d, 0x36, 0x33, 0x36, 0x3e,
  0x4f, 0x42, 0x44, 0xbd, 0x20, 0x93, 0x3a, 0x3c, 0x06, 0xe9, 0xe8, 0x3d,
  0x74, 0x46, 0xef, 0xbc, 0x3d, 0x53, 0x2b, 0x3d, 0xd3, 0x17, 0x58, 0x3e,
  0xa4, 0xa9, 0xfc, 0x3c, 0x80, 0xad, 0x88, 0xbd, 0x1b, 0x2f, 0xb7, 0x3d,
  0x51, 0xc2, 0x54, 0x3d, 0xd1, 0x38, 0xa8, 0x3d, 0x41, 0xb8, 0x5b, 0xbb,
  0xba, 0xe9, 0x03, 0xbc, 0x09, 0x0c, 0xac, 0xbd, 0x95, 0x42, 0xbe, 0xbd,
  0x32, 0xad, 0xf3, 0x3d, 0xa1, 0x12, 0x41, 0xbb, 0x54, 0x62, 0x5e, 0xbe,
  0x20, 0x4a, 0x6f, 0x3d, 0xb4, 0x5b, 0xfe, 0xbd, 0x06, 0x25, 0x37, 0xbd,
  0x62, 0xa4, 0x00, 0xbe, 0x01, 0xbe, 0xd1, 0x3c, 0x90, 0xd1, 0x57, 0xbd,
  0xbe, 0xd5, 0x81, 0x3d, 0xe2, 0x64, 0x14, 0xbc, 0x5c, 0x85, 0x7a, 0xbd,
  0xce, 0x3b, 0xfa, 0x3d, 0x62, 0x98, 0x75, 0x3e, 0xae, 0x0c, 0xa7, 0xbc,
  0x66, 0x78, 0x91, 0xbd, 0x64, 0xe9, 0xe4, 0x3c, 0x11, 0x01, 0xa7, 0xbd,
  0x3a, 0xaf, 0x03, 0xbe, 0x8c, 0xf4, 0xc6, 0x3d, 0x2b, 0xab, 0x26, 0xbd,
  0xc4, 0x23, 0xa0, 0xbd, 0x92, 0x0b, 0x19, 0x3d, 0xe8, 0xd7, 0x48, 0xbd,
  0xd8, 0x1f, 0xaf, 0xbd, 0x6c, 0xe4, 0xa0, 0xbb, 0x57, 0xf3, 0x82, 0xbd,
  0x4a, 0x72, 0xbd, 0xbc, 0xa5, 0xc5, 0x1a, 0x3b, 0xe6, 0x27, 0xcd, 0xbd,
  0xa0, 0x2e, 0xfe, 0xbd, 0x03, 0x27, 0x05, 0x3e, 0x93, 0x68, 0x83, 0xbd,
  0x96, 0x4a, 0x52, 0xbd, 0xdb, 0x8a, 0x07, 0xbe, 0x9c, 0x2c, 0x98, 0xbd,
  0x15, 0x31, 0x1b, 0x3e, 0x0f, 0xbb, 0x12, 0x3d, 0x11, 0x5b, 0xb3, 0xbd,
  0x7b, 0x09, 0x0f, 0x3c, 0x26, 0xe6, 0xa1, 0xbd, 0xbd, 0xe3, 0x32, 0x3d,
  0xa5, 0xaf, 0xcf, 0x3d, 0xa6, 0x5b, 0xcd, 0x39, 0xee, 0xee, 0x35, 0x3d,
  0x26, 0xef, 0xe1, 0xbd, 0x2a, 0x41, 0x1a, 0xbd, 0xa0, 0x81, 0xae, 0x3d,
  0xa9, 0x17, 0x7b, 0xbb, 0x54, 0xac, 0xcc, 0x3d, 0x43, 0x7d, 0xfd, 0xbd,
  0xa3, 0xa6, 0xc8, 0x3c, 0x14, 0xae, 0xe3, 0xbd, 0x3c, 0xa5, 0x47, 0xbd,
  0x0e, 0x16, 0x1f, 0x3e, 0xf5, 0x16, 0xeb, 0xbd, 0x09, 0x31, 0xb2, 0x3c,
  0xe7, 0x9c, 0x04, 0xbe, 0xfc, 0xc5, 0x3d, 0x3c, 0x51, 0xa1, 0xc1, 0x3a,
  0x68, 0xc7, 0x94, 0x3c, 0xf9, 0xb1, 0xf9, 0xbc, 0xb3, 0x3d, 0xbc, 0x3d,
  0x63, 0xa4, 0xf2, 0x3a, 0x9e, 0xee, 0x4e, 0xbe, 0x06, 0x1e, 0x17, 0xbe,
  0x82, 0xd8, 0x1e, 0xbe, 0xfd, 0x57, 0x05, 0x3c, 0x19, 0xc9, 0x98, 0x3c,
  0xd8, 0xca, 0xa0, 0xbc, 0x63, 0x26, 0xd6, 0x3b, 0x30, 0x79, 0xa3, 0x3c,
  0x79, 0x95, 0x0b, 0xbd, 0xba, 0xe5, 0xbf, 0xbd, 0x48, 0x8e, 0x7f, 0x3d,
  0x3d, 0xa6, 0xa3, 0x3c, 0x9c, 0xd0, 0x41, 0x3d, 0x18, 0x65, 0xf6, 0x3d,
  0x92, 0xf0, 0x31, 0xbd, 0x55, 0x09, 0xe4, 0x3d, 0xcb, 0x31, 0xad, 0xbc,
  0x29, 0x15, 0x2f, 0xbe, 0x6a, 0xa0, 0xbf, 0xbd, 0xb4, 0x24, 0x22, 0xbd,
  0x76, 0x7d, 0x0b, 0x3e, 0xe3, 0xf5, 0x01, 0x3e, 0x9a, 0x11, 0x3e, 0x3d,
  0xa3, 0x3b, 0x2c, 0x3d, 0x88, 0xbe, 0x60, 0x3d, 0x2a, 0x7c, 0x24, 0xbe,
  0x7d, 0x7e, 0xa6, 0x3d, 0xc3, 0x45, 0x97, 0xbd, 0x18, 0x35, 0x08, 0xbe,
  0x48, 0x5f, 0x0a, 0x3e, 0x90, 0x22, 0x97, 0xbd, 0xc9, 0x01, 0x14, 0x3d,
  0x20, 0x39, 0x0a, 0x3c, 0x68, 0x98, 0x9a, 0x3d, 0xac, 0xdf, 0x1c, 0xbd,
  0xa8, 0xe7, 0xc8, 0x3d, 0x9b, 0x99, 0x53, 0xbe, 0xda, 0x1d, 0x19, 0xbd,
  0xf2, 0xb4, 0xf0, 0x3d, 0x28, 0xc9, 0x1b, 0xbd, 0xce, 0x19, 0x1b, 0x3e,
  0x91, 0x0f, 0x29, 0x3e, 0xef, 0xb8, 0x03, 0xbe, 0x14, 0xff, 0x8b, 0xbd,
  0x52, 0x04, 0xb1, 0x3d, 0x65, 0x71, 0x87, 0x3d, 0x0c, 0xf9, 0x58, 0x3d,
  0x1c, 0x58, 0xd9, 0x3c, 0x63, 0x9a, 0xd6, 0xbc, 0xa5, 0x6c, 0x38, 0xbd,
  0x36, 0x07, 0xc4, 0x3d, 0x61, 0xc9, 0x41, 0xbe, 0xc2, 0x4c, 0x46, 0x3b,
  0xf3, 0x96, 0x48, 0x3d, 0x4e, 0x19, 0xee, 0x3c, 0xaa, 0x5e, 0x12, 0x3e,
  0xf9, 0x33, 0x8f, 0x3d, 0x39, 0xdd, 0x36, 0xbe, 0x7f, 0x43, 0xb4, 0xbd,
  0x25, 0x6a, 0x67, 0xbd, 0xf4, 0xd8, 0xbd, 0x3c, 0x49, 0xf4, 0x88, 0xbd,
  0xf9, 0x00, 0x33, 0x3c, 0xbd, 0xdb, 0x3a, 0xbd, 0x4f, 0xb8, 0xf3, 0xbd,
  0x80, 0xe6, 0x2e, 0x3e, 0x86, 0xdc, 0x3f, 0xbe, 0x9a, 0xa7, 0x59, 0x3d,
  0x8f, 0xdb, 0xe0, 0x3c, 0x4c, 0x8c, 0x18, 0xbb, 0xc6, 0x6f, 0x5b, 0x3d,
  0xbc, 0x77, 0x91, 0x3e, 0xcc, 0x75, 0x65, 0xbe, 0xfa, 0xa1, 0xc4, 0x3d,
  0x3f, 0x28, 0xf6, 0xb9, 0x18, 0xd5, 0x2b, 0x3e, 0x7d, 0x29, 0x2e, 0x3e,
  0xc8, 0xd0, 0xdb, 0x3d, 0xad, 0xfd, 0x0b, 0x3e, 0x8e, 0xfc, 0x17, 0xbe,
  0x90, 0x86, 0x00, 0xbc, 0x30, 0xd0, 0x04, 0x3e, 0x81, 0x3b, 0xf0, 0x3d,
  0xa6, 0xcc, 0xf5, 0xbd, 0xf1, 0x5b, 0x3d, 0x3e, 0x25, 0xe5, 0xa9, 0x3d,
  0xa0, 0x32, 0xa6, 0x3d, 0x97, 0xbd, 0x27, 0x3c, 0x90, 0xfa, 0x0f, 0x3e,
  0xc5, 0xd5, 0x63, 0xbd, 0xa0, 0x15, 0x29, 0x3d, 0x2f, 0x5d, 0x2c, 0x3d,
  0x30, 0xf2, 0xdd, 0x3d, 0x95, 0x37, 0x32, 0xbe, 0xb7, 0xce, 0xb3, 0xbd,
  0x78, 0xd0, 0x3a, 0x3e, 0x83, 0xa5, 0x1b, 0xbd, 0x44, 0xd5, 0x77, 0xbd,
  0x24, 0x28, 0xc3, 0x39, 0x9c, 0x94, 0x06, 0x3e, 0x6e, 0x23, 0xe4, 0xbd,
  0x9e, 0x0b, 0x85, 0x3d, 0xb4, 0x0d, 0x69, 0x3c, 0x4d, 0x07, 0x5a, 0xbc,
  0x11, 0x17, 0x44, 0xbd, 0x04, 0xbd, 0x17, 0x3e, 0x39, 0xfe, 0x02, 0xbd,
  0xb6, 0x4c, 0x29, 0x3e, 0xaa, 0x2f, 0x11, 0xbe, 0xd0, 0x61, 0xd9, 0xbc,
  0x20, 0xc9, 0xc0, 0xbb, 0x13, 0xd5, 0x2e, 0x3e, 0xb4, 0x4f, 0xcf, 0xbc,
  0xf2, 0x55, 0xca, 0xbc, 0x78, 0x8a, 0xfa, 0x3c, 0x01, 0x32, 0xdb, 0x3d,
  0x35, 0x8c, 0x9d, 0xbd, 0xc0, 0x82, 0x0d, 0x3e, 0xcf, 0x93, 0x9f, 0x3e,
  0xae, 0x4a, 0xd5, 0xbd, 0xab, 0xd1, 0xc3, 0x3d, 0x67, 0x90, 0xac, 0xbd,
  0xd2, 0x50, 0x21, 0xbe, 0x3f, 0x39, 0xab, 0xbc, 0x6c, 0x42, 0x46, 0x3d,
  0xe0, 0xe9, 0xaf, 0xbd, 0xa9, 0xc0, 0x82, 0x3e, 0xdc, 0x4d, 0xd5, 0x3d,
  0x94, 0x77, 0x8b, 0x3d, 0x33, 0x87, 0x52, 0x3d, 0x7b, 0x53, 0x36, 0xbd,
  0x64, 0x0d, 0x0d, 0x38, 0xc7, 0xc2, 0x8c, 0x3d, 0x38, 0xd9, 0xa4, 0x3d,
  0x29, 0xd8, 0xf7, 0xbb, 0xa3, 0x51, 0xc1, 0xbd, 0x8a, 0xa5, 0x6b, 0x3c,
  0x9f, 0x90, 0x8c, 0x3d, 0x89, 0x26, 0xca, 0x3d, 0xbf, 0x5a, 0x47, 0x3c,
  0xa0, 0xf5, 0xd1, 0x3d, 0x9a, 0xa6, 0xf0, 0x3d, 0x6c, 0xdc, 0x14, 0x3b,
  0x38, 0x00, 0xc9, 0x3d, 0x5b, 0x76, 0x31, 0x3d, 0x59, 0x1f, 0x84, 0x3d,
  0xcd, 0x81, 0x94, 0x3d, 0xa6, 0x43, 0x19, 0x3e, 0x75, 0xbe, 0xbb, 0x3d,
  0x19, 0xa1, 0x0a, 0x3e, 0xf6, 0xd2, 0x96, 0xbd, 0xb2, 0x5d, 0x51, 0x3d,
  0x14, 0x5c, 0x8d, 0xbd, 0x39, 0xb3, 0xe8, 0xbc, 0xd6, 0xd8, 0x36, 0x3e,
  0x43, 0x97, 0x09, 0x3e, 0x41, 0xd8, 0xdf, 0x3d, 0x8a, 0x40, 0x0a, 0x3e,
  0xa8, 0x61, 0x9f, 0xbd, 0x76, 0x2b, 0x10, 0xbd, 0xc1, 0xb0, 0x0f, 0x3e,
  0x5c, 0x9f, 0x5b, 0xbd, 0xfd, 0x2b, 0x63, 0x3d, 0xb0, 0x78, 0x89, 0x3d,
  0x9d, 0x66, 0xa3, 0x3c, 0x16, 0xef, 0x8d, 0xbd, 0x35, 0x23, 0xe4, 0xbb,
  0x8a, 0x5f, 0xcb, 0x3d, 0x59, 0x57, 0xd3, 0xbc, 0x5e, 0x82, 0x05, 0xbe,
  0x6d, 0xb4, 0x0c, 0x3e, 0xff, 0x23, 0x44, 0xbc, 0xdd, 0xeb, 0x7a, 0xbb,
  0x94, 0xb4, 0xbc, 0xbd, 0x7a, 0x22, 0x6e, 0xbe, 0x63, 0x50, 0xa5, 0x3b,
  0xf8, 0xd4, 0x39, 0x3d, 0x04, 0x7b, 0x11, 0x3e, 0xd7, 0x9d, 0x20, 0x3e,
  0x38, 0xe3, 0x13, 0xbc, 0x51, 0xed, 0xd4, 0xbd, 0x99, 0x18, 0xc0, 0x3d,
  0xfb, 0x1b, 0xc2, 0xbd, 0x96, 0x21, 0x0e, 0x3e, 0x53, 0x5a, 0x07, 0x3d,
  0x7c, 0xd9, 0x61, 0xbd, 0x96, 0xfc, 0x1d, 0xbc, 0x74, 0xa4, 0x36, 0x3e,
  0xf1, 0x0a, 0x12, 0x3c, 0xc0, 0x98, 0xb4, 0xbd, 0x73, 0x98, 0x14, 0xbc,
  0xc1, 0x00, 0xed, 0x3c, 0x02, 0xd3, 0x28, 0x3c, 0x4a, 0x65, 0xde, 0xbd,
  0x85, 0x27, 0x08, 0x3e, 0xe4, 0x89, 0x0c, 0xbe, 0xc5, 0x06, 0xc1, 0xb9,
  0xde, 0x28, 0xf6, 0xbd, 0x15, 0x6d, 0x31, 0xbe, 0x4d, 0xca, 0xcd, 0x3c,
  0xf6, 0x3c, 0xf5, 0xbd, 0x85, 0x61, 0xba, 0xbd, 0x19, 0x40, 0xb1, 0x3d,
  0x84, 0xa3, 0xc7, 0xbc, 0xb1, 0x51, 0x3e, 0xbe, 0x01, 0xc0, 0x9d, 0xbc,
  0x04, 0x61, 0x72, 0x3d, 0xe6, 0xd3, 0xc6, 0x3c, 0x38, 0x18, 0x66, 0xbd,
  0x4f, 0xca, 0x50, 0xbd, 0x1d, 0x89, 0xf0, 0xbd, 0x8f, 0x12, 0xf8, 0xbd,
  0x28, 0xe2, 0x92, 0x3d, 0x53, 0xe3, 0x1b, 0x3d, 0x7c, 0x88, 0x25, 0xbc,
  0x21, 0xec, 0x0b, 0x3b, 0x8c, 0x59, 0x3d, 0xbe, 0x98, 0x5a, 0x44, 0x3d,
  0xe0, 0xf1, 0xde, 0xbc, 0xfc, 0xae, 0x0e, 0xbd, 0x89, 0xee, 0xe5, 0x3c,
  0x52, 0xd3, 0x26, 0x3e, 0xc7, 0xa6, 0x97, 0xbc, 0x81, 0xc3, 0x01, 0xbe,
  0x48, 0x46, 0x66, 0x3d, 0x38, 0x8e, 0x45, 0x3d, 0x34, 0x5b, 0xe3, 0xbd,
  0x92, 0xae, 0x0d, 0xbd, 0xa5, 0xb3, 0xd1, 0xbd, 0xad, 0xb0, 0xac, 0xbd,
  0x8e, 0xaf, 0x08, 0xbe, 0x78, 0x23, 0xfb, 0xbd, 0xed, 0x75, 0xfa, 0xbc,
  0x0b, 0xef, 0x00, 0xbe, 0xad, 0x32, 0x07, 0xbe, 0x4e, 0xeb, 0x3f, 0xbe,
  0xb6, 0x63, 0xe1, 0xbc, 0xbd, 0xc3, 0xcf, 0xbd, 0xd3, 0xdf, 0x9a, 0x3d,
  0x4f, 0x9e, 0xab, 0x3d, 0xc1, 0xbf, 0x2e, 0x3d, 0x5c, 0xc2, 0x76, 0xbd,
  0xc1, 0x4a, 0x50, 0xbd, 0x26, 0x83, 0xad, 0xbb, 0x89, 0xb7, 0x01, 0xbe,
  0xf4, 0x6d, 0x2e, 0x3e, 0xed, 0xd2, 0x46, 0xbe, 0x17, 0xdf, 0x73, 0x3d,
  0xa2, 0x0a, 0x01, 0x3e, 0x0d, 0xbc, 0x53, 0x3c, 0x7f, 0x10, 0xfa, 0x3c,
  0x1f, 0x41, 0x2c, 0x3e, 0x8d, 0x22, 0x1a, 0xbd, 0x96, 0x18, 0xcb, 0x3d,
  0xcc, 0xd0, 0xb7, 0xbd, 0x1c, 0x09, 0x0b, 0x3c, 0xf5, 0x77, 0x6c, 0x3d,
  0x07, 0x7f, 0x8f, 0x3d, 0x08, 0x07, 0x75, 0xbd, 0x4c, 0x55, 0x36, 0xbd,
  0x82, 0xaf, 0xdb, 0x3d, 0x0f, 0xb4, 0x93, 0x3c, 0x32, 0x4a, 0x4d, 0x3e,
  0x5c, 0x89, 0x93, 0x3d, 0xa7, 0xd4, 0x94, 0x3d, 0x29, 0xf5, 0x37, 0x3d,
  0xe8, 0xae, 0xbe, 0x3c, 0xa7, 0x5c, 0xe9, 0x3b, 0x07, 0xee, 0x13, 0xbe,
  0x95, 0x21, 0x30, 0x3c, 0x72, 0x95, 0x22, 0xbd, 0x54, 0xac, 0xee, 0x3d,
  0x3a, 0x9b, 0x75, 0xbd, 0xa0, 0xcc, 0xf1, 0xbd, 0xcf, 0x59, 0x4b, 0x3d,
  0xbd, 0x14, 0x3c, 0x3e, 0xff, 0x3c, 0xa9, 0x3d, 0x60, 0xc2, 0xd2, 0x3c,
  0x0a, 0x9e, 0xcf, 0xbd, 0xbe, 0xea, 0xa9, 0xbd, 0x83, 0x19, 0x6f, 0xbe,
  0x68, 0x5e, 0x93, 0x3d, 0xdd, 0xdc, 0x26, 0xbd, 0x50, 0xe8, 0xd8, 0xbd,
  0x06, 0x89, 0x0d, 0xbe, 0xaa, 0xd7, 0x7e, 0x3c, 0x22, 0x53, 0x99, 0xbd,
  0xfb, 0x32, 0x1c, 0x3e, 0xaa, 0x3f, 0xfc, 0xbd, 0xda, 0x34, 0x9c, 0x3d,
  0xee, 0x18, 0xd1, 0x3c, 0x8c, 0x39, 0x6c, 0x3e, 0x90, 0xc1, 0x2d, 0x3e,
  0x6f, 0x87, 0x81, 0x3e, 0x77, 0x10, 0x82, 0x3e, 0x12, 0xf7, 0xc9, 0x3d,
  0x30, 0x39, 0xd1, 0xbc, 0x99, 0xd9, 0x87, 0x3e, 0xa1, 0x42, 0x57, 0x3e,
  0xcd, 0x5d, 0x9e, 0xbd, 0xc4, 0x18, 0x62, 0x3e, 0x7d, 0x8d, 0x64, 0xbd,
  0x54, 0xb6, 0xaf, 0x3d, 0x3d, 0xb0, 0x28, 0xbe, 0x02, 0x83, 0x0c, 0xbd,
  0x8b, 0xd0, 0x9f, 0x3d, 0x5d, 0x3e, 0x4c, 0x3e, 0x29, 0x90, 0x5e, 0x3c,
  0xc8, 0xef, 0x5b, 0x3d, 0x8d, 0x5f, 0x8c, 0xbe, 0x42, 0xa8, 0x73, 0xbe,
  0x48, 0xbb, 0x63, 0x3e, 0x38, 0x6e, 0x45, 0x3d, 0x17, 0x1e, 0x2a, 0x3c,
  0xa6, 0x0b, 0xc8, 0x3c, 0x5a, 0xfa, 0xe8, 0x3c, 0x3a, 0xb1, 0x00, 0xbe,
  0x95, 0xdd, 0x74, 0x3e, 0xb9, 0x43, 0x0e, 0xbe, 0x80, 0x83, 0xaf, 0xbd,
  0x52, 0x48, 0x81, 0x3d, 0x9b, 0xef, 0x9b, 0x3e, 0x45, 0xcd, 0x17, 0xbd,
  0x2c, 0x17, 0xda, 0x3d, 0x52, 0xda, 0x11, 0xbe, 0xa2, 0xa7, 0xba, 0xbd,
  0x90, 0xb3, 0x46, 0x3c, 0x8d, 0xa5, 0x67, 0x3e, 0xc3, 0xa4, 0x6e, 0x3e,
  0x87, 0xf1, 0x45, 0xbd, 0x83, 0x01, 0x06, 0xbd, 0x4d, 0x37, 0x87, 0x3d,
  0x00, 0xe0, 0x90, 0x3d, 0x52, 0x62, 0x3f, 0x3e, 0xb5, 0xf1, 0x58, 0x3e,
  0xad, 0xae, 0x61, 0x3d, 0x3a, 0x5e, 0x6a, 0x3e, 0xf8, 0x6e, 0xa1, 0x3c,
  0xb6, 0xd4, 0xc2, 0x3d, 0xfd, 0xb0, 0x94, 0xbc, 0x21, 0x42, 0xbd, 0x3d,
  0x6c, 0xa4, 0x23, 0xbe, 0xc9, 0x14, 0x47, 0x3e, 0xd1, 0xd0, 0xf2, 0xbd,
  0x00, 0x7f, 0x91, 0x3a, 0xf2, 0xd0, 0x91, 0xbe, 0xee, 0x7b, 0x4a, 0x3d,
  0x6d, 0xd9, 0x03, 0x3e, 0xbb, 0xc7, 0x9e, 0x3d, 0x6d, 0x70, 0xc1, 0xbc,
  0x5d, 0x9e, 0xc4, 0xbd, 0x59, 0xbb, 0x11, 0x3e, 0x10, 0x53, 0x72, 0xbc,
  0x33, 0x08, 0x3b, 0x3e, 0xcb, 0x32, 0x2d, 0x3c, 0x25, 0x94, 0x1a, 0x3e,
  0x87, 0x33, 0x3b, 0xbc, 0xe8, 0xe6, 0x45, 0x3e, 0xd2, 0xf5, 0xf1, 0xbd,
  0xdb, 0x71, 0x5a, 0xbc, 0x9c, 0x22, 0xf7, 0xbc, 0xd3, 0xe8, 0x17, 0xbe,
  0x00, 0x95, 0xf8, 0x3c, 0xfd, 0xdc, 0x90, 0xbd, 0x0e, 0x07, 0xb4, 0x3d,
  0xe9, 0x71, 0xad, 0xbd, 0x32, 0x78, 0x10, 0x3e, 0x80, 0x6d, 0xbb, 0xbd,
  0x18, 0x6b, 0xc9, 0x3c, 0x5a, 0x79, 0xd3, 0x3d, 0x0a, 0xed, 0x86, 0x3e,
  0xa9, 0xac, 0xd7, 0x3c, 0x52, 0x5b, 0x24, 0x3e, 0x93, 0xa5, 0x94, 0x3d,
  0xae, 0xda, 0x07, 0xbe, 0xb5, 0x47, 0x32, 0x3d, 0xb5, 0x0d, 0x79, 0x3e,
  0x9d, 0x47, 0x12, 0xbb, 0xb9, 0xe8, 0x8e, 0x3e, 0x57, 0x6a, 0xf1, 0x3d,
  0xa0, 0x73, 0xea, 0x3b, 0xa6, 0x61, 0x28, 0xbe, 0x4a, 0x66, 0xc6, 0x3c,
  0xfe, 0xf4, 0x2d, 0xbe, 0xf7, 0x2c, 0xbf, 0xbd, 0xaa, 0x84, 0x68, 0xbd,
  0x08, 0x99, 0xd8, 0x3d, 0xf7, 0xa5, 0x77, 0x3d, 0x4d, 0x6c, 0xe1, 0xbd,
  0x0d, 0x01, 0x0c, 0xbe, 0x15, 0xf9, 0xf4, 0xbc, 0x9a, 0xdb, 0xf6, 0x3d,
  0xdd, 0x0d, 0x05, 0x3e, 0x52, 0x2d, 0xfe, 0x3d, 0x53, 0x05, 0xdf, 0xbb,
  0xc4, 0xd3, 0x02, 0xbd, 0x60, 0x3f, 0x33, 0xbd, 0xb8, 0xf5, 0x03, 0x3d,
  0xd6, 0xdd, 0x05, 0x3e, 0x57, 0xbe, 0x05, 0x3e, 0x2c, 0x6f, 0x2f, 0xbd,
  0x5f, 0xa1, 0xae, 0x3a, 0x5a, 0xd1, 0xf5, 0xbd, 0x52, 0xd0, 0xf4, 0xbd,
  0xb0, 0xb9, 0x09, 0x3c, 0x27, 0x03, 0xa9, 0x3d, 0x45, 0x6c, 0xce, 0x3d,
  0xed, 0x19, 0x45, 0xbd, 0xd0, 0x43, 0xdf, 0x3d, 0xe7, 0x73, 0xfc, 0xbc,
  0x70, 0xd4, 0x4f, 0xbc, 0x84, 0x24, 0x7c, 0xbd, 0x0f, 0x57, 0x03, 0x3c,
  0x30, 0xbb, 0x2f, 0xbe, 0xb5, 0x38, 0xfb, 0xbd, 0xba, 0xdc, 0x08, 0xbd,
  0xa8, 0x75, 0xdd, 0xbb, 0xa8, 0x1c, 0x14, 0xbe, 0xa6, 0xc5, 0xe9, 0xbd,
  0x88, 0xa5, 0xae, 0xbc, 0x80, 0xaf, 0xbd, 0xbd, 0x5f, 0x35, 0x80, 0xbd,
  0x93, 0x2f, 0x5a, 0x3d, 0x04, 0x13, 0xa5, 0xbd, 0xd2, 0x9d, 0x87, 0x3d,
  0x9c, 0x43, 0x39, 0xbb, 0xb1, 0xd2, 0x0d, 0x3e, 0x60, 0x8a, 0xe9, 0xbd,
  0x68, 0xef, 0x85, 0xbd, 0xc9, 0xfd, 0xbb, 0xbd, 0x78, 0x28, 0xe6, 0x3c,
  0x98, 0x9a, 0x9b, 0xbd, 0xed, 0xf5, 0xde, 0x3c, 0x67, 0x15, 0x0b, 0xbd,
  0x93, 0xfd, 0x9e, 0xbd, 0xd0, 0x01, 0x25, 0xbe, 0x9b, 0xc3, 0x9c, 0xbc,
  0x3b, 0x49, 0x00, 0xbe, 0xe6, 0x65, 0xd4, 0x3d, 0xbc, 0xb4, 0xe0, 0x3d,
  0x14, 0x12, 0x6e, 0x3d, 0x65, 0x04, 0x67, 0x3c, 0x6b, 0x61, 0xf2, 0x3c,
  0xed, 0x78, 0x8d, 0xbd, 0x5b, 0x16, 0x06, 0xbe, 0x88, 0x70, 0x81, 0x3d,
  0x58, 0x31, 0xdc, 0xbc, 0x00, 0x11, 0xe3, 0xbc, 0xe2, 0xea, 0xf9, 0xbd,
  0x60, 0xb6, 0x9c, 0x3d, 0xbb, 0x96, 0x05, 0x3e, 0x9a, 0x5d, 0x08, 0xbd,
  0x33, 0x70, 0x6b, 0xbd, 0xc3, 0xda, 0xa6, 0xbb, 0x5b, 0x69, 0x0a, 0xbe,
  0x51, 0x8c, 0x45, 0x3d, 0xb0, 0xc0, 0x11, 0xbe, 0x52, 0xc8, 0xa3, 0x3d,
  0x44, 0xf2, 0x4a, 0x3d, 0x95, 0x4f, 0xfa, 0x3d, 0xe5, 0xd6, 0xac, 0x3b,
  0x1d, 0x01, 0x04, 0xbe, 0x38, 0x76, 0xea, 0xbc, 0x35, 0x58, 0x90, 0xbc,
  0x3c, 0x43, 0x51, 0xbd, 0xf1, 0xb3, 0xf1, 0xbd, 0xcd, 0x4c, 0x1c, 0xbe,
  0xdf, 0x64, 0x88, 0x3d, 0x35, 0xb9, 0x40, 0x3d, 0xb0, 0xf5, 0xe8, 0xbd,
  0x8a, 0x61, 0xda, 0x3d, 0x7f, 0xb4, 0xf8, 0x3c, 0xfa, 0xb0, 0x11, 0x3d,
  0x6b, 0xaf, 0xfa, 0xbd, 0xc8, 0xd7, 0x06, 0xbe, 0xe0, 0x3a, 0xdf, 0xbc,
  0x10, 0xa0, 0x0f, 0x3c, 0xa4, 0xfa, 0xf7, 0x3d, 0x4e, 0x8e, 0x0b, 0x3e,
  0x6a, 0x4d, 0xbe, 0x3c, 0x6d, 0xb6, 0xfb, 0xbd, 0x84, 0x71, 0x68, 0xbd,
  0xe8, 0x43, 0x79, 0x3d, 0x7f, 0x9f, 0xc6, 0xbc, 0x8f, 0x51, 0xce, 0x3c,
  0x33, 0xda, 0x38, 0xbc, 0x17, 0x7e, 0x57, 0xbd, 0x9f, 0xc7, 0xfd, 0xbd,
  0x70, 0x7f, 0xb7, 0x3c, 0xf5, 0x81, 0x07, 0x3e, 0x62, 0x41, 0xf1, 0xbd,
  0x39, 0xee, 0x30, 0xbd, 0x0b, 0x55, 0xe2, 0x3d, 0xae, 0x3e, 0x8b, 0xbd,
  0xf4, 0x55, 0xfa, 0xbd, 0x81, 0x28, 0x07, 0x3d, 0x7c, 0x67, 0x3a, 0xbe,
  0xc9, 0xad, 0x0d, 0xbe, 0xf7, 0xbe, 0x95, 0xbd, 0xff, 0x3a, 0x26, 0xbd,
  0xc2, 0xe6, 0xb7, 0x3d, 0xd0, 0x37, 0x04, 0xbe, 0xc4, 0x7c, 0xb8, 0xbd,
  0x15, 0x04, 0x6c, 0x3d, 0x09, 0x20, 0xd4, 0x3d, 0x60, 0x83, 0x2d, 0xbc,
  0x7d, 0xb7, 0xb9, 0xbd, 0xc5, 0x04, 0x9f, 0x3d, 0x16, 0xf1, 0x04, 0xbe,
  0xa0, 0x5d, 0xb0, 0x3d, 0xa8, 0xab, 0xee, 0xbd, 0x80, 0x33, 0xb6, 0xba,
  0x60, 0x86, 0xfb, 0x3b, 0x69, 0xc7, 0xcc, 0x3d, 0x37, 0xca, 0x0c, 0xbe,
  0x3e, 0xce, 0xb7, 0xbd, 0x72, 0xa9, 0xfb, 0xbd, 0xa6, 0xb6, 0xe6, 0x3d,
  0xf8, 0xdf, 0x5e, 0x3d, 0xf8, 0xc9, 0xc9, 0x3c, 0x03, 0x8a, 0x21, 0xbe,
  0xe0, 0xb6, 0xbe, 0xbc, 0xbe, 0x04, 0xa6, 0xbc, 0x69, 0x2d, 0x20, 0x3c,
  0x89, 0xc3, 0x24, 0xbe, 0x92, 0xb6, 0x32, 0xbd, 0xbc, 0x10, 0x99, 0xbd,
  0xfd, 0x00, 0xb3, 0xbd, 0x25, 0x10, 0x5a, 0xbd, 0x1b, 0x1d, 0x24, 0x3e,
  0x66, 0x01, 0xed, 0x3d, 0x92, 0x9f, 0x86, 0x3c, 0x21, 0xb2, 0xc6, 0x3d,
  0x93, 0xd7, 0xc9, 0xbd, 0xa1, 0xff, 0xd8, 0xbc, 0x0f, 0x8f, 0x15, 0xbe,
  0xb5, 0x51, 0x0c, 0x3e, 0x36, 0x8a, 0x60, 0x3d, 0x5a, 0xc5, 0xd8, 0xbd,
  0x6a, 0x62, 0x9d, 0xbd, 0xb0, 0x68, 0xa2, 0x3d, 0x0a, 0x61, 0x02, 0xbe,
  0x00, 0x2f, 0x2a, 0xbc, 0x4e, 0xd7, 0x02, 0xbc, 0xa7, 0x75, 0x1b, 0xbe,
  0x57, 0xb9, 0x41, 0xbd, 0x78, 0x1a, 0xc9, 0xbb, 0x95, 0x2d, 0x00, 0x3c,
  0xf0, 0xab, 0xae, 0x3c, 0xbc, 0x41, 0x4a, 0x3d, 0xae, 0x03, 0x8a, 0xbd,
  0x7a, 0xec, 0xb3, 0xbc, 0x61, 0x04, 0xd8, 0xbd, 0x34, 0x1d, 0xb9, 0xbd,
  0xd9, 0xd1, 0x07, 0x3e, 0xb2, 0x1c, 0xdb, 0xbd, 0xae, 0x66, 0xe7, 0x3d,
  0xa6, 0x07, 0x9a, 0x3d, 0x1a, 0x27, 0xa2, 0xbd, 0x72, 0x8d, 0x30, 0x3d,
  0x0c, 0x52, 0x3c, 0x3d, 0x27, 0x3b, 0x59, 0x3d, 0xa2, 0x9a, 0x95, 0xbc,
  0xdd, 0x7e, 0x4b, 0x3c, 0xd5, 0xcf, 0x04, 0xbe, 0xd2, 0xf8, 0xed, 0xbd,
  0xc0, 0x72, 0x97, 0xbb, 0x45, 0xba, 0xdf, 0x3d, 0x29, 0x5c, 0x41, 0xbe,
  0xbe, 0x61, 0x25, 0xbe, 0xdd, 0xdc, 0x52, 0xbd, 0x19, 0x2b, 0x17, 0xbd,
  0x9f, 0xae, 0x51, 0xbd, 0x50, 0xc1, 0x31, 0xbe, 0xb2, 0xeb, 0xc0, 0x3d,
  0x71, 0x3c, 0xf8, 0xbd, 0x58, 0xf6, 0xd6, 0x3d, 0x4d, 0xbc, 0x40, 0x3d,
  0x00, 0x7e, 0x9f, 0x39, 0x12, 0x30, 0x55, 0x3c, 0xb3, 0xf6, 0xd2, 0xbd,
  0xb4, 0x6d, 0xf5, 0xbc, 0x71, 0x47, 0x20, 0xbe, 0x26, 0xb3, 0x00, 0x3e,
  0xfe, 0x2f, 0xeb, 0x3d, 0x15, 0xc3, 0x35, 0xbe, 0xd5, 0x02, 0x85, 0xbd,
  0xb7, 0x69, 0xf5, 0x3d, 0xb2, 0x23, 0x18, 0xbd, 0x61, 0xc9, 0xb2, 0x3d,
  0xe8, 0x4f, 0xff, 0xbc, 0xe5, 0x27, 0xfa, 0xbd, 0xd8, 0x4a, 0xa6, 0x3d,
  0x0d, 0x67, 0x7b, 0xbd, 0x53, 0x79, 0x77, 0xbc, 0xdf, 0xa7, 0x0b, 0xbd,
  0x3f, 0x1b, 0xb7, 0xbd, 0xee, 0x8f, 0x15, 0xbb, 0x8f, 0xc2, 0x2c, 0xbd,
  0x67, 0xad, 0x9d, 0x3d, 0x5f, 0x21, 0x24, 0xbd, 0xab, 0x71, 0x5b, 0x3d,
  0xe8, 0x5f, 0x8f, 0x3d, 0x10, 0x40, 0xb0, 0x3b, 0x7e, 0xe8, 0x6e, 0x3d,
  0x12, 0x80, 0xa1, 0x3d, 0x22, 0x9b, 0x53, 0x3b, 0x96, 0xc6, 0x72, 0xbd,
  0xf4, 0x4d, 0xc9, 0xbd, 0x05, 0x06, 0x21, 0x3e, 0x4b, 0x56, 0xa5, 0xbd,
  0x89, 0x7c, 0x42, 0xbd, 0x2f, 0x62, 0xf7, 0x3d, 0x16, 0x8c, 0xc3, 0xbc,
  0x14, 0x0c, 0x2b, 0x3e, 0x4b, 0x38, 0x8e, 0xbc, 0xd9, 0x60, 0xab, 0x3d,
  0x91, 0x7e, 0xf1, 0x3d, 0x72, 0x33, 0x41, 0x3d, 0x90, 0xb2, 0xf7, 0xbd,
  0xf3, 0x47, 0x97, 0xbc, 0xcf, 0x7c, 0x15, 0x3d, 0x5b, 0xf5, 0x34, 0x3e,
  0x78, 0xc9, 0x1a, 0x3e, 0x2b, 0xec, 0xc9, 0x3d, 0xfb, 0x53, 0xd1, 0x3d,
  0x18, 0xc2, 0xe4, 0x3c, 0x58, 0xc3, 0x83, 0x3d, 0x61, 0xae, 0xb8, 0x3d,
  0x52, 0xb7, 0x1b, 0x3d, 0xaf, 0xd8, 0x1a, 0x3e, 0x74, 0xaa, 0x1d, 0xbd,
  0x9d, 0x31, 0xc5, 0x3d, 0xb1, 0xee, 0x34, 0xbe, 0xa2, 0x2f, 0x1f, 0xbe,
  0xd1, 0xc5, 0x56, 0x3d, 0x62, 0x56, 0xb1, 0xbe, 0x1b, 0xea, 0x15, 0x3e,
  0x9e, 0xaa, 0x25, 0xbe, 0x75, 0x89, 0xc0, 0x3d, 0xfe, 0x88, 0xe1, 0xbb,
  0xfe, 0x78, 0xb7, 0x3d, 0xa9, 0x41, 0x47, 0xbe, 0x7f, 0xa5, 0xfa, 0x3d,
  0x71, 0xc2, 0x0b, 0x3e, 0x26, 0xab, 0x78, 0x3d, 0x65, 0x79, 0x94, 0x3d,
  0x43, 0xc1, 0x37, 0x3c, 0xab, 0x50, 0x40, 0x3e, 0xb0, 0x5b, 0x88, 0x3c,
  0x64, 0x10, 0x41, 0x3d, 0x66, 0xb6, 0x04, 0x3e, 0x3a, 0x04, 0xef, 0xbd,
  0x83, 0xfd, 0x16, 0xbd, 0x9c, 0x3d, 0x41, 0x3e, 0x6c, 0xd2, 0x2c, 0x3d,
  0x98, 0xb1, 0x25, 0xbe, 0xc2, 0xe8, 0x66, 0x3b, 0xd0, 0x6c, 0x32, 0x3e,
  0x80, 0xf3, 0x38, 0x37, 0x97, 0x67, 0x6a, 0x3e, 0x2b, 0xbb, 0x87, 0x3d,
  0x30, 0x74, 0x5b, 0xbc, 0xd9, 0xb0, 0x6b, 0xbe, 0x4d, 0xdc, 0xc0, 0x3d,
  0x52, 0xbd, 0xcb, 0xbc, 0xc1, 0x7b, 0x69, 0x3e, 0x24, 0x56, 0xe4, 0xbd,
  0x33, 0x8e, 0x08, 0xbb, 0x1d, 0xcf, 0x8c, 0xbe, 0x9b, 0xe6, 0xfe, 0xbd,
  0x63, 0xcc, 0x48, 0x3e, 0xb3, 0x4a, 0x1e, 0xbe, 0x8c, 0x44, 0xe3, 0x3d,
  0xe5, 0x15, 0x00, 0xbe, 0x06, 0xf7, 0x3a, 0x3d, 0xb3, 0x87, 0x9b, 0xbd,
  0x9e, 0xde, 0x2d, 0x3e, 0x49, 0x48, 0x9c, 0xbd, 0x50, 0x4d, 0x25, 0x3e,
  0x30, 0x03, 0xb6, 0x3d, 0xc7, 0x8e, 0x73, 0x3e, 0x22, 0xe3, 0xa2, 0x3d,
  0x6b, 0x7c, 0xd5, 0xbd, 0xd8, 0x57, 0x36, 0x3e, 0xe0, 0x05, 0x31, 0x3d,
  0x6a, 0xde, 0x3f, 0xbd, 0xfa, 0xe8, 0x8c, 0xbd, 0xa5, 0x31, 0x6f, 0x3d,
  0xcb, 0x14, 0xa7, 0xbd, 0x79, 0xff, 0x31, 0x3e, 0x6a, 0xb7, 0xd3, 0x3d,
  0xa0, 0x0f, 0x41, 0xbd, 0x3f, 0xb9, 0x2d, 0x3d, 0xf1, 0xeb, 0x23, 0x3e,
  0x96, 0x87, 0xe9, 0x3d, 0x29, 0xe9, 0x0a, 0x3e, 0x8d, 0xa4, 0xa2, 0x3d,
  0x38, 0x7b, 0xfb, 0xbc, 0xd2, 0x41, 0x6c, 0x3a, 0xe8, 0x5a, 0xb7, 0x3d,
  0x91, 0xa3, 0x22, 0x3e, 0x6c, 0x6d, 0x1f, 0x3d, 0x30, 0x1b, 0x39, 0xbd,
  0xcc, 0x8d, 0xa9, 0xbd, 0xcc, 0xc9, 0xd7, 0xbc, 0x20, 0x7c, 0xee, 0x3d,
  0x35, 0xb4, 0x05, 0xbe, 0x98, 0xf0, 0x67, 0x3d, 0x8d, 0x94, 0xb4, 0xbc,
  0x3c, 0x5d, 0x2f, 0xbd, 0x2e, 0x38, 0xd6, 0x3c, 0x5e, 0xd7, 0x86, 0xbd,
  0x3a, 0xe7, 0x5c, 0xbe, 0xb0, 0x43, 0x88, 0x3e, 0xfc, 0xd6, 0x97, 0x3d,
  0x3e, 0x7f, 0x60, 0xbd, 0xa1, 0x6e, 0x10, 0xbd, 0xa5, 0x98, 0x20, 0xbe,
  0xe5, 0x7b, 0x21, 0xbe, 0x3b, 0xc6, 0x7c, 0x3e, 0xb1, 0x4e, 0x08, 0x3d,
  0xd9, 0xcf, 0x22, 0x3e, 0x07, 0x93, 0xbb, 0xbd, 0x05, 0xe1, 0xc8, 0xbd,
  0xda, 0x6e, 0x6e, 0x3e, 0x14, 0xbc, 0x2d, 0xbe, 0x51, 0x5d, 0xfd, 0xbd,
  0xff, 0xe9, 0x90, 0xbd, 0x8d, 0xd6, 0x57, 0x3d, 0x64, 0xa0, 0xac, 0xbd,
  0x1d, 0x22, 0x11, 0x3e, 0x24, 0xe4, 0x09, 0xbe, 0xd6, 0x10, 0x91, 0xbd,
  0xa4, 0xf2, 0x64, 0x3d, 0x18, 0x4c, 0xb0, 0xbc, 0x5a, 0xe0, 0x2e, 0x3d,
  0xf8, 0xa3, 0x37, 0xbc, 0x92, 0x02, 0x04, 0xbe, 0x32, 0x46, 0x46, 0xbd,
  0xd8, 0x85, 0x47, 0xbc, 0x73, 0x10, 0xd0, 0x3d, 0x78, 0x2a, 0xd1, 0x3d,
  0x73, 0x92, 0x42, 0xbd, 0x8e, 0x88, 0x07, 0x3d, 0x2d, 0x8f, 0x20, 0x3d,
  0x5b, 0x25, 0x07, 0x3e, 0x4c, 0xdb, 0x40, 0xbe, 0x32, 0xdd, 0x59, 0x3d,
  0x4c, 0x1f, 0xa1, 0xbd, 0x04, 0x8a, 0x8d, 0x3d, 0x13, 0x8a, 0xe7, 0xbd,
  0x0e, 0x18, 0x90, 0x3c, 0x3a, 0x92, 0xfa, 0xbd, 0xfc, 0x3e, 0xf3, 0xbd,
  0xc3, 0x75, 0x98, 0xbd, 0x1a, 0xbc, 0x2a, 0x3e, 0xfb, 0xf0, 0xa1, 0xbd,
  0x96, 0x19, 0xf1, 0xbd, 0xd0, 0x5d, 0x80, 0xbe, 0xc3, 0x35, 0x60, 0xbe,
  0x9a, 0x9b, 0x8c, 0x3e, 0xe3, 0x5e, 0xb2, 0x3d, 0x32, 0x01, 0x98, 0x3d,
  0xdc, 0xdb, 0xfc, 0xbd, 0x5e, 0x03, 0x0d, 0xbe, 0x79, 0xab, 0x6e, 0xbe,
  0xec, 0xa2, 0xd5, 0x3d, 0xd6, 0x2a, 0xd1, 0xbd, 0x81, 0x4b, 0x12, 0x3e,
  0x7a, 0x91, 0x31, 0xbd, 0x72, 0xe8, 0x3b, 0xbd, 0xa6, 0x54, 0x60, 0xbe,
  0x6a, 0xb0, 0x3f, 0x3d, 0x17, 0xdb, 0x80, 0xbe, 0xd2, 0x1d, 0xce, 0x3d,
  0xc0, 0xa1, 0x5d, 0x3b, 0x4a, 0xfa, 0x89, 0x3e, 0x64, 0xbb, 0xff, 0xbb,
  0xe9, 0x12, 0x3a, 0xbd, 0xb7, 0xc9, 0xbf, 0x3d, 0x0c, 0xfa, 0xfb, 0xbd,
  0xdb, 0x47, 0xc1, 0x3d, 0x7b, 0xc1, 0xda, 0x3c, 0xe8, 0x24, 0x0c, 0x3d,
  0xf5, 0xfd, 0x60, 0xbe, 0xa7, 0x61, 0x90, 0xbc, 0x12, 0x71, 0x99, 0xbd,
  0xf8, 0xbc, 0x3f, 0x3d, 0x15, 0x0e, 0xc1, 0xbd, 0x78, 0xfb, 0xf6, 0x3c,
  0xb9, 0x44, 0xf5, 0x3d, 0x1c, 0x01, 0x66, 0x3c, 0x55, 0x28, 0x27, 0x3d,
  0x42, 0x2b, 0x05, 0xbe, 0x5f, 0xb4, 0x0f, 0xbe, 0x3b, 0x1e, 0x53, 0xbc,
  0x03, 0x06, 0xb4, 0xbd, 0x25, 0xac, 0x85, 0x3d, 0x6c, 0x75, 0x0c, 0xbe,
  0xc6, 0x27, 0x02, 0xbe, 0x41, 0x86, 0x0e, 0xbd, 0x60, 0x30, 0x2b, 0xbe,
  0x8f, 0x12, 0xcc, 0xbd, 0x1f, 0x60, 0x0a, 0xbd, 0xa4, 0x4a, 0x6c, 0xbd,
  0x36, 0x87, 0xce, 0x3d, 0xf8, 0x18, 0xad, 0xbc, 0x31, 0x47, 0x24, 0xbe,
  0xca, 0x9f, 0x81, 0x3c, 0x16, 0xa2, 0x9b, 0xbd, 0x0d, 0x91, 0x14, 0xbe,
  0x37, 0x21, 0xed, 0xbc, 0x8c, 0x65, 0x8e, 0x3e, 0x84, 0x5b, 0xcd, 0xbc,
  0x28, 0xe7, 0xc7, 0x3d, 0x67, 0x4d, 0x9a, 0xbc, 0x9b, 0x5f, 0xb0, 0x3d,
  0x27, 0x99, 0x52, 0x3d, 0x41, 0x46, 0x5f, 0x3e, 0xa7, 0xd3, 0xb5, 0x3d,
  0xd4, 0x66, 0x53, 0x3e, 0x86, 0x6b, 0x97, 0xbd, 0x1a, 0xb5, 0x9b, 0x3d,
  0x08, 0x26, 0x0c, 0x3e, 0xdc, 0x42, 0xf8, 0x3c, 0xec, 0xa0, 0xa6, 0x3d,
  0x8f, 0x38, 0xf3, 0x3d, 0x93, 0xdf, 0x88, 0x3e, 0xa4, 0x26, 0x84, 0x3d,
  0xfe, 0x4c, 0x33, 0x3d, 0x52, 0x29, 0xb0, 0xbd, 0xe7, 0x4d, 0xbf, 0x3d,
  0xee, 0x6f, 0x26, 0x3e, 0x6a, 0xc3, 0x16, 0x3e, 0x7a, 0x0a, 0x0a, 0xbd,
  0xa5, 0x14, 0xc5, 0x3d, 0x03, 0x52, 0x96, 0xbd, 0xdc, 0x27, 0x89, 0x3c,
  0xbd, 0xee, 0xe3, 0x3d, 0xf2, 0xc4, 0x70, 0x3e, 0x1c, 0x13, 0xa7, 0x3d,
  0x67, 0xec, 0xa7, 0x3d, 0x94, 0x36, 0xe5, 0xbc, 0x0f, 0x40, 0x65, 0x3c,
  0x8f, 0xaf, 0xfc, 0x3b, 0x44, 0x2f, 0x9b, 0x3e, 0x8a, 0xad, 0x2a, 0xbd,
  0xed, 0xe8, 0x0e, 0x3d, 0x39, 0x31, 0x82, 0x3d, 0xc0, 0xe8, 0x5a, 0x3d,
  0xcc, 0x4c, 0x3a, 0x3e, 0x14, 0x19, 0xdd, 0x3c, 0x21, 0xd3, 0x24, 0xbd,
  0x63, 0xc4, 0x17, 0xbd, 0x3b, 0x77, 0xb8, 0x3d, 0x86, 0x9c, 0x8d, 0x3d,
  0xb9, 0x76, 0xd9, 0xbc, 0xd0, 0x4a, 0x3e, 0x3d, 0x50, 0xb3, 0xfb, 0xbd,
  0x20, 0xfd, 0xdd, 0x3c, 0x05, 0x4e, 0x48, 0x3e, 0xfe, 0x87, 0xb8, 0x3d,
  0x0a, 0x41, 0x8b, 0x3c, 0x5b, 0xe4, 0x8b, 0x3e, 0xa9, 0x3c, 0x7d, 0xbd,
  0x76, 0x32, 0x1b, 0x3e, 0x87, 0x7f, 0x52, 0x3c, 0x98, 0x6d, 0x0b, 0xbe,
  0x7c, 0x29, 0x02, 0x3e, 0x62, 0x52, 0xa2, 0x3e, 0xed, 0x9b, 0x16, 0xbe,
  0xda, 0xf2, 0x77, 0xbd, 0x45, 0xea, 0x7e, 0xbd, 0x33, 0x4f, 0x1c, 0x3e,
  0x92, 0x6b, 0x68, 0x3e, 0x1d, 0x22, 0x9e, 0x3e, 0x7f, 0xbd, 0x1b, 0x3d,
  0xfc, 0x2f, 0x06, 0x3d, 0xc0, 0x0c, 0xd6, 0xbc, 0xe7, 0x7c, 0x1f, 0x3e,
  0x44, 0x36, 0x5c, 0x3e, 0x9c, 0x85, 0xff, 0x3d, 0x6a, 0xaf, 0x6c, 0x3b,
  0x86, 0x82, 0x3e, 0x3d, 0x05, 0x79, 0xcd, 0xbc, 0xa3, 0x60, 0x68, 0xbd,
  0x53, 0x68, 0xb1, 0x3d, 0x6d, 0xa6, 0xfd, 0x3c, 0x8b, 0x9d, 0x1a, 0x3e,
  0x54, 0xf0, 0x91, 0xbd, 0x07, 0x28, 0xd9, 0xbc, 0x14, 0xbf, 0x23, 0x3e,
  0xcf, 0x17, 0x21, 0xbd, 0xa3, 0xc5, 0x06, 0xbd, 0x9f, 0x36, 0x97, 0x3d,
  0x33, 0x2c, 0xc2, 0xbd, 0x4e, 0xfd, 0x51, 0x3e, 0xc6, 0x8b, 0x44, 0x3e,
  0x1e, 0x45, 0x70, 0xbd, 0x78, 0x77, 0xd7, 0xbc, 0x60, 0xb3, 0xb0, 0x3d,
  0x4c, 0xd8, 0xe9, 0x3d, 0x24, 0xf9, 0x4f, 0xbd, 0xc0, 0xe9, 0x13, 0xbe,
  0xcf, 0xa9, 0xe8, 0xbd, 0x41, 0x68, 0x17, 0xbb, 0xc0, 0xe9, 0x98, 0x3c,
  0x0a, 0x1a, 0xcd, 0x3d, 0xde, 0x47, 0x87, 0x3d, 0xdb, 0xc2, 0x40, 0x3d,
  0x42, 0x8f, 0x0f, 0xbe, 0xda, 0x27, 0xb6, 0x3d, 0xc0, 0x77, 0x70, 0x3d,
  0x0d, 0xaa, 0x1b, 0x3e, 0x5b, 0x1f, 0x72, 0x3e, 0xe4, 0xf6, 0x48, 0x3d,
  0x02, 0x79, 0x06, 0x3e, 0xf8, 0xa4, 0x36, 0x3e, 0xfa, 0x04, 0x69, 0xbd,
  0xc3, 0x68, 0x10, 0x3e, 0xba, 0xca, 0x12, 0x3e, 0x50, 0xb7, 0x0e, 0x3d,
  0x2e, 0x18, 0x43, 0xbe, 0xd9, 0x0e, 0x0c, 0x3e, 0x09, 0x3e, 0x69, 0xbd,
  0x28, 0xf8, 0xd1, 0x3d, 0x7f, 0xb1, 0x47, 0x3d, 0x2f, 0x4c, 0x71, 0x3e,
  0x0a, 0xa4, 0x96, 0xbe, 0x26, 0x35, 0x4f, 0x3e, 0x26, 0x29, 0x38, 0x3d,
  0x2c, 0x5f, 0xc7, 0xbd, 0x05, 0x18, 0x39, 0xbd, 0x71, 0xd1, 0xa0, 0x3d,
  0x09, 0xac, 0x03, 0x3c, 0x46, 0xc8, 0x6b, 0x3e, 0xed, 0xd7, 0x96, 0x3c,
  0x52, 0xe4, 0x76, 0x3c, 0x27, 0x09, 0xdb, 0xbd, 0x15, 0x73, 0xb9, 0xbc,
  0x58, 0x5f, 0x63, 0xbd, 0x12, 0xcc, 0x97, 0xbe, 0x23, 0xe2, 0x1c, 0xbe,
  0x70, 0x8c, 0x1c, 0x3d, 0xab, 0x28, 0x3d, 0xbc, 0x29, 0xfb, 0x49, 0xbe,
  0xae, 0x4c, 0x16, 0xbd, 0x1f, 0xcd, 0x01, 0xbe, 0x61, 0x73, 0x67, 0x3c,
  0x25, 0x2c, 0x0c, 0xbe, 0x3e, 0x30, 0xff, 0x3d, 0x0a, 0x1e, 0x0b, 0xbe,
  0xb1, 0xb2, 0x0b, 0x3e, 0x7d, 0x62, 0x7e, 0xbe, 0xf0, 0x9d, 0x8f, 0x3d,
  0xa6, 0x8d, 0x12, 0xbe, 0x3e, 0x9e, 0xbe, 0x3d, 0xc8, 0x74, 0x00, 0x3e,
  0xb7, 0x5c, 0xec, 0xbd, 0x92, 0x00, 0x2e, 0x3e, 0x29, 0x1c, 0x2c, 0xbc,
  0xd6, 0xf1, 0x9a, 0x3d, 0x2a, 0x9b, 0x23, 0xbe, 0xd9, 0x24, 0xda, 0x3d,
  0x30, 0x99, 0xbe, 0xbd, 0xbc, 0x46, 0x34, 0x3d, 0xc1, 0x8c, 0xb3, 0x3d,
  0xf4, 0x1c, 0xd2, 0x3d, 0xc4, 0x65, 0x3e, 0xbe, 0x0f, 0x0f, 0x80, 0x3d,
  0x5c, 0x87, 0x29, 0xbb, 0xf3, 0x19, 0x65, 0x3d, 0x6d, 0xde, 0x64, 0x3d,
  0x86, 0x92, 0xc1, 0x3d, 0x18, 0x94, 0xe6, 0xbd, 0xd6, 0xf4, 0x0a, 0xbe,
  0xae, 0x5a, 0x34, 0x3e, 0x3b, 0x7c, 0x1b, 0x3e, 0x12, 0x0d, 0x07, 0xbe,
  0xd8, 0x0b, 0xc0, 0xbd, 0xee, 0xf9, 0x2a, 0xbe, 0x8a, 0x69, 0xa4, 0xbe,
  0xcf, 0xc1, 0xdb, 0x3d, 0x5e, 0xd6, 0x0f, 0xbe, 0x16, 0x54, 0xa2, 0x3d,
  0xf0, 0xde, 0x3f, 0xbd, 0x79, 0x5b, 0x57, 0x3e, 0xa9, 0xe8, 0x8f, 0xbe,
  0xc4, 0x50, 0xe8, 0xbc, 0x26, 0xee, 0x59, 0xbe, 0x1c, 0xb3, 0x36, 0xbe,
  0x80, 0x40, 0xaf, 0x3a, 0x8f, 0xd6, 0xc0, 0x3e, 0x19, 0x50, 0xf6, 0xbc,
  0xf1, 0x14, 0xff, 0xbd, 0x9d, 0x08, 0x31, 0x3e, 0x79, 0x4d, 0x1c, 0x3d,
  0x98, 0x8e, 0x2e, 0xbe, 0x2a, 0x3d, 0x19, 0xbe, 0xe4, 0x21, 0x7a, 0x3e,
  0x73, 0xbd, 0x40, 0xbe, 0x7d, 0x28, 0xdf, 0xbd, 0x47, 0x3a, 0x68, 0xbd,
  0x13, 0xac, 0x0b, 0x3e, 0x79, 0x2e, 0xd4, 0xbc, 0x93, 0x38, 0x69, 0x3e,
  0x7b, 0x19, 0xb8, 0xbd, 0xe6, 0x7c, 0xcd, 0x3d, 0x35, 0x45, 0x10, 0xbd,
  0x0e, 0x90, 0x8c, 0xbb, 0xdf, 0x76, 0x5d, 0xbe, 0x3e, 0x5c, 0x09, 0xbd,
  0x8e, 0x7b, 0x9e, 0xbd, 0xbc, 0xbe, 0x8a, 0x3d, 0xcf, 0x88, 0xb8, 0xbd,
  0x20, 0xcc, 0x3f, 0xbd, 0x50, 0x0f, 0x41, 0xbe, 0xb1, 0xec, 0x36, 0xbe,
  0x03, 0xfd, 0x73, 0x3d, 0xcf, 0x55, 0x6e, 0xbd, 0xf3, 0x61, 0x8d, 0x3c,
  0x5d, 0xd5, 0xb8, 0xbd, 0x4c, 0xc1, 0x88, 0x3c, 0xa2, 0xa7, 0x80, 0xbe,
  0x42, 0xcc, 0xdf, 0x3d, 0xaf, 0xef, 0x39, 0xbe, 0x3f, 0x19, 0xce, 0xbd,
  0x49, 0x2d, 0x0b, 0x3e, 0xc3, 0x4a, 0xca, 0x3d, 0x87, 0xf9, 0xb3, 0x3c,
  0x98, 0x39, 0x16, 0x3e, 0xe1, 0x70, 0x3c, 0x3e, 0x8e, 0x2e, 0x17, 0x3c,
  0x2d, 0x8c, 0x07, 0x3e, 0x99, 0xf2, 0x0d, 0x3e, 0x08, 0xfd, 0xc2, 0x3d,
  0xfa, 0x87, 0xc3, 0xbc, 0xec, 0x34, 0x06, 0x3e, 0x58, 0x07, 0x43, 0x3d,
  0x08, 0xdd, 0x1d, 0xbe, 0x6c, 0x01, 0xed, 0xbc, 0x98, 0x13, 0x6f, 0x3d,
  0xde, 0x3d, 0xd0, 0x3d, 0x8c, 0xef, 0xe1, 0x3d, 0xe2, 0x8b, 0xd0, 0x3d,
  0xf6, 0x15, 0xc4, 0xbd, 0x41, 0x81, 0x42, 0xbd, 0xe8, 0x06, 0x8c, 0x3c,
  0x38, 0x24, 0xb5, 0x3d, 0x11, 0x6e, 0x0c, 0x3d, 0xe1, 0xa0, 0xbc, 0xbd,
  0x4b, 0xa3, 0x73, 0xbd, 0xc3, 0x91, 0xfc, 0x3d, 0xb5, 0x4c, 0x8e, 0xbd,
  0xa2, 0x53, 0xb6, 0xbc, 0x2a, 0x78, 0x60, 0xbc, 0xd7, 0x3a, 0x18, 0xbe,
  0x38, 0xbb, 0x2c, 0xbe, 0x0b, 0xf9, 0x1d, 0x3e, 0x58, 0xa4, 0x4a, 0x3c,
  0xd3, 0xc4, 0x0b, 0x3e, 0xa5, 0xea, 0x21, 0x3d, 0x9c, 0x27, 0x16, 0xbd,
  0x18, 0x62, 0xdc, 0x3c, 0x59, 0x5a, 0xee, 0x3d, 0x83, 0x54, 0xe4, 0x3d,
  0xb1, 0x6f, 0x27, 0x3d, 0x7b, 0xd8, 0x31, 0x3e, 0xf8, 0x3c, 0x8e, 0x3c,
  0x81, 0x6d, 0x3c, 0x3d, 0x61, 0x58, 0xa6, 0x3c, 0xad, 0x90, 0xb4, 0x3d,
  0xd6, 0x76, 0x07, 0xbe, 0x19, 0xf3, 0x4b, 0x3d, 0xae, 0xe2, 0x7f, 0xbd,
  0xe1, 0x71, 0xbe, 0xbd, 0xae, 0xdd, 0x72, 0xbe, 0xa0, 0xc3, 0x9d, 0xbd,
  0xd4, 0xef, 0x1f, 0xbd, 0x15, 0xd2, 0x09, 0x3e, 0x4d, 0xcd, 0x05, 0xbe,
  0xb8, 0x5e, 0xbf, 0x3c, 0xc5, 0x7b, 0x65, 0xbe, 0x78, 0xc0, 0xcf, 0xbd,
  0x41, 0x57, 0x1f, 0x3d, 0xca, 0x28, 0x70, 0xbc, 0xf2, 0x3c, 0x69, 0xbd,
  0x66, 0x34, 0x1e, 0xbe, 0x09, 0x5a, 0xa0, 0xbc, 0x75, 0xa9, 0x15, 0xbd,
  0x69, 0x6b, 0x3f, 0x3e, 0x96, 0x19, 0xc2, 0xbd, 0x20, 0xdc, 0xff, 0xbc,
  0xe2, 0x76, 0xbc, 0x3d, 0xb5, 0xc1, 0x1d, 0x3e, 0x58, 0xf0, 0x16, 0x3e,
  0x76, 0x0e, 0x56, 0x3e, 0xff, 0x3c, 0x2c, 0x3d, 0xdd, 0x4f, 0x64, 0x3d,
  0x46, 0xea, 0xf9, 0x3d, 0x2b, 0x8a, 0xac, 0x3e, 0x60, 0x41, 0x95, 0x3e,
  0x4e, 0xc7, 0x48, 0xbe, 0x7a, 0x8d, 0xa0, 0x3e, 0xf5, 0x03, 0xa4, 0xbd,
  0x1e, 0xa4, 0x13, 0xbe, 0x86, 0xb0, 0xb9, 0xbd, 0xf5, 0x22, 0x40, 0x3e,
  0x2c, 0xcd, 0x72, 0xbe, 0x92, 0xf0, 0x2e, 0x3e, 0x16, 0xd7, 0xa9, 0xbd,
  0x15, 0xc5, 0xba, 0xbd, 0x5e, 0xe3, 0x82, 0xbe, 0x03, 0x1b, 0x9c, 0x3c,
  0xb5, 0xbf, 0x42, 0xbe, 0x5d, 0x93, 0x9d, 0x3d, 0x36, 0x9e, 0xf8, 0x3d,
  0x07, 0x43, 0x92, 0xbd, 0xd5, 0x95, 0x2d, 0xbe, 0xdd, 0xde, 0xd9, 0xbd,
  0xd1, 0x5f, 0xcd, 0xbd, 0x0c, 0xa7, 0xbb, 0xbd, 0xb4, 0x58, 0x82, 0x3d,
  0x89, 0x4c, 0x14, 0x3e, 0x7e, 0xda, 0xa5, 0xbd, 0x87, 0xce, 0x99, 0xbd,
  0x70, 0xb5, 0x41, 0xbe, 0xaf, 0x8a, 0x36, 0xbe, 0x2a, 0xab, 0x80, 0xbd,
  0x7a, 0x9e, 0x1b, 0xbe, 0x71, 0x2d, 0xe3, 0x3d, 0x42, 0x20, 0x0f, 0xbe,
  0x49, 0x3d, 0xdc, 0x3d, 0xa9, 0xe0, 0x3b, 0xbe, 0x0e, 0x41, 0xa7, 0xbd,
  0xf4, 0x02, 0xa5, 0x3d, 0x03, 0xdd, 0x06, 0x3e, 0x46, 0x48, 0x90, 0x3d,
  0x02, 0xee, 0xb5, 0xbd, 0xdd, 0x16, 0x92, 0x3e, 0xab, 0x95, 0x8c, 0xbd,
  0x44, 0xe9, 0x5d, 0xbd, 0xeb, 0x9f, 0xa4, 0x3d, 0xad, 0x38, 0xd7, 0x3d,
  0xc9, 0xae, 0x56, 0xbd, 0x97, 0x2e, 0x4f, 0x3d, 0x20, 0xdc, 0x48, 0xbd,
  0xb3, 0xfe, 0x9d, 0xbd, 0xcf, 0xda, 0x54, 0xbd, 0x9b, 0x57, 0x38, 0x3e,
  0x6b, 0xfa, 0x84, 0xbe, 0x30, 0x19, 0x85, 0xbc, 0x40, 0x3d, 0x02, 0xbe,
  0x62, 0x13, 0xf1, 0x3d, 0x24, 0x3f, 0x2b, 0xbe, 0x42, 0x44, 0x1b, 0xbe,
  0x5e, 0xa8, 0x6b, 0xbe, 0x57, 0x56, 0x7c, 0xbc, 0xde, 0x8a, 0x90, 0xbd,
  0xe5, 0xd6, 0x1b, 0xbe, 0xb4, 0xb8, 0xc3, 0xbc, 0x2b, 0x6a, 0x9a, 0xbe,
  0xca, 0x5a, 0x0e, 0xbe, 0x41, 0x40, 0x86, 0xbe, 0xc0, 0xe6, 0x43, 0x3d,
  0x92, 0x93, 0x7d, 0xbd, 0x62, 0x0c, 0x24, 0x3e, 0x77, 0xe8, 0x0f, 0x3c,
  0xd7, 0x2f, 0x35, 0x3e, 0x64, 0x20, 0xab, 0x3d, 0xa8, 0xda, 0xf5, 0x3c,
  0xd0, 0x85, 0xad, 0xbc, 0x53, 0xe0, 0x99, 0x3d, 0x6e, 0xb0, 0x3e, 0x3d,
  0xfb, 0xad, 0x3d, 0x3e, 0x4e, 0xa3, 0x25, 0x3e, 0xd2, 0x0a, 0xb0, 0xbd,
  0x95, 0x56, 0x68, 0x3d, 0xff, 0xdb, 0xe7, 0x3d, 0x0e, 0x63, 0x56, 0x3d,
  0xd8, 0x32, 0x2d, 0x3d, 0x43, 0x34, 0xbe, 0xbd, 0xba, 0x79, 0x63, 0xbd,
  0x00, 0xc7, 0x33, 0x3a, 0x2f, 0x79, 0x37, 0x3c, 0xd3, 0x71, 0xf1, 0x3d,
  0xad, 0xf6, 0x82, 0xbd, 0x63, 0x67, 0x28, 0xbc, 0xc0, 0x94, 0x99, 0x3d,
  0x46, 0x50, 0xfa, 0xbd, 0x76, 0x99, 0x09, 0xbe, 0x97, 0xa7, 0x79, 0x3c,
  0x9d, 0x85, 0x5c, 0xbd, 0x6f, 0x23, 0x65, 0xbe, 0x7e, 0x05, 0xab, 0xbd,
  0x5b, 0xda, 0x09, 0x3e, 0x5e, 0xcc, 0xb5, 0x3d, 0x59, 0x88, 0x47, 0xbe,
  0xa0, 0xda, 0x0d, 0x3e, 0xfd, 0x1b, 0x2b, 0xbe, 0x70, 0x18, 0x2a, 0xbc,
  0x9a, 0x91, 0xcf, 0xbd, 0x3e, 0xa1, 0xcb, 0x3d, 0x7a, 0x88, 0xe0, 0x3d,
  0x74, 0xe2, 0x91, 0xbc, 0x36, 0x16, 0xf7, 0xbd, 0x27, 0xac, 0xa1, 0xbd,
  0xb9, 0x41, 0x0d, 0x3e, 0x10, 0x11, 0xb6, 0x3d, 0xe5, 0xf1, 0x2b, 0xbb,
  0x3e, 0xd9, 0x35, 0xbd, 0xc6, 0x1f, 0x28, 0xbe, 0x86, 0xfb, 0x08, 0xbe,
  0x6a, 0x83, 0x0e, 0xbe, 0x26, 0xc1, 0xdd, 0xbc, 0x69, 0x71, 0x51, 0xbd,
  0xe6, 0x56, 0x86, 0xbd, 0x15, 0xab, 0xa7, 0xbd, 0x04, 0x34, 0x7a, 0x3d,
  0x44, 0x30, 0x2d, 0x3d, 0x3d, 0x2c, 0xb7, 0xbd, 0x92, 0xb0, 0xcf, 0xbc,
  0xfa, 0xb2, 0x04, 0x3d, 0x62, 0x1f, 0x05, 0xbe, 0x0b, 0x7c, 0x3a, 0x3d,
  0xec, 0x07, 0xac, 0x3d, 0x52, 0xbb, 0xfe, 0x3d, 0xb3, 0x8a, 0xbb, 0xbc,
  0x51, 0xaf, 0xf2, 0x3c, 0xb0, 0xb4, 0x1d, 0xbe, 0x0a, 0x81, 0x90, 0x3d,
  0x3e, 0x33, 0x8f, 0x3d, 0x56, 0x51, 0x0a, 0x3e, 0x2b, 0x70, 0x9d, 0x3c,
  0xb1, 0x9b, 0x15, 0x3e, 0xe6, 0x69, 0x38, 0xbe, 0x00, 0x32, 0x8e, 0x3c,
  0xee, 0x8a, 0x13, 0xbd, 0x7c, 0x84, 0x55, 0x3c, 0x38, 0x5f, 0x3b, 0x3d,
  0x54, 0xcf, 0x5b, 0xbd, 0x7b, 0x1f, 0x11, 0xbc, 0x4e, 0x35, 0x01, 0x3e,
  0x4a, 0x5d, 0x18, 0xbe, 0x14, 0x32, 0x20, 0x3d, 0x0e, 0x58, 0x9d, 0x3c,
  0x54, 0x53, 0xd6, 0x3d, 0xa3, 0x8c, 0x39, 0x3c, 0xae, 0x49, 0x85, 0x3d,
  0x27, 0x5a, 0x12, 0xbe, 0xfc, 0xe3, 0x2b, 0xbd, 0x40, 0xbb, 0x93, 0xbc,
  0xe6, 0x60, 0xc5, 0xbc, 0x8e, 0xd7, 0x94, 0xbd, 0xe1, 0x28, 0xe7, 0xbd,
  0x58, 0x16, 0xf5, 0xbd, 0xfd, 0x19, 0x65, 0xbd, 0xd4, 0xce, 0xb6, 0x3c,
  0xf9, 0xa3, 0xdd, 0x3d, 0x37, 0x05, 0xa9, 0x3d, 0x33, 0xc5, 0x5a, 0x3d,
  0xe0, 0x89, 0xf1, 0xbd, 0x0b, 0xfb, 0x1e, 0x3e, 0xf4, 0x3e, 0x06, 0x3e,
  0x32, 0xc6, 0x8e, 0xbc, 0xc6, 0x27, 0xa6, 0x3d, 0x28, 0x8b, 0xf3, 0x3b,
  0x78, 0xbd, 0x0f, 0xbe, 0x8f, 0x08, 0x06, 0xbe, 0xe8, 0x18, 0x1e, 0xbc,
  0x56, 0x34, 0x02, 0x3e, 0x8e, 0x84, 0x46, 0x3e, 0xb6, 0x7b, 0xea, 0xbd,
  0x27, 0x43, 0xd7, 0x3d, 0x70, 0xf5, 0x4a, 0xbd, 0x6f, 0x69, 0x9a, 0x3c,
  0xd2, 0xed, 0xe5, 0xbd, 0x09, 0x70, 0xb9, 0xbb, 0x20, 0x8b, 0xd1, 0x3d,
  0xbb, 0xee, 0xbb, 0xbc, 0x30, 0x16, 0x50, 0xbe, 0x54, 0x48, 0x00, 0xbe,
  0xe1, 0x17, 0x70, 0x3e, 0xec, 0x7f, 0x21, 0xbe, 0x80, 0x14, 0x9d, 0xbc,
  0x5f, 0x42, 0x9f, 0x3d, 0xfc, 0x5b, 0x51, 0x3e, 0xc7, 0xba, 0xee, 0xbd,
  0xfe, 0x6d, 0xe0, 0xbc, 0xb5, 0xde, 0x4b, 0xbd, 0x2d, 0x69, 0x15, 0xbe,
  0xba, 0xef, 0xe4, 0xbd, 0x7a, 0xea, 0x17, 0x3e, 0xc7, 0x04, 0x3f, 0x3b,
  0x61, 0x93, 0xe7, 0x3c, 0x12, 0x88, 0xc7, 0xbc, 0x15, 0x65, 0xf5, 0x3b,
  0x7c, 0xaa, 0x8e, 0x3c, 0x83, 0x86, 0xda, 0x3d, 0xec, 0xb6, 0x7c, 0xbd,
  0xf1, 0x9a, 0xe4, 0xbc, 0xaa, 0x96, 0x93, 0x3e, 0x68, 0xf8, 0x09, 0xbe,
  0xf3, 0x7c, 0xf4, 0x3d, 0x40, 0xe3, 0xd8, 0x3c, 0xce, 0xe4, 0x4a, 0x3e,
  0xd5, 0xdb, 0x0a, 0x3e, 0x7f, 0xb2, 0x40, 0x3e, 0x15, 0xd1, 0xac, 0x3d,
  0xbb, 0x72, 0xe9, 0x3d, 0xfe, 0x32, 0x88, 0xbd, 0xbf, 0x62, 0x0e, 0x3d,
  0xef, 0xcd, 0x0b, 0x3d, 0x43, 0x22, 0x5d, 0xbb, 0x4e, 0x4d, 0x7c, 0xbd,
  0xb3, 0x04, 0x8a, 0x3d, 0x13, 0x9c, 0x16, 0xbe, 0xc2, 0x4c, 0x69, 0xbe,
  0x27, 0xa5, 0x04, 0x3d, 0x15, 0x0e, 0x05, 0xbe, 0xc0, 0xc4, 0x7b, 0x3d,
  0x4e, 0x94, 0xe0, 0xbd, 0x02, 0x97, 0xd1, 0x3c, 0x72, 0x7e, 0x1d, 0xbe,
  0x57, 0x91, 0x43, 0x3e, 0x9e, 0xed, 0x4f, 0xbd, 0x18, 0xc8, 0xc8, 0x3d,
  0xc4, 0x79, 0x4f, 0xbd, 0x49, 0x00, 0x03, 0x3e, 0x69, 0xc0, 0xb1, 0x3d,
  0x80, 0xbb, 0xb7, 0x3d, 0x17, 0xc9, 0xa1, 0xbd, 0x8b, 0xa6, 0x23, 0x3e,
  0xd1, 0x01, 0xf2, 0xbd, 0x63, 0x2b, 0x3f, 0x3d, 0xe6, 0xc1, 0xbc, 0x3d,
  0x51, 0xaa, 0x31, 0xbe, 0x69, 0xdb, 0x4b, 0x3d, 0xce, 0x88, 0x64, 0xbd,
  0xcb, 0x9f, 0xb5, 0xbd, 0x10, 0xdc, 0x82, 0xbe, 0x8d, 0x46, 0xfb, 0x3d,
  0x43, 0xdc, 0x38, 0xbd, 0x07, 0x15, 0x70, 0x3e, 0x16, 0xda, 0xb3, 0x3d,
  0xf4, 0x59, 0x28, 0x3d, 0x8c, 0xbd, 0x00, 0xbd, 0x74, 0x42, 0x80, 0x3e,
  0x0c, 0x5d, 0xab, 0x3d, 0xd1, 0x7b, 0xb7, 0x3d, 0x0d, 0xa3, 0x07, 0x3b,
  0x4b, 0x0a, 0x6b, 0xbb, 0x0e, 0x6e, 0xa8, 0xbd, 0x59, 0x94, 0xb6, 0x3c,
  0x8d, 0x71, 0xba, 0xbd, 0x53, 0xad, 0xdf, 0xbd, 0x19, 0xc4, 0x2e, 0xbd,
  0x60, 0xf1, 0x9f, 0xbd, 0x36, 0x8c, 0x44, 0xbd, 0xe6, 0x7e, 0x10, 0xbe,
  0xd3, 0x41, 0xb0, 0xbd, 0x99, 0xbb, 0xb6, 0xbb, 0x3a, 0x12, 0xf8, 0x3d,
  0x68, 0x33, 0x83, 0x3d, 0xef, 0x89, 0x0f, 0xbe, 0x89, 0xe5, 0x58, 0xbe,
  0xd4, 0x05, 0xde, 0xbc, 0x78, 0xa6, 0xe2, 0x3d, 0x6c, 0x84, 0xcb, 0xbd,
  0xe0, 0x24, 0xc7, 0x3b, 0x1f, 0x15, 0xb8, 0xbd, 0x51, 0x62, 0x86, 0xbc,
  0xa8, 0x2f, 0x8b, 0x3d, 0x58, 0x6e, 0xee, 0xbd, 0xe6, 0x6c, 0x9a, 0x3d,
  0x12, 0xb7, 0xc3, 0xbd, 0x22, 0x37, 0x18, 0xbe, 0xfd, 0x85, 0x4a, 0xbd,
  0xe8, 0x6c, 0x41, 0x3d, 0x41, 0x17, 0xe5, 0xba, 0x94, 0x6a, 0x4b, 0x3d,
  0x44, 0x65, 0x03, 0xbe, 0x80, 0xc4, 0x4b, 0x3d, 0x32, 0xbc, 0x4e, 0x3b,
  0x74, 0x6f, 0x1c, 0xbd, 0x52, 0xa6, 0x1d, 0xbe, 0x37, 0xa1, 0x08, 0xbe,
  0xf6, 0x32, 0x49, 0xbb, 0x92, 0x4d, 0x84, 0x3d, 0x5f, 0xd9, 0xb9, 0x3d,
  0xc5, 0xc7, 0x22, 0xbe, 0x05, 0xd5, 0x4e, 0xbd, 0x9e, 0x26, 0xd9, 0xbd,
  0x5c, 0x59, 0x0d, 0xbe, 0xa2, 0x50, 0xe5, 0xbd, 0x60, 0x4b, 0x17, 0x3d,
  0x61, 0x8c, 0x71, 0xbe, 0x8b, 0xeb, 0x81, 0x3b, 0x96, 0x76, 0x77, 0xbc,
  0xf0, 0x30, 0x18, 0xbd, 0xfe, 0xd1, 0xc5, 0xbd, 0xc4, 0xde, 0xaa, 0xbd,
  0xa9, 0xcc, 0xe2, 0x3d, 0x82, 0xf6, 0xef, 0x3d, 0xcf, 0xce, 0x5f, 0xbd,
  0xa0, 0x15, 0x2d, 0xbc, 0x82, 0x8c, 0x58, 0xbd, 0x78, 0x6f, 0x7a, 0xbe,
  0x28, 0x97, 0x20, 0x3e, 0x30, 0xa0, 0x92, 0x3e, 0x5c, 0xec, 0x85, 0x3d,
  0xa8, 0xcc, 0x90, 0xbc, 0x2d, 0x55, 0x2c, 0xbb, 0x70, 0xb6, 0x83, 0xbe,
  0xab, 0xb0, 0x08, 0x3e, 0xaf, 0xaf, 0xd9, 0xbc, 0x00, 0xf9, 0x13, 0xbe,
  0x52, 0xe5, 0xbe, 0x3d, 0xc0, 0x43, 0x5a, 0x3d, 0xe7, 0x55, 0x62, 0xbe,
  0xff, 0xa9, 0x26, 0x3e, 0xcb, 0x98, 0x58, 0xbe, 0x11, 0xba, 0x92, 0x3d,
  0xac, 0x95, 0x59, 0x3d, 0xe6, 0xdd, 0xf4, 0x3d, 0x09, 0x36, 0x6a, 0x3e,
  0xfb, 0xf2, 0x8f, 0xbd, 0xe1, 0x5e, 0xbf, 0xbd, 0xd5, 0x51, 0xf1, 0xbd,
  0xb1, 0x80, 0x43, 0x3d, 0xf4, 0x17, 0x9a, 0x3b, 0xb3, 0x0c, 0xf4, 0x3d,
  0x8e, 0x24, 0x13, 0xbe, 0x23, 0x32, 0x5e, 0x3d, 0xbf, 0xc8, 0x85, 0xbd,
  0x4a, 0x3d, 0x1c, 0xbe, 0xdf, 0xb3, 0xe6, 0x3c, 0x8c, 0xd7, 0x1e, 0x3e,
  0x29, 0x0e, 0xe8, 0x3d, 0x4c, 0x0b, 0x50, 0x3e, 0x24, 0xee, 0x04, 0xbc,
  0x5a, 0xec, 0x15, 0x3e, 0xfa, 0xc7, 0x3e, 0xbe, 0x71, 0xde, 0xa5, 0x3d,
  0x6d, 0x0f, 0x36, 0xbd, 0x3b, 0x91, 0x55, 0x3e, 0xe0, 0x1b, 0x90, 0x3b,
  0xd0, 0x37, 0xd6, 0xbc, 0x3f, 0x06, 0x5b, 0xbd, 0xd5, 0xee, 0x53, 0xbe,
  0xc7, 0xe2, 0xaa, 0xbc, 0x5f, 0xed, 0xcb, 0x3d, 0x2d, 0x4e, 0xf5, 0x3d,
  0x6c, 0xf5, 0x4b, 0xbd, 0x7b, 0x70, 0xce, 0x3b, 0xf7, 0xa9, 0x96, 0xbd,
  0xd5, 0x18, 0xef, 0x3d, 0xc7, 0x0f, 0x29, 0xbe, 0x77, 0x1e, 0x7a, 0xbd,
  0x43, 0xca, 0x0a, 0x3e, 0xff, 0x32, 0x9d, 0x3e, 0xa9, 0xf2, 0x8d, 0xba,
  0xc0, 0x22, 0x16, 0x3e, 0xa8, 0x96, 0xe2, 0x3d, 0x3c, 0x4b, 0x72, 0xbc,
  0x9a, 0x94, 0x8b, 0x3d, 0xee, 0xaa, 0x93, 0xbd, 0x97, 0xe7, 0x6f, 0x3d,
  0x91, 0x29, 0x29, 0xbd, 0x0d, 0x0b, 0x97, 0x3d, 0x33, 0x1f, 0xb9, 0x3d,
  0xb7, 0x30, 0xf7, 0xbd, 0x4c, 0x45, 0xfc, 0xbc, 0xd7, 0x7f, 0x01, 0x3d,
  0x38, 0xb7, 0x2b, 0x3e, 0xd3, 0x2b, 0x30, 0x3e, 0x89, 0x9b, 0x79, 0xbc,
  0x02, 0xae, 0xb5, 0xbc, 0x44, 0xa7, 0xce, 0x3c, 0x72, 0x8e, 0xe4, 0xbd,
  0x91, 0x76, 0x12, 0x3e, 0x03, 0x47, 0x5a, 0xbd, 0x1f, 0x3b, 0x6a, 0xbd,
  0x8f, 0xa4, 0x70, 0x3d, 0x22, 0xbf, 0xf9, 0x3d, 0xed, 0x7e, 0xb2, 0xb9,
  0x82, 0x16, 0xf4, 0x3d, 0x44, 0xb9, 0x46, 0x3e, 0x72, 0x93, 0xc2, 0xbd,
  0xb3, 0x1d, 0xae, 0x3d, 0xa4, 0x64, 0xb1, 0xbc, 0x37, 0x9e, 0x36, 0x3e,
  0x3f, 0xea, 0x2a, 0x3c, 0x83, 0xb7, 0xcf, 0x3d, 0xb0, 0x19, 0x0a, 0x3e,
  0x19, 0x84, 0xea, 0x3c, 0xb8, 0xc2, 0x39, 0xbc, 0xa4, 0x70, 0x23, 0x3e,
  0x82, 0x75, 0x82, 0x3c, 0xc2, 0xb1, 0xc6, 0x3d, 0x08, 0xaa, 0x43, 0x3d,
  0x98, 0xb4, 0x95, 0xbd, 0x38, 0xff, 0xe2, 0x3c, 0x7f, 0x75, 0x4e, 0x3e,
  0x64, 0x09, 0x31, 0xbd, 0xad, 0x7c, 0x0b, 0x3e, 0x97, 0xad, 0x47, 0xbd,
  0x0d, 0xc8, 0x00, 0x3e, 0x28, 0xd8, 0xcf, 0x3d, 0x7e, 0xb6, 0x56, 0xbc,
  0x59, 0x23, 0xd3, 0xbc, 0xf9, 0x6d, 0x06, 0x3e, 0xdc, 0x4c, 0x19, 0xbe,
  0x3a, 0x67, 0x1a, 0xbd, 0x62, 0xd5, 0x46, 0xbd, 0xe0, 0x46, 0xf6, 0xbd,
  0x57, 0x8f, 0xdb, 0x3d, 0x6a, 0xaa, 0x2c, 0x3b, 0x53, 0x14, 0x28, 0xbe,
  0x50, 0xa4, 0x3a, 0xbd, 0x45, 0xf6, 0x2c, 0x3e, 0xa1, 0x7b, 0x94, 0xbc,
  0x4e, 0x90, 0x2c, 0x3d, 0x34, 0xeb, 0x32, 0x3e, 0x33, 0xbc, 0xac, 0x3d,
  0x72, 0x74, 0x07, 0xbe, 0x09, 0xa4, 0x3e, 0x3e, 0xa1, 0xd2, 0x15, 0x3e,
  0x31, 0x50, 0x52, 0x3e, 0xde, 0x5b, 0x94, 0xbd, 0xc0, 0x8b, 0x2b, 0x3c,
  0x20, 0x39, 0x04, 0x3d, 0x23, 0x84, 0x9f, 0x3d, 0xcd, 0x8f, 0x18, 0x3e,
  0x4e, 0xc8, 0xe9, 0xbd, 0x8c, 0xf3, 0x1d, 0x3d, 0xb2, 0xfc, 0x01, 0xbe,
  0x7e, 0xa5, 0xc4, 0x3d, 0xd5, 0x3d, 0x6f, 0x3d, 0xe2, 0xc3, 0x53, 0x3d,
  0xe9, 0x2f, 0x9e, 0x3d, 0xc9, 0x9e, 0x34, 0x3e, 0x33, 0x9d, 0x16, 0x3e,
  0x0e, 0x59, 0xf4, 0xbd, 0x64, 0x19, 0x07, 0xbe, 0xea, 0x2d, 0x01, 0x3e,
  0x1e, 0xad, 0x42, 0xbe, 0x81, 0x7c, 0x02, 0x3e, 0xa7, 0x03, 0x80, 0xbd,
  0x4c, 0xa0, 0xa6, 0x3d, 0x40, 0x71, 0xa3, 0xbd, 0x82, 0xb9, 0x93, 0xbe,
  0xff, 0x98, 0x8a, 0xbe, 0xd7, 0x73, 0xb3, 0x3c, 0x06, 0x6f, 0x75, 0xbd,
  0x3e, 0xb6, 0xe7, 0xbd, 0xd6, 0xc9, 0x99, 0xbc, 0x27, 0x2f, 0xac, 0xbd,
  0x82, 0x79, 0xb1, 0xbd, 0xb9, 0x03, 0x77, 0x3c, 0x6e, 0xd7, 0x15, 0xbe,
  0xe4, 0x4f, 0x11, 0xbd, 0xf9, 0x54, 0x26, 0x3e, 0x0f, 0x0c, 0x16, 0x3d,
  0x27, 0x78, 0x29, 0x3d, 0xa1, 0x4d, 0x0a, 0xbd, 0x42, 0xda, 0xd7, 0x3a,
  0xa0, 0xb2, 0xc3, 0x3b, 0x5c, 0x94, 0x1f, 0x3d, 0x0c, 0x70, 0x77, 0x3e,
  0x37, 0x84, 0x28, 0xbe, 0xa1, 0x41, 0x3c, 0x3e, 0x84, 0x49, 0x38, 0x3d,
  0xa5, 0x80, 0x08, 0x3d, 0xf5, 0x25, 0x28, 0x3d, 0x24, 0x34, 0x20, 0x3e,
  0x24, 0x6c, 0x33, 0x3c, 0x02, 0xfb, 0x30, 0x3e, 0xe5, 0x01, 0xe4, 0xbd,
  0x32, 0xb7, 0xf1, 0x3c, 0xc4, 0x30, 0x1a, 0xbe, 0xfb, 0xd1, 0x3f, 0x3d,
  0xc3, 0x1a, 0x7d, 0xbe, 0xe9, 0x85, 0x42, 0xbc, 0x24, 0xfd, 0x8a, 0x3d,
  0x00, 0x21, 0x12, 0x3b, 0xde, 0xc2, 0x86, 0xbe, 0xad, 0x04, 0x6a, 0xbe,
  0x25, 0xe1, 0x54, 0xbe, 0x68, 0x63, 0xcf, 0xbd, 0x60, 0x6d, 0x4e, 0xbc,
  0x82, 0x8e, 0xf3, 0x3d, 0x26, 0x8d, 0xa4, 0xbd, 0x4c, 0x8f, 0x3d, 0xbe,
  0xea, 0xc2, 0xa7, 0xbd, 0x77, 0x0e, 0x17, 0xbe, 0x2c, 0x79, 0xee, 0xbd,
  0xfe, 0x19, 0x9c, 0xbd, 0x16, 0xed, 0xc2, 0x3d, 0x19, 0x03, 0x8d, 0x3d,
  0x64, 0x12, 0x8d, 0x3c, 0xdc, 0xcc, 0x13, 0xbe, 0xbe, 0x16, 0x9f, 0x3d,
  0x66, 0x07, 0x07, 0xbe, 0x70, 0xc3, 0x52, 0x3e, 0xbc, 0xf3, 0x9c, 0x3d,
  0xa1, 0x0e, 0x31, 0xbe, 0x2d, 0x67, 0x5b, 0x3d, 0xe7, 0xff, 0xff, 0xbd,
  0xd6, 0xee, 0x02, 0xbc, 0xa5, 0x5e, 0x15, 0xbe, 0x81, 0x45, 0x6b, 0x3e,
  0x13, 0xc1, 0x34, 0xbe, 0xba, 0x8f, 0xf5, 0x3d, 0x10, 0x62, 0x0d, 0xbe,
  0x67, 0x0b, 0xc2, 0xbd, 0x54, 0xbc, 0xfa, 0xbc, 0x3c, 0x50, 0x99, 0x3e,
  0xf3, 0x8e, 0x73, 0xbd, 0xf3, 0x16, 0x11, 0xbe, 0x23, 0x56, 0x0e, 0x3e,
  0x0c, 0xcf, 0x6d, 0x3d, 0x7f, 0xd4, 0x0d, 0xbd, 0xfa, 0xe0, 0xe4, 0xbd,
  0x1d, 0x96, 0x55, 0x3e, 0x57, 0xe3, 0x0e, 0x3d, 0xe1, 0x13, 0x05, 0xbe,
  0x82, 0xc1, 0xc5, 0x3d, 0x68, 0x30, 0x86, 0xbd, 0xf2, 0xab, 0xcd, 0xbd,
  0xd9, 0x4b, 0x04, 0x3e, 0x92, 0x9a, 0x4a, 0xbe, 0xca, 0x5f, 0x29, 0x3e,
  0x40, 0x30, 0x0c, 0xbb, 0x9a, 0xb0, 0x02, 0xbc, 0x3b, 0x6c, 0xdf, 0xbd,
  0x60, 0x19, 0x8c, 0xbd, 0x25, 0xa1, 0xf0, 0xbd, 0x5c, 0x72, 0x14, 0x3e,
  0x32, 0x03, 0xa1, 0x3d, 0x87, 0xea, 0x99, 0x3d, 0x2d, 0x5b, 0xbe, 0xbb,
  0x0b, 0x0d, 0x07, 0xbe, 0x17, 0x87, 0x8b, 0x3d, 0x1e, 0x41, 0x82, 0xbd,
  0xf6, 0xd2, 0x5c, 0x3d, 0x0b, 0x56, 0xcc, 0xbc, 0x61, 0xc9, 0xd1, 0xbc,
  0x7a, 0xb5, 0x29, 0xbd, 0x14, 0xe8, 0x20, 0xbd, 0xf8, 0xd9, 0xa5, 0xbd,
  0xfc, 0x8f, 0x5e, 0x3d, 0x48, 0x6e, 0xd7, 0x3d, 0xcf, 0x3a, 0x3d, 0x3e,
  0x03, 0x46, 0x95, 0x3c, 0x4e, 0xa5, 0x02, 0xbe, 0x4e, 0x60, 0xed, 0xbd,
  0xfe, 0x54, 0x8e, 0xbd, 0x61, 0xba, 0x92, 0x3d, 0x90, 0x30, 0x03, 0x3d,
  0xac, 0x7b, 0x9d, 0x3d, 0x93, 0x5e, 0xcb, 0xbc, 0xe0, 0xbf, 0xab, 0xbd,
  0x78, 0x50, 0xaf, 0xbc, 0xa9, 0xfc, 0x98, 0x3d, 0x87, 0xb7, 0xdd, 0xbd,
  0xf4, 0x7d, 0xd5, 0x3d, 0x3d, 0xab, 0xb7, 0xbd, 0x71, 0xea, 0xcf, 0x3d,
  0x40, 0xf9, 0xc7, 0xbd, 0xc6, 0x10, 0xc2, 0x3d, 0x24, 0xa9, 0x84, 0xbd,
  0x65, 0xc2, 0x18, 0xbe, 0x06, 0x4f, 0x2d, 0xbe, 0x58, 0x8f, 0x8b, 0xbd,
  0x58, 0x0f, 0x6a, 0x3d, 0xf1, 0xba, 0x89, 0x3d, 0xae, 0xf8, 0xff, 0xff,
  0x04, 0x00, 0x00, 0x00, 0x08, 0x00, 0x00, 0x00, 0xff, 0xff, 0xff, 0xff,
  0xd8, 0x00, 0x00, 0x00, 0xc2, 0xf8, 0xff, 0xff, 0x04, 0x00, 0x00, 0x00,
  0x3c, 0x00, 0x00, 0x00, 0x7b, 0x99, 0x06, 0x3e, 0xb5, 0xa7, 0x28, 0x3d,
  0x58, 0x3d, 0x63, 0x3d, 0x15, 0x54, 0x08, 0xbd, 0xff, 0x3e, 0xdc, 0x3d,
  0xbf, 0xef, 0xf3, 0x3d, 0x5e, 0x30, 0x06, 0x3d, 0xa2, 0xe9, 0xc2, 0x3b,
  0x0d, 0x45, 0xc6, 0x3c, 0x97, 0x9a, 0x08, 0xbd, 0xea, 0x79, 0xfa, 0xbb,
  0x43, 0xe4, 0x0c, 0x3d, 0xef, 0x70, 0x0e, 0x3e, 0xe2, 0x9c, 0x52, 0xbd,
  0xcb, 0x83, 0xd9, 0x3d, 0x0a, 0xf9, 0xff, 0xff, 0x04, 0x00, 0x00, 0x00,
  0x0c, 0x00, 0x00, 0x00, 0xf3, 0xce, 0x2d, 0x3d, 0x5d, 0xe2, 0x38, 0xbc,
  0x29, 0x75, 0x61, 0xbc, 0x22, 0xf9, 0xff, 0xff, 0x04, 0x00, 0x00, 0x00,
  0x10, 0x05, 0x00, 0x00, 0x98, 0x93, 0xf6, 0xbd, 0x02, 0x59, 0xdd, 0xbd,
  0x42, 0xbb, 0x43, 0x3e, 0x6e, 0x49, 0xe5, 0x3d, 0xd4, 0x66, 0x6d, 0x3d,
  0x8a, 0x0a, 0x89, 0xbd, 0xb7, 0x49, 0x8b, 0x3d, 0x30, 0xea, 0x67, 0x3e,
  0x61, 0xeb, 0x25, 0x3e, 0x43, 0xf9, 0x82, 0x3e, 0xae, 0xa1, 0x05, 0xbe,
  0x72, 0xc0, 0x86, 0x3e, 0x4f, 0x6b, 0x2a, 0x3e, 0x6c, 0xf6, 0xc9, 0x3e,
  0x52, 0x4b, 0xb4, 0xbd, 0x7f, 0xbd, 0xbf, 0x3e, 0x1a, 0x74, 0x23, 0xbe,
  0xd6, 0x4b, 0x8a, 0xbe, 0x74, 0xa3, 0x86, 0xbd, 0x7c, 0x7f, 0x48, 0xbe,
  0x51, 0x56, 0x38, 0xbd, 0xf2, 0xed, 0x37, 0xbe, 0xd8, 0xc8, 0xe2, 0x3b,
  0x39, 0x78, 0xfa, 0x3d, 0xe9, 0x2e, 0xea, 0xbc, 0xc2, 0x05, 0x69, 0x3e,
  0xb9, 0x79, 0x85, 0xbd, 0xe6, 0x0f, 0xa6, 0xbd, 0xe0, 0x30, 0x63, 0xbe,
  0x08, 0xd9, 0x4e, 0xbe, 0xbd, 0x8d, 0xca, 0x3c, 0xea, 0x4b, 0xf4, 0x3e,
  0x08, 0x9f, 0xbe, 0xbc, 0xd3, 0xb3, 0xcc, 0x3e, 0x06, 0x78, 0xdd, 0x3d,
  0x53, 0x68, 0x8e, 0x3e, 0xdb, 0xb4, 0xe3, 0x3d, 0xc2, 0x1f, 0xee, 0x3c,
  0xff, 0xcc, 0x39, 0x3d, 0xa6, 0xe4, 0xea, 0xbd, 0x59, 0xbe, 0x03, 0x3e,
  0x2b, 0x48, 0x4d, 0x3e, 0x8e, 0xf8, 0xa0, 0x3e, 0xa8, 0x02, 0x78, 0xbe,
  0x64, 0x9e, 0x0e, 0x3c, 0x1a, 0x50, 0x05, 0xbc, 0xb0, 0xf0, 0x91, 0x3c,
  0x02, 0xf1, 0xa5, 0xbe, 0xd2, 0x1f, 0xb7, 0x3d, 0x77, 0x97, 0xac, 0x3e,
  0xb7, 0x7d, 0x2b, 0xbd, 0x35, 0x8d, 0x54, 0xbd, 0x35, 0x1d, 0x81, 0xbe,
  0x71, 0xab, 0x93, 0x3d, 0x47, 0x64, 0x5b, 0x3d, 0x5f, 0x34, 0x1a, 0x3b,
  0x70, 0xce, 0x50, 0xbe, 0x7b, 0xd2, 0x3a, 0x3e, 0x1d, 0xf2, 0xa9, 0x3c,
  0x00, 0x8a, 0x9a, 0xbd, 0xd2, 0xa6, 0x06, 0x3d, 0xec, 0x7c, 0x8d, 0xbd,
  0x01, 0x4f, 0x37, 0x3e, 0xb5, 0x1a, 0x9a, 0x3d, 0x12, 0x1f, 0x99, 0x3d,
  0x88, 0xf3, 0x7a, 0x3d, 0xb0, 0xc5, 0xae, 0x3d, 0xbc, 0x95, 0x54, 0xbe,
  0xc9, 0x11, 0x10, 0x3e, 0xff, 0x05, 0x02, 0xbe, 0xb9, 0xc0, 0x10, 0x3d,
  0x43, 0x9f, 0xc1, 0x3e, 0x0f, 0x2d, 0xb8, 0x3d, 0xd0, 0x3e, 0x64, 0x3e,
  0x31, 0x39, 0x3c, 0xbe, 0xe6, 0x7c, 0xe0, 0xbd, 0x34, 0xcd, 0x89, 0xbe,
  0x1f, 0xea, 0x79, 0x3e, 0xc6, 0xb3, 0x84, 0xbe, 0x4c, 0x7f, 0x0f, 0xbe,
  0x20, 0x91, 0x27, 0x3e, 0xdc, 0x8e, 0x52, 0x3d, 0x47, 0xf9, 0x04, 0xbe,
  0x30, 0x8c, 0xb9, 0x3d, 0x0c, 0xe5, 0x6a, 0xbe, 0x85, 0x98, 0xd0, 0xbb,
  0x7c, 0xed, 0x34, 0x3e, 0x30, 0x92, 0x12, 0xbe, 0xcf, 0xd4, 0x41, 0x3d,
  0xe3, 0xab, 0x54, 0x3d, 0x9a, 0x5f, 0x6e, 0xbb, 0xa5, 0x65, 0xc7, 0xbe,
  0x45, 0xb5, 0xa9, 0x3e, 0x37, 0x1d, 0x06, 0x3e, 0xdb, 0x6d, 0x21, 0x3e,
  0x4b, 0x42, 0x96, 0x3e, 0x4e, 0x70, 0x09, 0xbe, 0x84, 0x68, 0xd9, 0xbe,
  0x9d, 0xe5, 0x92, 0x3e, 0x02, 0x02, 0xc2, 0xbd, 0xf2, 0xe7, 0xc1, 0x3d,
  0x81, 0x24, 0x0e, 0x3e, 0x20, 0x5c, 0x6e, 0xbc, 0x5d, 0x15, 0x96, 0xbe,
  0x8a, 0x71, 0x97, 0x3e, 0xf3, 0xf9, 0x07, 0x3e, 0x90, 0x13, 0x20, 0xbe,
  0x57, 0xf9, 0xa0, 0x3e, 0x1e, 0xec, 0x20, 0x3e, 0xe0, 0x7e, 0x84, 0x3e,
  0x97, 0x7e, 0xe9, 0x3d, 0x12, 0x3e, 0x7e, 0xbe, 0xeb, 0xe9, 0xa2, 0xbc,
  0x6d, 0x0b, 0xee, 0x3d, 0x05, 0x14, 0x22, 0xbd, 0xc2, 0x20, 0x2b, 0x3d,
  0xee, 0x85, 0xfc, 0x3d, 0xbe, 0x3e, 0x32, 0x3e, 0x34, 0x08, 0x61, 0x3c,
  0x61, 0xf0, 0x47, 0xbd, 0xb0, 0x05, 0x46, 0xbe, 0x67, 0x3e, 0xbc, 0xbd,
  0xa5, 0xdd, 0xb8, 0x3e, 0x7d, 0xf3, 0x83, 0xbe, 0xa1, 0x1d, 0x97, 0xbe,
  0x2f, 0x69, 0x19, 0xbe, 0x3c, 0x54, 0x11, 0xbe, 0x8e, 0xab, 0x0a, 0x3e,
  0xa8, 0x93, 0x69, 0x3e, 0x5c, 0x1d, 0xbd, 0xbd, 0xdf, 0x32, 0x49, 0x3d,
  0x37, 0x05, 0xb5, 0xbe, 0x95, 0xd2, 0x42, 0x3e, 0xb0, 0xb1, 0x9b, 0x3e,
  0xd2, 0xae, 0x0b, 0x3e, 0x1d, 0xc2, 0x07, 0x3e, 0x04, 0x04, 0xe1, 0x3d,
  0x7f, 0x3a, 0xa3, 0xbd, 0x2d, 0x24, 0x89, 0x3e, 0x62, 0x24, 0x98, 0x3e,
  0xb6, 0x6e, 0x58, 0x3e, 0x2a, 0xc5, 0x3b, 0x3e, 0x71, 0x8f, 0x49, 0xbd,
  0x38, 0xeb, 0x36, 0xbe, 0xdd, 0xd9, 0x85, 0x3e, 0x88, 0xae, 0x01, 0x3f,
  0x78, 0x96, 0x3d, 0x3e, 0x74, 0x58, 0x7f, 0x3e, 0x88, 0x37, 0xd9, 0xbd,
  0xf9, 0x81, 0x1a, 0xbe, 0xe8, 0x4a, 0xcd, 0xbd, 0xc8, 0xb1, 0x38, 0x3e,
  0xc6, 0x82, 0x86, 0x3e, 0x76, 0xc7, 0x72, 0x3e, 0x30, 0xf5, 0xbd, 0xbd,
  0xe2, 0x4f, 0xa7, 0xbe, 0xf8, 0x15, 0x25, 0x3e, 0xc2, 0xa8, 0xed, 0x3e,
  0x68, 0x43, 0x97, 0x3d, 0x9c, 0x1a, 0x1c, 0xbd, 0x38, 0x51, 0x35, 0x3e,
  0x5d, 0x27, 0x10, 0xbe, 0x3a, 0xe2, 0x24, 0xbe, 0x22, 0x50, 0x62, 0xbe,
  0xd6, 0xe1, 0x44, 0x3e, 0x19, 0xe1, 0xdd, 0x3c, 0xef, 0x4a, 0x33, 0x3e,
  0x43, 0x11, 0xa6, 0x3d, 0x6a, 0xe5, 0xc1, 0xbd, 0xe3, 0x26, 0xf8, 0x3d,
  0x40, 0x2f, 0xf0, 0x3d, 0xc4, 0x70, 0x69, 0xbe, 0x41, 0xd1, 0x47, 0xbe,
  0x90, 0xc2, 0x1b, 0x3e, 0xb1, 0xa3, 0x37, 0x3e, 0xe8, 0x46, 0x10, 0xbe,
  0x4c, 0xa8, 0xa9, 0x3d, 0x2c, 0x9d, 0x41, 0xbe, 0x90, 0xa8, 0x09, 0x3e,
  0x32, 0xa1, 0xb8, 0x3d, 0x55, 0xfc, 0x4c, 0xbe, 0xdd, 0x9a, 0x2a, 0x3e,
  0x3a, 0xb2, 0x04, 0x3d, 0x69, 0x69, 0x12, 0x3e, 0x52, 0x7c, 0xd4, 0xbd,
  0x64, 0x95, 0x0b, 0xbe, 0xad, 0xc6, 0x1c, 0xbd, 0x37, 0xdf, 0x02, 0xbe,
  0x07, 0x53, 0xcc, 0x3d, 0x80, 0xd9, 0x6f, 0xbe, 0xcc, 0x37, 0xe1, 0xbd,
  0x8f, 0x1f, 0x82, 0x3d, 0x60, 0xb6, 0x86, 0xbc, 0x6b, 0x90, 0x31, 0xbc,
  0x1b, 0x21, 0x47, 0xbe, 0xe1, 0xbb, 0x6f, 0xbe, 0x6d, 0x3c, 0x33, 0xbe,
  0x8c, 0xd2, 0x05, 0xbe, 0x86, 0x97, 0x88, 0xbd, 0xfc, 0x2a, 0x0d, 0x3c,
  0xcd, 0x65, 0x70, 0xbe, 0x5a, 0x4b, 0x78, 0x3d, 0xe1, 0x11, 0xdd, 0xbd,
  0xf4, 0x16, 0x24, 0x3c, 0xa6, 0xe4, 0x28, 0x3e, 0x66, 0x31, 0x1a, 0x3e,
  0x75, 0xef, 0x1d, 0x3e, 0x2d, 0x6f, 0x14, 0xbd, 0x95, 0xd6, 0x1c, 0x3e,
  0x6c, 0x1b, 0x7c, 0xbe, 0x71, 0x69, 0x32, 0x3e, 0xea, 0xb2, 0x57, 0xbd,
  0xe8, 0x60, 0x9b, 0xbd, 0xec, 0x37, 0x99, 0xbd, 0x03, 0x3e, 0x38, 0xbe,
  0x72, 0x7f, 0xa0, 0x3d, 0x1e, 0x13, 0x48, 0x3e, 0x06, 0x84, 0x48, 0x3e,
  0xad, 0x76, 0xac, 0xbd, 0x5e, 0x5b, 0x18, 0xbe, 0x81, 0xc3, 0xe5, 0xbd,
  0xeb, 0xb6, 0x9d, 0x3d, 0x64, 0x15, 0x43, 0xbd, 0xa8, 0x49, 0x73, 0xbe,
  0x43, 0x47, 0x7f, 0xbd, 0x7a, 0xdf, 0x26, 0xbd, 0xdb, 0x1d, 0xd3, 0xbc,
  0x9a, 0x76, 0x61, 0x3e, 0xec, 0xe3, 0x70, 0xbe, 0x39, 0xe5, 0xe9, 0xbd,
  0x03, 0x45, 0x4d, 0x3e, 0x55, 0xbc, 0xad, 0x3d, 0xaf, 0xcb, 0xb2, 0xbd,
  0x9f, 0x62, 0x95, 0x3d, 0x7e, 0xb4, 0x6d, 0xbe, 0x35, 0x2f, 0x56, 0xbe,
  0xde, 0x75, 0x52, 0x3e, 0x98, 0x89, 0x20, 0xbd, 0x0e, 0xf5, 0x87, 0x3c,
  0xd1, 0x19, 0x16, 0xbe, 0x29, 0x5e, 0x23, 0x3c, 0x83, 0x29, 0x98, 0x3d,
  0x57, 0x20, 0xdf, 0x3c, 0x15, 0xfb, 0x00, 0xbd, 0x90, 0xa7, 0x1d, 0xbe,
  0xb8, 0x4f, 0x1d, 0xbe, 0x24, 0x0e, 0xa9, 0x3d, 0xce, 0xc7, 0x1a, 0x3e,
  0xe9, 0x45, 0x91, 0xbd, 0x77, 0x37, 0x55, 0xbe, 0x53, 0x03, 0x12, 0x3e,
  0xeb, 0x1d, 0xa5, 0x3c, 0x47, 0x94, 0xe4, 0xbb, 0xfc, 0x6d, 0x30, 0xbd,
  0xef, 0x77, 0x3e, 0xbe, 0x43, 0x62, 0x25, 0xbe, 0x11, 0xe3, 0xef, 0xbd,
  0x7c, 0xbf, 0x80, 0x3d, 0x31, 0x08, 0xf2, 0xbd, 0x44, 0xa2, 0xe4, 0xbd,
  0x2d, 0x44, 0x55, 0x3e, 0xd6, 0xa1, 0x3a, 0x3e, 0x04, 0xfe, 0x08, 0x3e,
  0x2d, 0x6b, 0x54, 0xbe, 0xb7, 0xdd, 0x74, 0x3e, 0x9a, 0xd4, 0xdc, 0xbd,
  0xac, 0x53, 0xd3, 0xbd, 0xc8, 0x94, 0xa4, 0xbc, 0x13, 0x47, 0xc0, 0xbd,
  0xd8, 0x18, 0x69, 0xbe, 0x42, 0xe1, 0xe5, 0xbd, 0x38, 0xd6, 0x15, 0x3e,
  0x26, 0x25, 0x64, 0xbe, 0x08, 0xc3, 0x87, 0xbe, 0x6d, 0x84, 0x82, 0x3e,
  0xa7, 0x04, 0x29, 0xbc, 0xe3, 0x7d, 0xd6, 0xbd, 0xe0, 0x33, 0x0b, 0x3e,
  0x5c, 0x98, 0x84, 0xbd, 0x76, 0xd7, 0xd1, 0xbc, 0x4f, 0xbb, 0x0f, 0xbe,
  0x50, 0x85, 0x1c, 0x3e, 0x63, 0x83, 0x08, 0x3e, 0xe8, 0x23, 0x69, 0xbe,
  0x63, 0x09, 0x36, 0xbd, 0xd9, 0x8f, 0x9f, 0xbd, 0xff, 0x4d, 0x14, 0x3d,
  0x0d, 0x22, 0x00, 0x3e, 0x28, 0xdd, 0x86, 0xbe, 0xa6, 0x48, 0x2d, 0xbe,
  0x24, 0x3a, 0x06, 0xbc, 0x42, 0x13, 0x49, 0xbe, 0x0a, 0x65, 0xd9, 0x3d,
  0x15, 0x6a, 0x76, 0x3d, 0x1d, 0xc7, 0x0d, 0xbd, 0x29, 0x27, 0xb6, 0xbe,
  0x51, 0xc4, 0x92, 0xbe, 0xd6, 0x2e, 0x92, 0xbe, 0xbc, 0x09, 0x10, 0x3e,
  0xbc, 0x00, 0x45, 0x3e, 0x72, 0xa4, 0xcc, 0xbc, 0x38, 0xc7, 0xa9, 0xbd,
  0x02, 0x14, 0x9d, 0x3e, 0x80, 0x04, 0xab, 0x3d, 0xe2, 0xc1, 0x28, 0x3e,
  0x00, 0xaf, 0x2c, 0x3d, 0x7d, 0xd6, 0xcb, 0xbd, 0xd6, 0x7c, 0xbf, 0xbe,
  0x6b, 0x61, 0x26, 0xbd, 0x3a, 0x5f, 0x14, 0xbe, 0x56, 0xea, 0x8b, 0xbd,
  0x6d, 0x1b, 0x84, 0x3e, 0x76, 0x51, 0x96, 0xbc, 0x4b, 0x90, 0x3c, 0xbd,
  0xca, 0x5c, 0x7a, 0xbd, 0x0d, 0x3e, 0x72, 0xbe, 0xdd, 0x95, 0x8a, 0x3c,
  0x39, 0x27, 0xd8, 0x3e, 0x79, 0x24, 0x0d, 0x3e, 0xd7, 0x4e, 0xbb, 0x3d,
  0xf2, 0x05, 0x31, 0x3e, 0xc3, 0x46, 0x51, 0xbe, 0x44, 0xf0, 0xf8, 0x3d,
  0xa6, 0xfe, 0xb0, 0xbe, 0x3e, 0xfe, 0xff, 0xff, 0x04, 0x00, 0x00, 0x00,
  0xd8, 0x00, 0x00, 0x00, 0x18, 0x85, 0x11, 0x3e, 0xf1, 0x78, 0x1d, 0x3c,
  0x76, 0x7b, 0x49, 0xbe, 0x58, 0x44, 0x48, 0xbe, 0x7c, 0x69, 0x86, 0x3e,
  0x8b, 0x0c, 0x2a, 0x3e, 0xd7, 0x37, 0xe3, 0xbb, 0x27, 0x96, 0xc6, 0xbc,
  0x1f, 0x60, 0x9d, 0xbc, 0xf2, 0xcd, 0x69, 0x3e, 0x00, 0x32, 0xa3, 0x3e,
  0x0f, 0x86, 0xfc, 0x3e, 0xca, 0x98, 0x5e, 0xbe, 0x64, 0xcc, 0x90, 0xbe,
  0xc0, 0x81, 0x54, 0xbd, 0xa0, 0xfe, 0x7c, 0xbe, 0x86, 0xe2, 0x9b, 0xbd,
  0x0a, 0x01, 0xd9, 0xbd, 0xf3, 0xc3, 0xc6, 0xbe, 0x6a, 0xc1, 0x23, 0x3e,
  0xcc, 0x01, 0xd6, 0xbd, 0x15, 0x40, 0x87, 0x3e, 0x94, 0xdd, 0xd0, 0xbd,
  0x5c, 0xcd, 0x2f, 0xbe, 0x98, 0x4c, 0x7d, 0x3e, 0x49, 0xdb, 0xdd, 0xbd,
  0x93, 0xec, 0x94, 0x3e, 0x64, 0x7e, 0x93, 0x3e, 0x54, 0x00, 0x5b, 0x3e,
  0xca, 0x95, 0xe7, 0x3d, 0xd9, 0x53, 0x93, 0xbe, 0x0e, 0x77, 0xa0, 0x3e,
  0x4e, 0x33, 0x93, 0x3d, 0xb3, 0xb6, 0x55, 0xbe, 0xce, 0x65, 0x89, 0xbe,
  0x04, 0x48, 0x96, 0x3e, 0xcb, 0x16, 0x30, 0x3e, 0xb4, 0x73, 0xc4, 0x3e,
  0x8d, 0x23, 0x0c, 0x3e, 0xbb, 0xc8, 0x0d, 0x3e, 0xd0, 0x60, 0x12, 0x3e,
  0xf6, 0x9c, 0x4a, 0x3e, 0x05, 0x7f, 0x93, 0x3e, 0xbb, 0xea, 0x78, 0xbd,
  0x0a, 0x36, 0x0b, 0xbe, 0xa4, 0x38, 0x5a, 0xbe, 0xd8, 0xe6, 0xb3, 0xbd,
  0xc9, 0x9b, 0x02, 0x3e, 0x2b, 0xeb, 0x90, 0xbe, 0xd6, 0xc9, 0x00, 0x3d,
  0xc2, 0x92, 0xc4, 0x3e, 0xcf, 0xf9, 0xc0, 0x3d, 0x8a, 0xf4, 0xdb, 0xbb,
  0x9a, 0xd8, 0x70, 0x3d, 0x22, 0xff, 0xff, 0xff, 0x04, 0x00, 0x00, 0x00,
  0x18, 0x00, 0x00, 0x00, 0x0c, 0x14, 0xac, 0xbd, 0x53, 0x2b, 0x23, 0xbc,
  0xa3, 0x41, 0x73, 0xbd, 0xf5, 0x09, 0xe4, 0xbc, 0x2f, 0xb2, 0xaa, 0xbc,
  0xc0, 0xf3, 0x18, 0xbd, 0x46, 0xff, 0xff, 0xff, 0x04, 0x00, 0x00, 0x00,
  0x18, 0x00, 0x00, 0x00, 0x7a, 0xce, 0x82, 0x3b, 0xee, 0xb5, 0x13, 0xbd,
  0x7b, 0x4a, 0xe0, 0xbc, 0xff, 0x35, 0xa5, 0xbc, 0xb9, 0x3e, 0x12, 0xbc,
  0x73, 0x35, 0x67, 0xbb, 0x28, 0xf5, 0xff, 0xff, 0x2c, 0xf5, 0xff, 0xff,
  0x0f, 0x00, 0x00, 0x00, 0x4d, 0x4c, 0x49, 0x52, 0x20, 0x43, 0x6f, 0x6e,
  0x76, 0x65, 0x72, 0x74, 0x65, 0x64, 0x2e, 0x00, 0x01, 0x00, 0x00, 0x00,
  0x14, 0x00, 0x00, 0x00, 0x00, 0x00, 0x0e, 0x00, 0x18, 0x00, 0x14, 0x00,
  0x10, 0x00, 0x0c, 0x00, 0x08, 0x00, 0x04, 0x00, 0x0e, 0x00, 0x00, 0x00,
  0x14, 0x00, 0x00, 0x00, 0x1c, 0x00, 0x00, 0x00, 0x54, 0x02, 0x00, 0x00,
  0x58, 0x02, 0x00, 0x00, 0x5c, 0x02, 0x00, 0x00, 0x04, 0x00, 0x00, 0x00,
  0x6d, 0x61, 0x69, 0x6e, 0x00, 0x00, 0x00, 0x00, 0x08, 0x00, 0x00, 0x00,
  0xec, 0x01, 0x00, 0x00, 0x88, 0x01, 0x00, 0x00, 0x34, 0x01, 0x00, 0x00,
  0xf0, 0x00, 0x00, 0x00, 0xc8, 0x00, 0x00, 0x00, 0x78, 0x00, 0x00, 0x00,
  0x40, 0x00, 0x00, 0x00, 0x04, 0x00, 0x00, 0x00, 0xa2, 0xfe, 0xff, 0xff,
  0x1c, 0x00, 0x00, 0x00, 0x00, 0x00, 0x00, 0x09, 0x1c, 0x00, 0x00, 0x00,
  0x20, 0x00, 0x00, 0x00, 0x04, 0x00, 0x00, 0x00, 0x00, 0x00, 0x06, 0x00,
  0x08, 0x00, 0x04, 0x00, 0x06, 0x00, 0x00, 0x00, 0x00, 0x00, 0x80, 0x3f,
  0x01, 0x00, 0x00, 0x00, 0x11, 0x00, 0x00, 0x00, 0x01, 0x00, 0x00, 0x00,
  0x10, 0x00, 0x00, 0x00, 0xda, 0xfe, 0xff, 0xff, 0x14, 0x00, 0x00, 0x00,
  0x00, 0x00, 0x00, 0x08, 0x10, 0x00, 0x00, 0x00, 0x14, 0x00, 0x00, 0x00,
  0x03, 0x00, 0x00, 0x00, 0xf4, 0xf5, 0xff, 0xff, 0x01, 0x00, 0x00, 0x00,
  0x10, 0x00, 0x00, 0x00, 0x03, 0x00, 0x00, 0x00, 0x0f, 0x00, 0x00, 0x00,
  0x09, 0x00, 0x00, 0x00, 0x05, 0x00, 0x00, 0x00, 0x0e, 0xff, 0xff, 0xff,
  0x1c, 0x00, 0x00, 0x00, 0x00, 0x00, 0x00, 0x08, 0x1c, 0x00, 0x00, 0x00,
  0x20, 0x00, 0x00, 0x00, 0x03, 0x00, 0x00, 0x00, 0x00, 0x00, 0x06, 0x00,
  0x08, 0x00, 0x07, 0x00, 0x06, 0x00, 0x00, 0x00, 0x00, 0x00, 0x00, 0x01,
  0x01, 0x00, 0x00, 0x00, 0x0f, 0x00, 0x00, 0x00, 0x03, 0x00, 0x00, 0x00,
  0x0e, 0x00, 0x00, 0x00, 0x08, 0x00, 0x00, 0x00, 0x06, 0x00, 0x00, 0x00,
  0x00, 0x00, 0x0a, 0x00, 0x10, 0x00, 0x0c, 0x00, 0x08, 0x00, 0x04, 0x00,
  0x0a, 0x00, 0x00, 0x00, 0x0c, 0x00, 0x00, 0x00, 0x10, 0x00, 0x00, 0x00,
  0x02, 0x00, 0x00, 0x00, 0x01, 0x00, 0x00, 0x00, 0x0e, 0x00, 0x00, 0x00,
  0x02, 0x00, 0x00, 0x00, 0x0d, 0x00, 0x00, 0x00, 0x07, 0x00, 0x00, 0x00,
  0x7e, 0xff, 0xff, 0xff, 0x14, 0x00, 0x00, 0x00, 0x00, 0x00, 0x00, 0x05,
  0x24, 0x00, 0x00, 0x00, 0x28, 0x00, 0x00, 0x00, 0x01, 0x00, 0x00, 0x00,
  0x6e, 0xff, 0xff, 0xff, 0x02, 0x00, 0x00, 0x00, 0x02, 0x00, 0x00, 0x00,
  0x02, 0x00, 0x00, 0x00, 0x02, 0x00, 0x00, 0x00, 0x00, 0x00, 0x00, 0x01,
  0x01, 0x00, 0x00, 0x00, 0x0d, 0x00, 0x00, 0x00, 0x01, 0x00, 0x00, 0x00,
  0x0c, 0x00, 0x00, 0x00, 0x5e, 0xff, 0xff, 0xff, 0x10, 0x00, 0x00, 0x00,
  0x00, 0x00, 0x00, 0x01, 0x1c, 0x00, 0x00, 0x00, 0x20, 0x00, 0x00, 0x00,
  0x50, 0xff, 0xff, 0xff, 0x00, 0x00, 0x00, 0x01, 0x01, 0x00, 0x00, 0x00,
  0x01, 0x00, 0x00, 0x00, 0x00, 0x00, 0x00, 0x01, 0x01, 0x00, 0x00, 0x00,
  0x0c, 0x00, 0x00, 0x00, 0x03, 0x00, 0x00, 0x00, 0x0b, 0x00, 0x00, 0x00,
  0x04, 0x00, 0x00, 0x00, 0x02, 0x00, 0x00, 0x00, 0x00, 0x00, 0x0e, 0x00,
  0x1a, 0x00, 0x14, 0x00, 0x10, 0x00, 0x0c, 0x00, 0x0b, 0x00, 0x04, 0x00,
  0x0e, 0x00, 0x00, 0x00, 0x24, 0x00, 0x00, 0x00, 0x00, 0x00, 0x00, 0x05,
  0x34, 0x00, 0x00, 0x00, 0x38, 0x00, 0x00, 0x00, 0x01, 0x00, 0x00, 0x00,
  0x00, 0x00, 0x0e, 0x00, 0x18, 0x00, 0x17, 0x00, 0x10, 0x00, 0x0c, 0x00,
  0x08, 0x00, 0x04, 0x00, 0x0e, 0x00, 0x00, 0x00, 0x02, 0x00, 0x00, 0x00,
  0x02, 0x00, 0x00, 0x00, 0x02, 0x00, 0x00, 0x00, 0x02, 0x00, 0x00, 0x00,
  0x00, 0x00, 0x00, 0x01, 0x01, 0x00, 0x00, 0x00, 0x0b, 0x00, 0x00, 0x00,
  0x01, 0x00, 0x00, 0x00, 0x0a, 0x00, 0x00, 0x00, 0x00, 0x00, 0x0e, 0x00,
  0x14, 0x00, 0x00, 0x00, 0x10, 0x00, 0x0c, 0x00, 0x0b, 0x00, 0x04, 0x00,
  0x0e, 0x00, 0x00, 0x00, 0x1c, 0x00, 0x00, 0x00, 0x00, 0x00, 0x00, 0x01,
  0x28, 0x00, 0x00, 0x00, 0x2c, 0x00, 0x00, 0x00, 0x0c, 0x00, 0x14, 0x00,
  0x13, 0x00, 0x0c, 0x00, 0x08, 0x00, 0x07, 0x00, 0x0c, 0x00, 0x00, 0x00,
  0x00, 0x00, 0x00, 0x01, 0x01, 0x00, 0x00, 0x00, 0x01, 0x00, 0x00, 0x00,
  0x00, 0x00, 0x00, 0x01, 0x01, 0x00, 0x00, 0x00, 0x0a, 0x00, 0x00, 0x00,
  0x03, 0x00, 0x00, 0x00, 0x00, 0x00, 0x00, 0x00, 0x03, 0x00, 0x00, 0x00,
  0x01, 0x00, 0x00, 0x00, 0x01, 0x00, 0x00, 0x00, 0x11, 0x00, 0x00, 0x00,
  0x01, 0x00, 0x00, 0x00, 0x00, 0x00, 0x00, 0x00, 0x12, 0x00, 0x00, 0x00,
  0x00, 0x08, 0x00, 0x00, 0x8c, 0x07, 0x00, 0x00, 0x18, 0x07, 0x00, 0x00,
  0xc0, 0x06, 0x00, 0x00, 0x68, 0x06, 0x00, 0x00, 0x0c, 0x06, 0x00, 0x00,
  0xb0, 0x05, 0x00, 0x00, 0x60, 0x05, 0x00, 0x00, 0xf8, 0x04, 0x00, 0x00,
  0xa8, 0x04, 0x00, 0x00, 0xac, 0x03, 0x00, 0x00, 0x34, 0x03, 0x00, 0x00,
  0x58, 0x02, 0x00, 0x00, 0xe0, 0x01, 0x00, 0x00, 0x7c, 0x01, 0x00, 0x00,
  0xe0, 0x00, 0x00, 0x00, 0x60, 0x00, 0x00, 0x00, 0x04, 0x00, 0x00, 0x00,
  0x5e, 0xf8, 0xff, 0xff, 0x00, 0x00, 0x00, 0x01, 0x14, 0x00, 0x00, 0x00,
  0x1c, 0x00, 0x00, 0x00, 0x1c, 0x00, 0x00, 0x00, 0x12, 0x00, 0x00, 0x00,
  0x34, 0x00, 0x00, 0x00, 0x02, 0x00, 0x00, 0x00, 0xff, 0xff, 0xff, 0xff,
