#ifndef BBGT_MODEL_H
#define BBGT_MODEL_H


unsigned int bbgt_model_len = 15184;
unsigned char bbgt_model[] = {
 0x20, 0x00, 0x00, 0x00, 0x54, 0x46, 0x4c, 0x33, 0x00, 0x00, 0x00, 0x00,
  0x14, 0x00, 0x20, 0x00, 0x1c, 0x00, 0x18, 0x00, 0x14, 0x00, 0x10, 0x00,
  0x0c, 0x00, 0x00, 0x00, 0x08, 0x00, 0x04, 0x00, 0x14, 0x00, 0x00, 0x00,
  0x1c, 0x00, 0x00, 0x00, 0x8c, 0x00, 0x00, 0x00, 0xe4, 0x00, 0x00, 0x00,
  0x88, 0x2f, 0x00, 0x00, 0x98, 0x2f, 0x00, 0x00, 0xa8, 0x3a, 0x00, 0x00,
  0x03, 0x00, 0x00, 0x00, 0x01, 0x00, 0x00, 0x00, 0x04, 0x00, 0x00, 0x00,
  0x6a, 0xcf, 0xff, 0xff, 0x0c, 0x00, 0x00, 0x00, 0x1c, 0x00, 0x00, 0x00,
  0x3c, 0x00, 0x00, 0x00, 0x0f, 0x00, 0x00, 0x00, 0x73, 0x65, 0x72, 0x76,
  0x69, 0x6e, 0x67, 0x5f, 0x64, 0x65, 0x66, 0x61, 0x75, 0x6c, 0x74, 0x00,
  0x01, 0x00, 0x00, 0x00, 0x04, 0x00, 0x00, 0x00, 0x90, 0xff, 0xff, 0xff,
  0x11, 0x00, 0x00, 0x00, 0x04, 0x00, 0x00, 0x00, 0x08, 0x00, 0x00, 0x00,
  0x64, 0x65, 0x6e, 0x73, 0x65, 0x5f, 0x31, 0x37, 0x00, 0x00, 0x00, 0x00,
  0x01, 0x00, 0x00, 0x00, 0x04, 0x00, 0x00, 0x00, 0x52, 0xd0, 0xff, 0xff,
  0x04, 0x00, 0x00, 0x00, 0x0e, 0x00, 0x00, 0x00, 0x63, 0x6f, 0x6e, 0x76,
  0x32, 0x64, 0x5f, 0x36, 0x5f, 0x69, 0x6e, 0x70, 0x75, 0x74, 0x00, 0x00,
  0x02, 0x00, 0x00, 0x00, 0x34, 0x00, 0x00, 0x00, 0x04, 0x00, 0x00, 0x00,
  0xdc, 0xff, 0xff, 0xff, 0x14, 0x00, 0x00, 0x00, 0x04, 0x00, 0x00, 0x00,
  0x13, 0x00, 0x00, 0x00, 0x43, 0x4f, 0x4e, 0x56, 0x45, 0x52, 0x53, 0x49,
  0x4f, 0x4e, 0x5f, 0x4d, 0x45, 0x54, 0x41, 0x44, 0x41, 0x54, 0x41, 0x00,
  0x08, 0x00, 0x0c, 0x00, 0x08, 0x00, 0x04, 0x00, 0x08, 0x00, 0x00, 0x00,
  0x13, 0x00, 0x00, 0x00, 0x04, 0x00, 0x00, 0x00, 0x13, 0x00, 0x00, 0x00,
  0x6d, 0x69, 0x6e, 0x5f, 0x72, 0x75, 0x6e, 0x74, 0x69, 0x6d, 0x65, 0x5f,
  0x76, 0x65, 0x72, 0x73, 0x69, 0x6f, 0x6e, 0x00, 0x15, 0x00, 0x00, 0x00,
  0xa0, 0x2e, 0x00, 0x00, 0x98, 0x2e, 0x00, 0x00, 0x98, 0x2d, 0x00, 0x00,
  0x60, 0x2d, 0x00, 0x00, 0x28, 0x2d, 0x00, 0x00, 0xb0, 0x2b, 0x00, 0x00,
  0x90, 0x1d, 0x00, 0x00, 0x74, 0x1d, 0x00, 0x00, 0x14, 0x1d, 0x00, 0x00,
  0xfc, 0x1c, 0x00, 0x00, 0xcc, 0x00, 0x00, 0x00, 0xc4, 0x00, 0x00, 0x00,
  0xbc, 0x00, 0x00, 0x00, 0xb4, 0x00, 0x00, 0x00, 0xac, 0x00, 0x00, 0x00,
  0xa4, 0x00, 0x00, 0x00, 0x9c, 0x00, 0x00, 0x00, 0x94, 0x00, 0x00, 0x00,
  0x8c, 0x00, 0x00, 0x00, 0x6c, 0x00, 0x00, 0x00, 0x04, 0x00, 0x00, 0x00,
  0x22, 0xd1, 0xff, 0xff, 0x04, 0x00, 0x00, 0x00, 0x58, 0x00, 0x00, 0x00,
  0x0c, 0x00, 0x00, 0x00, 0x08, 0x00, 0x0e, 0x00, 0x08, 0x00, 0x04, 0x00,
  0x08, 0x00, 0x00, 0x00, 0x10, 0x00, 0x00, 0x00, 0x28, 0x00, 0x00, 0x00,
  0x00, 0x00, 0x06, 0x00, 0x08, 0x00, 0x04, 0x00, 0x06, 0x00, 0x00, 0x00,
  0x04, 0x00, 0x00, 0x00, 0x01, 0x00, 0x00, 0x00, 0xea, 0x03, 0x00, 0x00,
  0x00, 0x00, 0x0a, 0x00, 0x10, 0x00, 0x0c, 0x00, 0x08, 0x00, 0x04, 0x00,
  0x0a, 0x00, 0x00, 0x00, 0x02, 0x00, 0x00, 0x00, 0x02, 0x00, 0x00, 0x00,
  0x04, 0x00, 0x00, 0x00, 0x06, 0x00, 0x00, 0x00, 0x32, 0x2e, 0x31, 0x35,
  0x2e, 0x30, 0x00, 0x00, 0x86, 0xd1, 0xff, 0xff, 0x04, 0x00, 0x00, 0x00,
  0x10, 0x00, 0x00, 0x00, 0x32, 0x2e, 0x33, 0x2e, 0x30, 0x00, 0x00, 0x00,
  0x00, 0x00, 0x00, 0x00, 0x00, 0x00, 0x00, 0x00, 0x4c, 0xc7, 0xff, 0xff,
  0x50, 0xc7, 0xff, 0xff, 0x54, 0xc7, 0xff, 0xff, 0x58, 0xc7, 0xff, 0xff,
  0x5c, 0xc7, 0xff, 0xff, 0x60, 0xc7, 0xff, 0xff, 0x64, 0xc7, 0xff, 0xff,
  0x68, 0xc7, 0xff, 0xff, 0xc2, 0xd1, 0xff, 0xff, 0x04, 0x00, 0x00, 0x00,
  0x20, 0x1c, 0x00, 0x00, 0xf8, 0x05, 0x39, 0x02, 0xf6, 0xfb, 0xf4, 0xf8,
  0x08, 0x0d, 0x10, 0x1c, 0x05, 0x12, 0x16, 0x29, 0x0a, 0x11, 0x29, 0x20,
  0x24, 0x16, 0xf0, 0xe5, 0x02, 0xee, 0xd4, 0xf5, 0x37, 0xfc, 0x1e, 0xd2,
  0xe4, 0x0d, 0xe5, 0x27, 0x23, 0x06, 0xdd, 0xe1, 0x3d, 0xf6, 0xe6, 0xd7,
  0x43, 0x3f, 0xf9, 0xdd, 0x02, 0xf3, 0x31, 0x03, 0x00, 0x1c, 0x42, 0xfb,
  0xf3, 0xfb, 0x06, 0xfc, 0xea, 0x25, 0x3d, 0xea, 0x08, 0x0e, 0x17, 0x39,
  0x36, 0x4a, 0xe1, 0x35, 0x4b, 0xcd, 0xd4, 0x38, 0xf8, 0xfa, 0xf0, 0x36,
  0xd6, 0x13, 0x00, 0x02, 0xc4, 0x19, 0x0c, 0xea, 0x3d, 0x13, 0x2a, 0x0d,
  0xe7, 0x0f, 0xdd, 0xf2, 0xdd, 0x09, 0x28, 0xf4, 0x0b, 0x2b, 0xd6, 0xf6,
  0x03, 0x24, 0xd2, 0xca, 0x00, 0xe6, 0x57, 0xff, 0xd5, 0x35, 0x36, 0x55,
  0xc2, 0xfa, 0x03, 0xfd, 0xcc, 0x17, 0x38, 0xfb, 0xfc, 0xe8, 0x2c, 0x0d,
  0x1a, 0x4d, 0xd8, 0x16, 0x0f, 0x0f, 0xd8, 0xd9, 0x2e, 0x08, 0x46, 0x56,
  0xde, 0x2e, 0xf5, 0xdf, 0xd1, 0xeb, 0x10, 0xb3, 0x08, 0x44, 0x09, 0x23,
  0xa3, 0x4f, 0xc3, 0xfa, 0xca, 0xb0, 0xe1, 0xd7, 0xe9, 0x20, 0xec, 0x21,
  0x0f, 0x05, 0xca, 0xb8, 0xfa, 0xf4, 0x2b, 0x02, 0xdd, 0x17, 0x42, 0x39,
  0xbc, 0xb0, 0x0b, 0x04, 0x05, 0x46, 0x38, 0x19, 0x02, 0x1e, 0x08, 0x10,
  0x3c, 0x1d, 0xd4, 0x12, 0x44, 0xf5, 0xec, 0xff, 0xfb, 0x43, 0x1c, 0x12,
  0xc5, 0xd3, 0xf6, 0x1f, 0x93, 0xa0, 0x4a, 0xe7, 0x2e, 0x1c, 0xde, 0xd2,
  0x91, 0x48, 0xdc, 0xfb, 0x12, 0x9e, 0x33, 0xf9, 0xd0, 0x0c, 0xe1, 0x49,
  0x28, 0xf7, 0xdf, 0xe9, 0xef, 0xd1, 0xeb, 0xff, 0xc9, 0xf9, 0x38, 0x5d,
  0xcb, 0xe9, 0xe3, 0xf7, 0xd2, 0x34, 0x12, 0x10, 0x25, 0x2d, 0x08, 0x06,
  0xd3, 0x18, 0xdd, 0x1a, 0xfe, 0xb7, 0xd7, 0xef, 0xf3, 0x26, 0xf1, 0xe6,
  0xf3, 0x17, 0x18, 0x51, 0xba, 0xbd, 0x1e, 0xf2, 0xf5, 0xf1, 0x2e, 0xf9,
  0x02, 0x62, 0xeb, 0xb4, 0x1d, 0xed, 0xe6, 0xe2, 0x35, 0x12, 0xe9, 0xfd,
  0xea, 0xe5, 0xe1, 0xcb, 0xee, 0xde, 0x28, 0x2e, 0xe1, 0x05, 0xd6, 0xe5,
  0xdf, 0x38, 0xcf, 0x24, 0x38, 0xec, 0x09, 0x22, 0x34, 0x08, 0xe2, 0xf0,
  0xfb, 0xd9, 0x15, 0xf1, 0xdd, 0x01, 0x17, 0xf3, 0xfb, 0x1d, 0xf6, 0xe4,
  0x23, 0xb2, 0x23, 0x4b, 0xea, 0xeb, 0x4d, 0x16, 0xf4, 0x2f, 0x2d, 0xc5,
  0x0f, 0x0a, 0x01, 0xa7, 0x59, 0x07, 0xde, 0x1c, 0x3d, 0xee, 0x0a, 0x12,
  0x0b, 0xeb, 0x0d, 0x23, 0xe4, 0x14, 0x2e, 0xec, 0x0c, 0x00, 0xdb, 0xed,
  0xdc, 0x21, 0xfd, 0xe8, 0xfb, 0xe4, 0x02, 0x32, 0x16, 0x10, 0x04, 0xe0,
  0xdc, 0x0f, 0xf2, 0xee, 0x09, 0x02, 0xf7, 0x34, 0xe9, 0xef, 0x09, 0xf8,
  0xfd, 0x2a, 0xe2, 0xe2, 0x2e, 0x1b, 0xdf, 0xef, 0xfd, 0xf1, 0xce, 0x25,
  0xf2, 0xd6, 0x16, 0x19, 0xbb, 0x01, 0xf8, 0xca, 0xc7, 0x06, 0x16, 0xc8,
  0xf5, 0x2e, 0x25, 0xf7, 0x0c, 0x0f, 0xde, 0xee, 0x2e, 0x17, 0xc7, 0xd6,
  0x00, 0xeb, 0x27, 0x35, 0x24, 0xfe, 0x0c, 0x0a, 0x41, 0xf6, 0xf5, 0xe9,
  0xe6, 0xe3, 0x36, 0xe0, 0xce, 0x34, 0x06, 0x54, 0xd1, 0xef, 0x02, 0x0b,
  0x1c, 0xf1, 0xea, 0xd1, 0x11, 0x37, 0xd6, 0x0a, 0x14, 0x14, 0xb2, 0x23,
  0xf7, 0x1b, 0xfc, 0x11, 0xdf, 0x14, 0x3b, 0xbc, 0x15, 0x29, 0x0e, 0xb7,
  0x12, 0x17, 0x0d, 0x06, 0x17, 0x0b, 0xd8, 0x32, 0xf8, 0xfa, 0xda, 0xd3,
  0x34, 0x38, 0xf6, 0x0e, 0x2d, 0x0e, 0xd2, 0xe9, 0x20, 0x0c, 0x10, 0xe7,
  0xd3, 0xfc, 0x21, 0x25, 0x0a, 0xdd, 0xef, 0x2a, 0xdf, 0xd5, 0x1d, 0xed,
  0x03, 0xff, 0xe8, 0xd8, 0xce, 0x17, 0xe5, 0x34, 0x27, 0x35, 0x05, 0x42,
  0xda, 0xde, 0xe8, 0x09, 0xdb, 0x1d, 0xf8, 0x0a, 0x28, 0x0d, 0x21, 0xf0,
  0x12, 0x2c, 0xf7, 0x11, 0xf2, 0x01, 0x1a, 0x0f, 0x2c, 0x09, 0xea, 0xcf,
  0x09, 0x1f, 0xf0, 0x1a, 0x48, 0xbd, 0xf3, 0x29, 0xdd, 0xd0, 0x0f, 0xf5,
  0x1d, 0xfd, 0x15, 0xdf, 0xd7, 0x11, 0x07, 0x13, 0x2e, 0x02, 0xe7, 0x0d,
  0x0c, 0x27, 0x21, 0xe1, 0xcf, 0xf2, 0xda, 0xec, 0x29, 0x21, 0xed, 0x09,
  0xe8, 0xde, 0xed, 0x13, 0x0e, 0x00, 0x37, 0x27, 0x09, 0xe2, 0xf0, 0xe6,
  0xf4, 0xeb, 0xf5, 0xe9, 0x07, 0x02, 0x48, 0xd9, 0x0f, 0x20, 0x34, 0xb0,
  0x08, 0xd9, 0x0c, 0xe0, 0x05, 0x0c, 0x37, 0xe9, 0xcb, 0xae, 0x65, 0x3d,
  0xfa, 0x3b, 0xf0, 0x36, 0x0e, 0x35, 0xc6, 0xcf, 0x49, 0x52, 0xde, 0x32,
  0xce, 0x05, 0x39, 0xcf, 0xdd, 0xf1, 0x1e, 0x1e, 0xf3, 0x49, 0xeb, 0xe8,
  0xf4, 0xc7, 0x06, 0x08, 0xdc, 0x08, 0x23, 0xf4, 0xfa, 0xf2, 0x0f, 0xe8,
  0x12, 0xf3, 0xd1, 0xd2, 0xcc, 0xdd, 0x1e, 0x01, 0xc1, 0x13, 0x3b, 0x0d,
  0xc2, 0xa6, 0xd8, 0xe9, 0xea, 0x15, 0x1f, 0xee, 0xf3, 0x10, 0x4a, 0x33,
  0xdf, 0x36, 0xc9, 0x19, 0x25, 0xe4, 0x02, 0x0f, 0x5a, 0x4d, 0x2b, 0x1e,
  0xe1, 0x08, 0x44, 0x03, 0xbc, 0x04, 0x0f, 0xf9, 0xf6, 0x0f, 0xe4, 0x22,
  0xde, 0xf3, 0x07, 0xd3, 0x0d, 0x0c, 0xfa, 0xea, 0xe3, 0xf9, 0xc1, 0xfe,
  0x38, 0xed, 0xca, 0xc4, 0x13, 0xa8, 0x12, 0xdb, 0xfe, 0xf3, 0x2c, 0xf2,
  0xf7, 0xd5, 0xf6, 0xb4, 0x29, 0xd8, 0xd8, 0x13, 0xde, 0x02, 0x07, 0x15,
  0x01, 0xe9, 0xfd, 0x0b, 0x16, 0x2f, 0xf2, 0xfc, 0xec, 0xf2, 0xca, 0x06,
  0xd0, 0x21, 0xe1, 0xee, 0xdf, 0x32, 0xd1, 0xc3, 0xff, 0xe6, 0xba, 0x16,
  0xfe, 0xc3, 0xde, 0x2a, 0xeb, 0x0d, 0xe6, 0x0c, 0x05, 0x29, 0x1b, 0xe0,
  0x0a, 0xec, 0x02, 0x09, 0x1f, 0xef, 0xd0, 0xe5, 0xf0, 0x27, 0xfd, 0xf7,
  0x08, 0x27, 0x13, 0x01, 0x03, 0xe1, 0xfa, 0x31, 0x48, 0xea, 0xdf, 0xc9,
  0xcf, 0xc8, 0x42, 0x07, 0xd5, 0x13, 0x3b, 0x4b, 0xdc, 0xe7, 0x08, 0xf3,
  0x12, 0xef, 0xc3, 0xcf, 0x1a, 0xfe, 0xe9, 0xca, 0xd2, 0x15, 0xbc, 0x1d,
  0xed, 0xe1, 0xef, 0x36, 0xdc, 0xde, 0x25, 0xce, 0xe5, 0x29, 0xf0, 0x01,
  0x0d, 0xfe, 0x26, 0xfd, 0x25, 0x1e, 0xbb, 0xfc, 0x40, 0xe0, 0xe3, 0xd4,
  0x1c, 0x25, 0x0f, 0x46, 0x37, 0xc8, 0xaf, 0x2b, 0x03, 0xf9, 0xf9, 0xbc,
  0xe3, 0xda, 0x10, 0x0e, 0xd2, 0x23, 0xf4, 0x3a, 0xe6, 0xd3, 0x0b, 0xec,
  0x26, 0x28, 0x19, 0xe7, 0x06, 0x12, 0xf6, 0x2d, 0x16, 0x09, 0x0a, 0x38,
  0x09, 0xeb, 0xf7, 0x47, 0xf3, 0xea, 0x19, 0xe1, 0xf3, 0x0c, 0xe8, 0xb4,
  0xed, 0x3a, 0xe1, 0x18, 0x1f, 0xed, 0xed, 0x04, 0x12, 0xe2, 0xb2, 0xa9,
  0x38, 0x35, 0xef, 0x2c, 0x2f, 0xec, 0x08, 0xfe, 0xde, 0xd5, 0xdd, 0xec,
  0xf9, 0x08, 0x30, 0xe1, 0xe9, 0x0a, 0xdb, 0x05, 0xe0, 0x12, 0x11, 0x24,
  0x12, 0x29, 0x36, 0xee, 0x28, 0x10, 0xf9, 0x22, 0xef, 0x27, 0x01, 0x2c,
  0x07, 0xc1, 0x15, 0x0f, 0xda, 0x34, 0x0f, 0x0b, 0xf8, 0x24, 0xfd, 0xef,
  0xef, 0x17, 0x09, 0xf9, 0x2e, 0x11, 0x46, 0xd1, 0xf0, 0x31, 0xe0, 0xd1,
  0xe7, 0x04, 0xfe, 0xfb, 0xbf, 0xe5, 0x29, 0x37, 0xe0, 0xf2, 0x22, 0x3e,
  0xf6, 0x0e, 0xd1, 0xdb, 0x05, 0x16, 0xec, 0xea, 0x55, 0x16, 0x23, 0x06,
  0xdf, 0xf3, 0x0c, 0xf2, 0xd5, 0x35, 0xf5, 0x03, 0x19, 0x19, 0xde, 0x0e,
  0x02, 0xbb, 0xf3, 0x16, 0xcb, 0xeb, 0x20, 0xeb, 0xf2, 0x1a, 0xe1, 0xe3,
  0x02, 0xe3, 0xd9, 0xd0, 0x0b, 0x02, 0x46, 0xc5, 0xbb, 0x06, 0x0a, 0xd7,
  0x0d, 0xfe, 0x02, 0xab, 0x08, 0xd3, 0x1a, 0xe3, 0xc4, 0x0d, 0x2d, 0x30,
  0xed, 0x46, 0xdf, 0xe3, 0x09, 0xd6, 0xe1, 0x02, 0x2c, 0x0e, 0x19, 0x1f,
  0xee, 0xf3, 0x20, 0xe9, 0xfe, 0x07, 0x2b, 0x2a, 0x03, 0x07, 0x07, 0xea,
  0xfd, 0xd3, 0x1c, 0x0f, 0xfa, 0xe2, 0x15, 0x14, 0xd1, 0x01, 0xc3, 0x0a,
  0xfd, 0xff, 0x11, 0xc2, 0xeb, 0xdb, 0xfe, 0x01, 0xd6, 0x12, 0x49, 0x05,
  0x19, 0xec, 0xe9, 0xff, 0xf0, 0xf9, 0xed, 0xe1, 0xfa, 0xe4, 0xea, 0x23,
  0x15, 0x0e, 0x0a, 0xff, 0xf6, 0x19, 0xd3, 0xe9, 0x11, 0x0d, 0xf2, 0xe3,
  0xfe, 0xfa, 0x09, 0x15, 0x03, 0x01, 0x49, 0xe4, 0xea, 0xeb, 0x28, 0xc4,
  0x34, 0x07, 0x04, 0xd9, 0x26, 0x04, 0x11, 0x2d, 0xe8, 0xc7, 0xf9, 0x35,
  0xdf, 0xbf, 0x1e, 0x2a, 0xdd, 0xf2, 0xfd, 0x11, 0x1c, 0x15, 0x1f, 0xf9,
  0x24, 0x20, 0x10, 0x1e, 0xde, 0x03, 0xea, 0x15, 0xf9, 0x04, 0xfd, 0x1f,
  0xe1, 0x2b, 0xeb, 0xcc, 0xe8, 0xdc, 0xed, 0xf4, 0xe4, 0x06, 0xf9, 0x14,
  0x52, 0x08, 0x14, 0x1b, 0x27, 0xe9, 0x3d, 0xfe, 0xc6, 0xe3, 0x1e, 0xf5,
  0x56, 0xe3, 0xf9, 0xfc, 0x17, 0xfe, 0xc3, 0x28, 0xe9, 0xc1, 0xee, 0x05,
  0xdf, 0xc4, 0x4f, 0x48, 0x1a, 0x40, 0xff, 0x11, 0xd5, 0x03, 0x11, 0x04,
  0xf5, 0xd8, 0xd4, 0x08, 0xfa, 0x17, 0x1b, 0x15, 0xe8, 0xc5, 0xce, 0x06,
  0x11, 0x00, 0x20, 0xf9, 0xe6, 0x43, 0x17, 0x06, 0xdb, 0xf5, 0xbe, 0xbd,
  0x4c, 0xbf, 0x31, 0x3b, 0x20, 0xfb, 0xf6, 0x39, 0xff, 0xe1, 0x1b, 0xf0,
  0x47, 0xf5, 0x01, 0xd8, 0x18, 0x41, 0xd6, 0x05, 0x22, 0xcd, 0x36, 0xe5,
  0xc5, 0xa4, 0x0f, 0x0d, 0x2d, 0x04, 0xf7, 0xf0, 0x36, 0xe9, 0xc2, 0xdf,
  0x18, 0x07, 0x16, 0x09, 0x2f, 0xf5, 0xe0, 0x1e, 0x33, 0x10, 0x05, 0xfc,
  0xe2, 0x03, 0x17, 0x1a, 0xbf, 0xd2, 0x1d, 0xe7, 0xf0, 0x03, 0xd1, 0xa4,
  0x57, 0x13, 0xe9, 0x01, 0x27, 0x05, 0xbb, 0x12, 0xd8, 0xcc, 0x09, 0x02,
  0x40, 0xcc, 0xf5, 0x0a, 0xf1, 0x2d, 0xd4, 0x40, 0xe7, 0xe2, 0x4d, 0x03,
  0xc0, 0xc6, 0x3a, 0x4b, 0xfe, 0x06, 0xb0, 0xe7, 0x31, 0x01, 0xbb, 0x09,
  0x01, 0x16, 0x15, 0x04, 0x0b, 0xfb, 0xfb, 0xe4, 0x61, 0x2b, 0xc5, 0xa8,
  0x20, 0xf1, 0x49, 0x0f, 0xc6, 0xe4, 0x57, 0x39, 0xcf, 0xc5, 0x17, 0xe5,
  0x5b, 0x07, 0xf2, 0xe8, 0x5b, 0x2b, 0xaf, 0xe2, 0xd0, 0xd9, 0xe7, 0x2d,
  0xf1, 0xbf, 0x08, 0x47, 0xf0, 0x0e, 0xf2, 0x14, 0x00, 0x3b, 0x3f, 0xc5,
  0x07, 0x26, 0x25, 0x29, 0xf6, 0x45, 0xee, 0x49, 0x50, 0x1e, 0xd4, 0x03,
  0x23, 0x05, 0x13, 0x26, 0x0b, 0x25, 0xc8, 0x15, 0x47, 0x29, 0xe0, 0xe9,
  0xe6, 0xe6, 0x10, 0x02, 0xed, 0x10, 0x1e, 0x4b, 0xb2, 0xcf, 0xf9, 0xd2,
  0xef, 0x1e, 0xc1, 0xdd, 0x19, 0x45, 0xa7, 0xc5, 0x23, 0x0b, 0x1d, 0x19,
  0xec, 0xdb, 0x26, 0x43, 0xd6, 0x25, 0x01, 0xde, 0xf3, 0x18, 0xfd, 0x2d,
  0x11, 0x42, 0x35, 0x4b, 0x34, 0x0e, 0xf4, 0x0f, 0x17, 0x1b, 0xed, 0x38,
  0x46, 0x41, 0x04, 0x1c, 0x1c, 0x29, 0xe7, 0x24, 0xfd, 0xfc, 0x0b, 0x1a,
  0xf1, 0x06, 0x37, 0xfb, 0x3f, 0x0c, 0x22, 0x40, 0xe1, 0xe2, 0x31, 0x2b,
  0xfd, 0x08, 0x04, 0x29, 0xec, 0x18, 0x0d, 0xe6, 0x35, 0x18, 0xe5, 0xf3,
  0x17, 0xdf, 0x2a, 0x2d, 0xe2, 0x2b, 0x1e, 0xde, 0xd1, 0x1c, 0xe1, 0x1d,
  0x04, 0xf6, 0xeb, 0x2a, 0xda, 0xde, 0xdc, 0x0d, 0xfe, 0x2a, 0x03, 0xf1,
  0xff, 0x06, 0x2f, 0x0f, 0x45, 0xe5, 0x19, 0x1d, 0x35, 0x24, 0x2d, 0x0a,
  0xef, 0xf9, 0xe1, 0x05, 0xf0, 0xed, 0xf5, 0x18, 0xea, 0x0b, 0x0c, 0x39,
  0xc9, 0x41, 0xef, 0x0f, 0x07, 0x25, 0xcc, 0xdf, 0x38, 0xfa, 0xf3, 0x41,
  0xf9, 0x01, 0xfa, 0x11, 0xa6, 0xfe, 0xe4, 0xd3, 0x07, 0xfe, 0xf8, 0x1d,
  0x0c, 0x12, 0x0b, 0x1b, 0xf2, 0xe3, 0x25, 0x13, 0x1c, 0x15, 0xe6, 0x2c,
  0x30, 0x2d, 0xe1, 0xf1, 0x39, 0xf8, 0x21, 0x22, 0x0e, 0x2f, 0x57, 0x02,
  0x05, 0x29, 0x01, 0xf5, 0xec, 0xd2, 0x0d, 0x21, 0x3a, 0x1c, 0xf7, 0x29,
  0xee, 0x08, 0xf3, 0xe4, 0xda, 0x2d, 0xe5, 0x0c, 0x42, 0x0b, 0x00, 0x3e,
  0xd0, 0x4a, 0x04, 0xf9, 0xad, 0xf7, 0x3c, 0xd7, 0x37, 0xf5, 0x13, 0x24,
  0x06, 0x32, 0xdc, 0xd8, 0xe4, 0x12, 0x00, 0x28, 0x17, 0xee, 0xf4, 0x0a,
  0x17, 0xf5, 0x33, 0x12, 0xe3, 0xf9, 0xfe, 0x1b, 0x06, 0x0f, 0x0a, 0x39,
  0x0e, 0x30, 0xe5, 0xe1, 0x34, 0xf9, 0xb8, 0xea, 0x6b, 0x21, 0x18, 0x4c,
  0xdc, 0xea, 0x57, 0x0d, 0xf5, 0xcd, 0x25, 0xf6, 0x3a, 0x5b, 0x12, 0x27,
  0x00, 0xf4, 0xd7, 0x14, 0x05, 0x19, 0x0c, 0xd3, 0x07, 0xf6, 0xec, 0xf0,
  0x1a, 0xfc, 0xc4, 0xe0, 0x1f, 0xd2, 0x53, 0xdf, 0x0a, 0xf0, 0x40, 0x1c,
  0xda, 0x05, 0xf6, 0xca, 0xc4, 0x1e, 0x20, 0x0d, 0xf3, 0xe8, 0x40, 0x22,
  0x04, 0x45, 0xe4, 0x31, 0x40, 0xff, 0xe5, 0x26, 0x29, 0x40, 0x1c, 0x42,
  0xe3, 0x2d, 0x54, 0x41, 0xcf, 0xff, 0x69, 0x34, 0x33, 0x1f, 0xdf, 0x02,
  0x07, 0xfe, 0xd3, 0xe3, 0x2f, 0xfc, 0xdf, 0xdd, 0x26, 0xc6, 0xdf, 0x48,
  0x13, 0xe5, 0xff, 0xcc, 0xf0, 0xbb, 0x28, 0xbb, 0xb7, 0x21, 0x29, 0xf5,
  0xc7, 0xf9, 0xf3, 0xbd, 0xdc, 0x2c, 0x29, 0xf3, 0xcf, 0xf1, 0x46, 0x36,
  0xd0, 0x16, 0xfe, 0x26, 0x22, 0x10, 0xd3, 0xe1, 0x64, 0x2c, 0xf9, 0x3b,
  0x17, 0x0f, 0x00, 0xec, 0xf2, 0xd0, 0x2c, 0x47, 0x07, 0x2c, 0x1c, 0xd9,
  0xfe, 0x0e, 0xdc, 0x13, 0x6f, 0x01, 0xed, 0xf7, 0xf6, 0xc9, 0xfd, 0x35,
  0x0f, 0x06, 0x14, 0xd8, 0xf2, 0xeb, 0x17, 0xe3, 0xd9, 0x14, 0xe3, 0xe0,
  0xe4, 0xf3, 0xd1, 0xfc, 0xe8, 0xd1, 0xc5, 0xed, 0xfb, 0xf6, 0x07, 0xd4,
  0xca, 0x01, 0x38, 0xeb, 0xe1, 0x04, 0x18, 0x21, 0x23, 0x14, 0xd4, 0xe4,
  0x28, 0x14, 0xf2, 0x00, 0xfc, 0xef, 0x14, 0xe0, 0xfc, 0x11, 0xd3, 0xeb,
  0x14, 0xdd, 0x02, 0xf6, 0x0e, 0x32, 0xd5, 0x28, 0xdd, 0x00, 0x1d, 0xef,
  0xb7, 0x14, 0xf8, 0x33, 0x01, 0xec, 0x0f, 0x0e, 0xfd, 0xec, 0xf0, 0x0b,
  0x0b, 0x0b, 0x10, 0x2f, 0x01, 0xcb, 0xd9, 0xf7, 0x09, 0xef, 0x00, 0xfe,
  0xf9, 0xd2, 0x3a, 0x15, 0xcf, 0x23, 0x39, 0x0c, 0xcf, 0xc9, 0x01, 0xcf,
  0x2d, 0xdb, 0xdc, 0xca, 0x11, 0xf5, 0xe3, 0x20, 0x13, 0xf0, 0xcb, 0x1e,
  0x1c, 0xea, 0x0a, 0x2b, 0x11, 0x34, 0x09, 0x22, 0x05, 0xf2, 0x51, 0xf2,
  0xd3, 0xf3, 0x24, 0x3e, 0x19, 0x2a, 0xc1, 0xd7, 0xff, 0xdf, 0xa2, 0xf2,
  0x44, 0x45, 0x2e, 0x22, 0x39, 0xc8, 0xe4, 0x21, 0x2f, 0xf2, 0x02, 0xe2,
  0x00, 0xc5, 0x52, 0xff, 0xeb, 0x35, 0x3e, 0x1d, 0xbf, 0xf6, 0xc1, 0xab,
  0x04, 0x1a, 0x1c, 0x49, 0x3b, 0x1a, 0x24, 0x0f, 0xd4, 0xe0, 0x06, 0xf7,
  0x22, 0xef, 0x12, 0x46, 0x4b, 0x1a, 0xed, 0x35, 0xd7, 0x01, 0x4d, 0xeb,
  0xfb, 0xe3, 0x11, 0x4d, 0x2f, 0xfd, 0xd3, 0xcb, 0x15, 0xc6, 0xda, 0xdf,
  0x20, 0x37, 0x21, 0x18, 0x03, 0xde, 0xd7, 0x12, 0x3e, 0xfe, 0x11, 0xdc,
  0xd2, 0xf5, 0x49, 0x2b, 0xd5, 0x45, 0x11, 0xf2, 0xe8, 0xca, 0x0e, 0x0e,
  0xf9, 0x44, 0x24, 0xf8, 0x41, 0x2e, 0x03, 0x34, 0xed, 0xd0, 0x32, 0x2c,
  0x2e, 0x98, 0x2f, 0x47, 0xf3, 0x49, 0xd2, 0xf7, 0x0c, 0x00, 0x1e, 0xba,
  0x14, 0xbe, 0x27, 0x1f, 0x03, 0x18, 0x2a, 0xda, 0x39, 0xec, 0x16, 0xae,
  0x12, 0x32, 0x23, 0x17, 0xff, 0xd6, 0x3c, 0x1a, 0xd1, 0xd2, 0x02, 0xdd,
  0x07, 0x44, 0xe5, 0xf1, 0xf4, 0x07, 0x17, 0x23, 0x02, 0x10, 0x00, 0x18,
  0x19, 0x2f, 0xd4, 0xd3, 0xfd, 0x53, 0xa8, 0xee, 0x2a, 0x02, 0xd6, 0x4d,
  0x06, 0xab, 0xd9, 0x31, 0xfd, 0xd3, 0xf2, 0x15, 0xfc, 0x2e, 0x00, 0xe3,
  0x06, 0x15, 0xe0, 0x3a, 0x28, 0x19, 0x23, 0x1e, 0x30, 0x3a, 0x37, 0xc9,
  0x0e, 0x13, 0x0c, 0x10, 0xea, 0xe2, 0x0b, 0xf9, 0xe0, 0xf2, 0x24, 0xf2,
  0xe1, 0x13, 0xe6, 0x2a, 0x28, 0x00, 0x1c, 0x19, 0x46, 0xdf, 0x0d, 0x39,
  0x16, 0x26, 0xe2, 0x06, 0xe1, 0x22, 0xf1, 0xfa, 0x05, 0xf8, 0xc5, 0x29,
  0xe0, 0xe6, 0xeb, 0x0a, 0xd6, 0x1a, 0x21, 0x0a, 0xf4, 0x31, 0x11, 0xee,
  0x3a, 0x4d, 0xfe, 0x11, 0xf5, 0x0d, 0x22, 0xd5, 0xd4, 0x39, 0x25, 0x04,
  0x08, 0xfc, 0xd3, 0x04, 0xe4, 0xe5, 0x1c, 0xeb, 0x32, 0xf5, 0xf4, 0xff,
  0x15, 0xed, 0x00, 0x2c, 0xe3, 0xea, 0x3f, 0x03, 0x0d, 0xdb, 0xe7, 0xc8,
  0x1f, 0x00, 0xde, 0x28, 0xf0, 0x0d, 0x07, 0xe8, 0xe2, 0xba, 0xfe, 0x29,
  0x29, 0xe1, 0xfc, 0x34, 0xf0, 0x1e, 0xf9, 0xf3, 0xe6, 0x21, 0x22, 0xe3,
  0xfc, 0xdc, 0x0c, 0x2b, 0xf5, 0xe8, 0xf8, 0x09, 0xf9, 0xe3, 0x07, 0xf6,
  0x3e, 0x0f, 0x39, 0xfe, 0x2c, 0xf5, 0xc5, 0x30, 0x1d, 0xf3, 0xe4, 0xd1,
  0xf5, 0xc7, 0x25, 0xd8, 0xff, 0xd7, 0xfa, 0x04, 0xf5, 0x07, 0xf5, 0xd3,
  0x0a, 0x29, 0xe6, 0xd6, 0x09, 0x4c, 0xc8, 0xce, 0xea, 0xb5, 0xe8, 0x12,
  0x03, 0xf4, 0x0f, 0x01, 0xb9, 0x34, 0x1b, 0xed, 0xc0, 0xf6, 0x23, 0xfd,
  0xeb, 0x1f, 0x0f, 0x41, 0x39, 0xfb, 0xc7, 0x0d, 0x2d, 0xec, 0xdb, 0xb6,
  0x57, 0x26, 0x2e, 0x2e, 0x44, 0xc9, 0xdc, 0x09, 0x36, 0xe8, 0xec, 0xfe,
  0xf8, 0xae, 0x35, 0x20, 0xef, 0x19, 0x29, 0x0f, 0xd1, 0x11, 0xc2, 0xdb,
  0x2b, 0x30, 0x05, 0xe8, 0x05, 0x26, 0x11, 0x16, 0xec, 0xfc, 0xe8, 0xf4,
  0x0b, 0xd5, 0x19, 0x40, 0x03, 0x14, 0x31, 0xfb, 0xfd, 0x05, 0xf4, 0xf2,
  0x13, 0x16, 0xee, 0x03, 0x0a, 0x2d, 0x26, 0xcc, 0x61, 0x21, 0xbd, 0xa1,
  0x35, 0x20, 0x37, 0x2a, 0x21, 0xb0, 0xec, 0x07, 0x24, 0xda, 0xe1, 0xd7,
  0x15, 0x2d, 0x2f, 0xe9, 0x14, 0x15, 0x08, 0xe9, 0xfe, 0xe5, 0x15, 0xec,
  0x11, 0x36, 0xf8, 0x36, 0x28, 0x25, 0xd5, 0x24, 0x10, 0x20, 0xcf, 0x40,
  0x26, 0xaa, 0xdc, 0x22, 0x1e, 0x18, 0xdb, 0x0a, 0x23, 0xf4, 0x0c, 0xdf,
  0x03, 0x01, 0xdd, 0x23, 0x1e, 0xe9, 0x3e, 0xb7, 0x02, 0xf9, 0x26, 0xbb,
  0xe6, 0xe6, 0xe4, 0x0f, 0xf1, 0x11, 0x16, 0xcb, 0xe0, 0x9a, 0x1c, 0x32,
  0xfe, 0x35, 0xe9, 0x1f, 0x32, 0xe4, 0x00, 0xd6, 0x00, 0xeb, 0xe9, 0x38,
  0xe1, 0x3a, 0x1e, 0xf3, 0xf7, 0xf1, 0xe7, 0xdc, 0x32, 0x2b, 0xfc, 0x49,
  0x39, 0xdf, 0xc8, 0x13, 0xf5, 0x07, 0x03, 0x12, 0xdc, 0x1d, 0xff, 0xc5,
  0x1e, 0xdf, 0xf6, 0xc3, 0x10, 0xea, 0xf5, 0xf6, 0xd6, 0x2b, 0x2f, 0x03,
  0xcf, 0xbf, 0x0c, 0xbc, 0xed, 0x0a, 0x1c, 0xf5, 0xb8, 0xfa, 0x5a, 0x3e,
  0xfe, 0x11, 0xbc, 0xde, 0x10, 0xe2, 0xab, 0x17, 0x4d, 0x27, 0xe8, 0x3b,
  0xeb, 0xfc, 0xf7, 0xca, 0xbb, 0x2b, 0x0d, 0x30, 0x07, 0x04, 0xcf, 0x1b,
  0xd9, 0xdd, 0xd1, 0x0a, 0x9f, 0xea, 0xec, 0x08, 0xf1, 0xe7, 0xbf, 0x0d,
  0x29, 0x3e, 0xf4, 0xe8, 0xfa, 0xd9, 0x03, 0xc8, 0xc9, 0x59, 0xff, 0xe6,
  0xd2, 0xf2, 0xfb, 0x94, 0x09, 0x24, 0x10, 0x18, 0x3d, 0x41, 0x06, 0x2d,
  0x05, 0x39, 0xf7, 0x3d, 0x1d, 0x07, 0x15, 0x50, 0x1e, 0x24, 0x03, 0x29,
  0xf6, 0x23, 0x1b, 0xfb, 0xfc, 0x27, 0xc3, 0x1e, 0x00, 0x11, 0x08, 0x24,
  0x03, 0xfe, 0x26, 0x20, 0xc6, 0x1c, 0xef, 0xe1, 0x23, 0x04, 0x25, 0x1e,
  0x35, 0x3a, 0x1c, 0xfa, 0xf6, 0xe9, 0xf2, 0xe3, 0x36, 0x1e, 0xe1, 0x00,
  0x0a, 0x28, 0xdf, 0xf3, 0xeb, 0x2c, 0x29, 0x24, 0x31, 0xf5, 0x09, 0xfe,
  0xdd, 0xfe, 0x31, 0x33, 0x25, 0xdb, 0x2d, 0x2b, 0x2f, 0xe9, 0xf3, 0xfb,
  0xd8, 0x3a, 0x03, 0x12, 0xda, 0x52, 0xe0, 0xd8, 0xf1, 0xed, 0xfc, 0x08,
  0xe1, 0x07, 0xf8, 0x40, 0xcb, 0xcb, 0xfa, 0xff, 0x11, 0x2b, 0x07, 0x17,
  0x1f, 0x50, 0xc7, 0xeb, 0x09, 0x06, 0xf1, 0xee, 0x15, 0x2d, 0x20, 0x1d,
  0x28, 0xfe, 0x2b, 0xf5, 0x30, 0xd8, 0x24, 0x0a, 0x2c, 0x0d, 0x01, 0x28,
  0x18, 0x32, 0xe3, 0x30, 0x03, 0xd4, 0xe0, 0x31, 0x2e, 0x0a, 0x1a, 0x2b,
  0xe2, 0x15, 0x0e, 0xcb, 0xb1, 0xfa, 0xeb, 0xf5, 0x40, 0x1d, 0x05, 0x16,
  0xbb, 0x24, 0x12, 0x25, 0xac, 0xdb, 0xde, 0xec, 0x2d, 0x17, 0xe7, 0x34,
  0x1b, 0x49, 0xca, 0xf6, 0x20, 0xd9, 0x3b, 0x0f, 0xff, 0xe6, 0x17, 0x06,
  0x05, 0x10, 0xdf, 0xe0, 0x11, 0x11, 0x32, 0xea, 0xd7, 0xf5, 0x1a, 0x3c,
  0x2a, 0x3b, 0x15, 0x11, 0x23, 0xfd, 0xd2, 0xee, 0x26, 0x47, 0x15, 0x26,
  0xfc, 0xe7, 0x31, 0x13, 0xd9, 0xf5, 0x44, 0x22, 0x41, 0x5c, 0xe7, 0xe3,
  0xe3, 0x57, 0xf2, 0x0d, 0x15, 0xd7, 0xf2, 0x06, 0x0d, 0xd6, 0xf8, 0x36,
  0x00, 0x10, 0xdd, 0xb6, 0xfe, 0xba, 0x0b, 0xf1, 0xdd, 0x13, 0x2a, 0xe3,
  0xf6, 0xff, 0xec, 0xca, 0xdd, 0x19, 0x1b, 0x0d, 0xfc, 0xec, 0x54, 0x47,
  0xe1, 0x1f, 0x03, 0x2f, 0x54, 0x0b, 0xc9, 0x08, 0x57, 0x48, 0xdc, 0x1e,
  0x12, 0x23, 0x12, 0x34, 0xeb, 0x06, 0x58, 0x2d, 0x20, 0x58, 0xd1, 0xdc,
  0xda, 0x0f, 0x10, 0xbf, 0x1f, 0xf7, 0xf8, 0x18, 0x2c, 0xe6, 0xc7, 0x46,
  0x37, 0xf5, 0xc9, 0xd2, 0xed, 0xd3, 0x24, 0xed, 0xe7, 0xdc, 0x34, 0x19,
  0xd3, 0xd2, 0xef, 0xc4, 0xd6, 0xfa, 0x08, 0xee, 0xbc, 0xe3, 0x4d, 0xf9,
  0xdd, 0xfd, 0xda, 0xd7, 0x20, 0x06, 0xcd, 0xf1, 0x48, 0x04, 0xfa, 0x13,
  0x1e, 0x0c, 0x22, 0xf4, 0xed, 0xe8, 0x46, 0x40, 0x22, 0x13, 0x12, 0xe7,
  0xe7, 0x09, 0xf4, 0x06, 0x4e, 0xed, 0x20, 0x29, 0xf6, 0xe7, 0xbb, 0x22,
  0x2c, 0xe9, 0xc6, 0xd0, 0xf6, 0xef, 0x0e, 0xf3, 0xf0, 0xf9, 0x01, 0xe4,
  0x20, 0x14, 0xf8, 0x04, 0x1c, 0x0a, 0x22, 0xda, 0x0d, 0x17, 0xff, 0xff,
  0x13, 0xf3, 0x08, 0x29, 0x0f, 0x47, 0x35, 0x00, 0xe0, 0xff, 0xf3, 0x18,
  0xd6, 0xfd, 0x0d, 0x1b, 0xff, 0x1d, 0xe3, 0xc1, 0xc5, 0x02, 0xf3, 0xe2,
  0x03, 0x01, 0x1d, 0x44, 0xd8, 0xef, 0x09, 0xe2, 0x09, 0xe9, 0x27, 0xcb,
  0xd9, 0xe3, 0xdb, 0x18, 0x31, 0xec, 0xfc, 0x19, 0x2f, 0xe7, 0xf5, 0xf6,
  0x33, 0x0b, 0xfa, 0x2a, 0x32, 0x14, 0xe7, 0xfc, 0x08, 0xf7, 0xfc, 0xf8,
  0xd8, 0xb9, 0xf9, 0x05, 0xc8, 0x15, 0x0c, 0x22, 0xf7, 0xef, 0x0e, 0xc7,
  0xf8, 0x0b, 0xd4, 0xd1, 0x07, 0x27, 0xb1, 0x04, 0xe7, 0xfd, 0xa3, 0x16,
  0xed, 0x01, 0xd8, 0x19, 0xd9, 0x18, 0x32, 0xe8, 0xf6, 0xe6, 0x43, 0x28,
  0xed, 0xf7, 0xee, 0x42, 0x39, 0x12, 0xc6, 0xe8, 0x1b, 0xec, 0xb0, 0xc4,
  0x30, 0x24, 0xec, 0x06, 0x2d, 0xbe, 0xe0, 0x2b, 0x1a, 0xe3, 0xd9, 0xb2,
  0xe0, 0xda, 0x45, 0xe7, 0xd2, 0x17, 0x41, 0x48, 0xdd, 0xc7, 0xf0, 0xf1,
  0x1e, 0xf6, 0xdc, 0x33, 0xea, 0x4f, 0xdf, 0x10, 0x06, 0xfd, 0xe9, 0x28,
  0xfd, 0xcd, 0xd6, 0x4b, 0xe6, 0x08, 0x1e, 0xf4, 0xd0, 0x08, 0x0b, 0xd5,
  0xe5, 0x27, 0xdd, 0x3b, 0x1e, 0xe4, 0x0d, 0xdd, 0x14, 0x05, 0xc7, 0xb5,
  0x27, 0x0c, 0xfb, 0x20, 0x46, 0xdc, 0xcc, 0x32, 0xd8, 0xdd, 0xf4, 0x0c,
  0xf1, 0xef, 0x17, 0x01, 0x1a, 0x03, 0x09, 0x0d, 0x00, 0xf5, 0x11, 0xfe,
  0xf0, 0x45, 0x2f, 0x1c, 0x02, 0x23, 0x04, 0x23, 0x00, 0xf8, 0x05, 0x31,
  0x10, 0xaa, 0xfa, 0x0c, 0x1c, 0x19, 0xe6, 0x16, 0xf1, 0xf6, 0x08, 0xad,
  0x02, 0xf4, 0xc6, 0x1a, 0xdc, 0xf0, 0x1c, 0xd0, 0x05, 0xe5, 0x0a, 0xba,
  0xfa, 0xd9, 0xc8, 0x26, 0x0c, 0xc4, 0x41, 0x0d, 0xcf, 0xe3, 0x59, 0x25,
  0xf7, 0x31, 0xc3, 0x2f, 0x06, 0x28, 0x02, 0xd9, 0x52, 0x30, 0xd9, 0x1f,
  0xdf, 0x43, 0x26, 0xe4, 0x2a, 0xe4, 0xd4, 0xf0, 0xee, 0xfb, 0xcd, 0x0a,
  0x30, 0xcf, 0x10, 0xef, 0xe6, 0x11, 0x32, 0x27, 0xec, 0x1a, 0xeb, 0xf1,
  0x05, 0x11, 0xdc, 0xe3, 0xf7, 0xc5, 0x52, 0xca, 0xe0, 0x2f, 0x44, 0xde,
  0xcd, 0xe1, 0xea, 0xc1, 0xf2, 0x0e, 0x42, 0xf0, 0xba, 0xbb, 0x29, 0x3a,
  0xfe, 0x0c, 0xc6, 0x19, 0x4b, 0xef, 0xc8, 0xfa, 0x5b, 0x03, 0x1f, 0x4a,
  0x04, 0x1d, 0xea, 0xc8, 0xee, 0x19, 0xed, 0xf7, 0x1c, 0x1e, 0xd2, 0x07,
  0xe5, 0x28, 0xee, 0xf9, 0xbe, 0xee, 0x05, 0x07, 0x23, 0xde, 0xd3, 0xf3,
  0x11, 0xf7, 0x0d, 0xea, 0xe9, 0xc9, 0x33, 0xd6, 0xee, 0x19, 0x45, 0x1e,
  0xc1, 0xf4, 0xd4, 0xca, 0x2e, 0xf8, 0xe9, 0x0b, 0x29, 0x3e, 0x08, 0x23,
  0xff, 0x27, 0x18, 0x2c, 0xf6, 0xc8, 0xf1, 0xf3, 0xcd, 0x30, 0xf7, 0x27,
  0xe0, 0x1f, 0x17, 0x11, 0xd3, 0xf5, 0xd3, 0x1b, 0xe9, 0x23, 0xed, 0x17,
  0xd9, 0x2c, 0x2a, 0x03, 0x0a, 0xdf, 0xfb, 0x29, 0x34, 0xf3, 0x04, 0xde,
  0x02, 0x35, 0x08, 0x09, 0xf6, 0xea, 0xff, 0x3d, 0x0c, 0x0b, 0x55, 0x27,
  0xc9, 0xfe, 0x00, 0xd0, 0xda, 0x14, 0x01, 0xe1, 0x14, 0x30, 0x5c, 0x30,
  0x14, 0x50, 0xbb, 0x10, 0x2c, 0xf3, 0xd9, 0x30, 0x50, 0x1a, 0x16, 0x17,
  0xc4, 0x3e, 0x2d, 0xdd, 0xb8, 0xec, 0xf5, 0x23, 0x45, 0x31, 0xe8, 0xf8,
  0xf1, 0xfe, 0xe4, 0xed, 0xa6, 0x03, 0x14, 0xec, 0x1e, 0x21, 0xf3, 0x37,
  0x2b, 0x2e, 0xcc, 0xd5, 0x15, 0xec, 0x03, 0x05, 0xf2, 0xd9, 0x24, 0x13,
  0xca, 0x09, 0x12, 0xb6, 0xb6, 0xf6, 0xfe, 0xfb, 0x04, 0x17, 0x36, 0x24,
  0x1e, 0x06, 0xd6, 0x2b, 0x52, 0xe6, 0xeb, 0x0f, 0x33, 0x17, 0x1e, 0x5c,
  0xd1, 0xe7, 0xdf, 0xdf, 0xa6, 0xd5, 0x33, 0x0b, 0x17, 0x0a, 0xe3, 0xfa,
  0xa1, 0x0d, 0xe7, 0xe7, 0xa0, 0x98, 0xfb, 0xe1, 0x13, 0x21, 0xb1, 0x4a,
  0x1a, 0x3c, 0xc4, 0xc3, 0xcc, 0xb5, 0x08, 0x05, 0xd6, 0x24, 0x55, 0x46,
  0xca, 0xc0, 0xf5, 0xc7, 0xf6, 0x1c, 0xe8, 0xee, 0xb9, 0x49, 0x30, 0x4f,
  0x0a, 0x2b, 0xc0, 0xf5, 0x2e, 0xd2, 0xbd, 0xfc, 0x30, 0x27, 0x06, 0x27,
  0xe3, 0xac, 0x09, 0x1e, 0x8b, 0x9f, 0x69, 0x10, 0x30, 0x1e, 0x05, 0xe2,
  0xa3, 0x7f, 0x1a, 0xcb, 0x05, 0xb0, 0x2e, 0xdf, 0x28, 0xf0, 0xb0, 0x5b,
  0x33, 0x3f, 0xe8, 0xb9, 0x0e, 0xdf, 0x2b, 0xe4, 0xd3, 0x0a, 0x27, 0x12,
  0xc4, 0xe8, 0x11, 0xba, 0xe0, 0x26, 0x1c, 0xd6, 0xfb, 0x0b, 0xe1, 0xfa,
  0x2c, 0xf5, 0xea, 0xe4, 0x14, 0xff, 0x00, 0xec, 0xf7, 0x26, 0xe0, 0x24,
  0xd0, 0xb3, 0x0c, 0x1a, 0x0a, 0xdd, 0x63, 0x3e, 0xf5, 0x20, 0xe7, 0xb6,
  0x0f, 0x48, 0x0a, 0xf2, 0x32, 0xf8, 0x00, 0xe2, 0x03, 0x03, 0xce, 0x18,
  0xe9, 0xde, 0xe1, 0xa8, 0xb7, 0x0d, 0x22, 0xfd, 0x00, 0x09, 0xe9, 0xe4,
  0x0b, 0x3d, 0xcb, 0x26, 0x03, 0x1d, 0xe7, 0x02, 0x0b, 0xec, 0xfb, 0xd1,
  0x04, 0xf8, 0x29, 0xf3, 0x1d, 0xeb, 0xd8, 0x10, 0x3e, 0x1d, 0xd6, 0x13,
  0x22, 0xf7, 0x00, 0x49, 0x21, 0xab, 0x33, 0x21, 0xd9, 0x11, 0x0e, 0xeb,
  0x06, 0x60, 0x1b, 0xca, 0x74, 0x13, 0x05, 0x03, 0x25, 0xe2, 0x02, 0xdf,
  0x13, 0xeb, 0x13, 0x37, 0xff, 0x0b, 0x03, 0x0e, 0xdd, 0xce, 0xdd, 0x00,
  0x12, 0x19, 0xe8, 0x1f, 0x04, 0xfb, 0x2d, 0x0c, 0xec, 0x2b, 0xfd, 0xf6,
  0xe7, 0xfd, 0x11, 0x2d, 0x2d, 0xfb, 0xe0, 0xfb, 0xf9, 0xed, 0x2d, 0x0d,
  0x12, 0xf5, 0x1c, 0x07, 0x09, 0xd7, 0x13, 0x05, 0x31, 0x10, 0x42, 0xfb,
  0x06, 0x3c, 0x2d, 0x08, 0x3a, 0x0b, 0xea, 0x3b, 0x4d, 0x28, 0xe9, 0x2f,
  0x1e, 0xf3, 0x13, 0x13, 0xd0, 0xed, 0x17, 0x18, 0xfe, 0xf3, 0x22, 0x4d,
  0xe9, 0xd3, 0x19, 0xc8, 0xd8, 0x1a, 0x3e, 0x17, 0xdd, 0x38, 0x33, 0x30,
  0x06, 0x50, 0xc9, 0x2a, 0x2e, 0xd0, 0xfc, 0xf3, 0x2b, 0xf9, 0xfc, 0x60,
  0xec, 0x03, 0x2a, 0x16, 0xf6, 0xff, 0x2a, 0x26, 0x2f, 0x46, 0xfc, 0xde,
  0x13, 0x32, 0xdd, 0xe4, 0x30, 0x0b, 0xf6, 0xf1, 0x2e, 0xe4, 0x01, 0x24,
  0x10, 0x34, 0xeb, 0x03, 0xe0, 0xe1, 0x11, 0xff, 0xbf, 0xe8, 0x2c, 0x54,
  0xf7, 0xe4, 0xef, 0xf5, 0xc7, 0x11, 0x27, 0xe5, 0xf6, 0x20, 0x42, 0x02,
  0x23, 0x36, 0xec, 0xe0, 0x40, 0x0c, 0xc1, 0xbf, 0x22, 0x3f, 0x31, 0x3d,
  0x0b, 0x01, 0xfb, 0xf4, 0x0c, 0xf2, 0x2f, 0xc3, 0x2d, 0x13, 0x2b, 0xf3,
  0x12, 0x08, 0xe4, 0xa1, 0x2d, 0xef, 0xca, 0xf9, 0xec, 0xe3, 0xcc, 0x4a,
  0x2d, 0x0f, 0x0a, 0xc0, 0xfb, 0xd0, 0xf3, 0xf2, 0xb5, 0x2f, 0x38, 0x52,
  0xd4, 0xe3, 0x07, 0xdd, 0xc7, 0x0b, 0x2d, 0xf1, 0x14, 0x54, 0x14, 0x29,
  0x10, 0x1e, 0xfb, 0xf6, 0xe6, 0x0e, 0x3a, 0x01, 0x35, 0x0a, 0xfe, 0x2c,
  0xef, 0xd3, 0xc8, 0x04, 0x0c, 0xd2, 0x34, 0xf8, 0x18, 0x1c, 0x34, 0x16,
  0xeb, 0x36, 0x21, 0xce, 0xe5, 0xfd, 0xea, 0xf5, 0x16, 0xd3, 0xf4, 0x14,
  0xf4, 0x10, 0xfd, 0xee, 0xda, 0xfc, 0xe9, 0x0f, 0xc6, 0x08, 0x16, 0x69,
  0x2b, 0x1f, 0xeb, 0x2a, 0x26, 0x3a, 0xd6, 0xd0, 0x2e, 0x54, 0xd9, 0xd4,
  0x25, 0xf4, 0x3c, 0xd0, 0x0f, 0xe7, 0x30, 0x27, 0xf2, 0xdd, 0x21, 0xb7,
  0x41, 0xd9, 0xf0, 0xeb, 0xe7, 0xc9, 0x16, 0x43, 0x09, 0x14, 0x0f, 0x1a,
  0xe6, 0x4b, 0x08, 0xcd, 0x23, 0xf8, 0xfb, 0x2e, 0x30, 0xd8, 0xf4, 0x13,
  0xed, 0x10, 0x4b, 0x13, 0x13, 0x59, 0xe2, 0x07, 0xff, 0x02, 0xbf, 0x0e,
  0x07, 0x4f, 0x47, 0x3c, 0x32, 0x34, 0xcc, 0x2e, 0x2c, 0x45, 0xef, 0xcf,
  0x05, 0xc7, 0x2d, 0xf4, 0xf8, 0x0a, 0x3b, 0x1c, 0xf0, 0x04, 0x35, 0x05,
  0x13, 0xcf, 0xdd, 0xf8, 0x1d, 0xe8, 0x1a, 0xed, 0x0f, 0xe3, 0x45, 0xfd,
  0x48, 0x44, 0x1b, 0xcf, 0x10, 0xe6, 0xcf, 0x31, 0x0d, 0x17, 0x29, 0xf6,
  0xe4, 0x07, 0x1e, 0x1e, 0x11, 0x47, 0xdf, 0x50, 0x29, 0xf4, 0xcf, 0x16,
  0x44, 0x48, 0x19, 0x54, 0xf8, 0xf1, 0xd1, 0xf6, 0xef, 0x20, 0x14, 0x24,
  0xd4, 0x0e, 0x32, 0x1c, 0xe8, 0xfe, 0x27, 0x24, 0x1c, 0x14, 0x26, 0xf2,
  0xfa, 0x33, 0x05, 0x0f, 0x21, 0x25, 0xc8, 0x18, 0xf9, 0xcf, 0x25, 0x05,
  0xdc, 0xbf, 0x32, 0x14, 0xfd, 0x0a, 0xe5, 0xc4, 0xc7, 0x14, 0xeb, 0xf8,
  0xc8, 0x27, 0xee, 0xf1, 0x27, 0xf4, 0x14, 0xea, 0xe4, 0x0a, 0x12, 0x0f,
  0x4b, 0x0e, 0x36, 0x36, 0xee, 0xeb, 0xd5, 0x14, 0x46, 0x1e, 0x1a, 0x09,
  0x20, 0x17, 0xf5, 0x2c, 0xcf, 0x04, 0x3b, 0x55, 0x0e, 0xf5, 0x19, 0xcd,
  0xf0, 0x17, 0xda, 0xc5, 0x19, 0x2a, 0xf3, 0xd2, 0x19, 0xd7, 0xc2, 0x3c,
  0xf6, 0x1d, 0xff, 0x15, 0xe1, 0xf6, 0xed, 0x0b, 0x17, 0xf6, 0x03, 0x1e,
  0xea, 0x48, 0xe8, 0x08, 0x08, 0xea, 0xda, 0x07, 0x25, 0xf4, 0xce, 0x09,
  0x48, 0x31, 0x14, 0x47, 0x37, 0xf7, 0x0c, 0xd3, 0x35, 0xf3, 0x08, 0xd6,
  0xfc, 0xe2, 0x08, 0x0e, 0x05, 0x01, 0xef, 0xfa, 0xeb, 0x0c, 0x22, 0x07,
  0x0a, 0x0a, 0x1d, 0xed, 0xdb, 0x39, 0xd8, 0x34, 0xde, 0x29, 0xea, 0x06,
  0xdb, 0xee, 0xd6, 0x25, 0xbc, 0xe3, 0xfa, 0xf9, 0x0e, 0x15, 0x15, 0xe5,
  0x35, 0x14, 0xfc, 0xd0, 0xde, 0xd7, 0x0a, 0xf1, 0x13, 0xdb, 0xe8, 0xe7,
  0x04, 0x24, 0x1e, 0x29, 0xf4, 0xd9, 0x0f, 0x1f, 0x09, 0xfe, 0xe8, 0xe8,
  0xde, 0x46, 0x21, 0x23, 0xf6, 0xe9, 0xca, 0x13, 0x10, 0x25, 0xe8, 0x35,
  0xec, 0x31, 0x23, 0xca, 0xe2, 0x22, 0x2b, 0xe2, 0xe0, 0x47, 0xd8, 0xfb,
  0xff, 0xe7, 0xfb, 0xfc, 0xfd, 0x18, 0xe0, 0xf5, 0x0d, 0x14, 0x03, 0xf3,
  0x03, 0xf2, 0xea, 0xda, 0xdc, 0x0c, 0x4b, 0xf6, 0xe2, 0x2d, 0x41, 0xd4,
  0xfa, 0xfb, 0x09, 0x17, 0xe3, 0xec, 0x37, 0x08, 0xd7, 0xe0, 0x07, 0x29,
  0x26, 0x19, 0x10, 0x1f, 0x38, 0xe1, 0x0c, 0x0d, 0x4a, 0x48, 0x31, 0x5c,
  0xfa, 0xe7, 0xef, 0xff, 0x03, 0xee, 0x37, 0x32, 0xfe, 0x29, 0xcc, 0xff,
  0xe6, 0xb1, 0xfa, 0xe8, 0x02, 0xf0, 0x22, 0x03, 0x36, 0x16, 0xc7, 0xe0,
  0xea, 0xf3, 0xcd, 0xf5, 0xfb, 0xb6, 0x0e, 0xcf, 0xde, 0x32, 0x08, 0xd9,
  0xc5, 0xc3, 0xc6, 0xff, 0xd8, 0xdb, 0x4c, 0xeb, 0xcb, 0x0d, 0x09, 0x34,
  0xe7, 0x35, 0xdb, 0xf7, 0x18, 0x17, 0xe9, 0xe7, 0x54, 0x28, 0x24, 0x0e,
  0xd8, 0xfd, 0x19, 0x21, 0x08, 0xe2, 0x54, 0x0a, 0x1d, 0x41, 0x12, 0x12,
  0xc5, 0xf8, 0x18, 0x04, 0xda, 0x16, 0xe1, 0xf5, 0xe9, 0x0c, 0xf1, 0x27,
  0x1d, 0xee, 0x12, 0xfd, 0xfd, 0xb8, 0x24, 0x02, 0xc0, 0x2e, 0x0c, 0x0e,
  0xd0, 0xe6, 0xec, 0xeb, 0x0b, 0xe2, 0xff, 0xf8, 0x04, 0xf4, 0x24, 0xe9,
  0xf4, 0x06, 0x2c, 0x0c, 0xf5, 0x50, 0xe1, 0xdb, 0xec, 0xeb, 0xbe, 0x1b,
  0x2c, 0x00, 0x0f, 0xe8, 0x06, 0x0b, 0x0b, 0x2e, 0xe5, 0xe5, 0xfc, 0xeb,
  0xf3, 0x0a, 0xde, 0x26, 0xfe, 0x3e, 0x29, 0x04, 0xc8, 0xfe, 0x08, 0xe9,
  0xec, 0xf5, 0x32, 0x32, 0x22, 0x10, 0xc6, 0xd9, 0x13, 0xfd, 0xc4, 0xd3,
  0x04, 0x29, 0xff, 0xea, 0x24, 0xc6, 0xe7, 0x0c, 0x19, 0x13, 0x10, 0xbe,
  0xf3, 0xe4, 0x3d, 0xee, 0x00, 0x26, 0x1f, 0x21, 0x0c, 0xc6, 0x0d, 0xac,
  0x17, 0xcd, 0xf1, 0x37, 0x28, 0x12, 0x0e, 0xd9, 0x03, 0x11, 0xf4, 0xf2,
  0x32, 0xcd, 0xef, 0x16, 0x55, 0xf6, 0xe3, 0x11, 0xdc, 0x1d, 0x10, 0xdd,
  0xdb, 0xe8, 0x36, 0x14, 0xf8, 0x36, 0xd0, 0x07, 0x27, 0x1e, 0xc5, 0xaf,
  0x60, 0x3b, 0xdb, 0x35, 0x3d, 0xd5, 0xfb, 0x39, 0x2b, 0xf6, 0xd5, 0xdb,
  0xeb, 0xca, 0x54, 0xbf, 0xf1, 0x20, 0x29, 0x3c, 0xb1, 0xe8, 0xd3, 0xc2,
  0x45, 0x20, 0x13, 0x38, 0x6c, 0x53, 0xdc, 0x3b, 0xdb, 0xf9, 0x25, 0xe8,
  0x35, 0xb3, 0x48, 0x23, 0x4d, 0x27, 0x15, 0x3b, 0xfe, 0x25, 0x26, 0xeb,
  0xc2, 0xfa, 0x45, 0x72, 0x31, 0x3b, 0x05, 0x01, 0x28, 0x1f, 0xee, 0xdd,
  0x30, 0x28, 0x06, 0x09, 0x2c, 0xe3, 0xc9, 0x3b, 0x20, 0xf9, 0x04, 0xe3,
  0x04, 0xf3, 0x3f, 0x0d, 0xf1, 0x0a, 0x37, 0xf3, 0xdd, 0xe8, 0xad, 0xf5,
  0x49, 0x12, 0x11, 0xf1, 0x74, 0x3f, 0xc7, 0x2f, 0xb2, 0x0a, 0x14, 0x23,
  0x2e, 0xdb, 0xf0, 0x41, 0xed, 0x38, 0xd6, 0xf3, 0x31, 0x03, 0x36, 0xab,
  0xc0, 0xd5, 0x45, 0x3f, 0x13, 0x50, 0x35, 0x0a, 0x46, 0xf1, 0x08, 0xf0,
  0x17, 0x4b, 0xf9, 0x04, 0xf1, 0xd0, 0x09, 0x1c, 0xf5, 0xcf, 0x0b, 0x36,
  0xdd, 0x44, 0x35, 0xff, 0x13, 0x18, 0x1b, 0x2d, 0xdf, 0xf6, 0x06, 0x10,
  0xe8, 0x2d, 0x0d, 0x0d, 0x31, 0x64, 0xf8, 0xca, 0xe7, 0xf3, 0xdb, 0x35,
  0x13, 0xe6, 0xe0, 0x71, 0xc1, 0x01, 0xe5, 0xd3, 0xce, 0xf7, 0x35, 0xcf,
  0x03, 0x0f, 0x0a, 0x3b, 0xfb, 0x31, 0xe5, 0xcc, 0xfb, 0x08, 0x1f, 0xf7,
  0x3b, 0x28, 0x42, 0x0e, 0xf7, 0xcc, 0xfe, 0x10, 0xfe, 0xfc, 0x07, 0xe4,
  0xdf, 0x42, 0xd0, 0x25, 0x0d, 0xf3, 0x1f, 0x23, 0x22, 0xf6, 0x02, 0x2d,
  0xdc, 0x1c, 0xe5, 0xf1, 0xfe, 0x4b, 0xd4, 0xf6, 0x3d, 0x06, 0xb5, 0x4f,
  0xea, 0xf3, 0xf8, 0x24, 0xb0, 0x15, 0x17, 0xcd, 0xbd, 0x53, 0xe1, 0x2c,
  0x20, 0x2c, 0xf6, 0xe9, 0xf9, 0xec, 0xe6, 0xdf, 0xf9, 0x2f, 0xef, 0x25,
  0xd7, 0xd1, 0x1d, 0xef, 0x1d, 0x2a, 0x32, 0x10, 0x15, 0x23, 0x0f, 0x24,
  0xe5, 0x01, 0x0f, 0x28, 0x2c, 0x1d, 0xda, 0x0c, 0xfe, 0x2e, 0x3d, 0x28,
  0xcd, 0x20, 0xf4, 0xe7, 0x05, 0x23, 0x27, 0x1f, 0x1e, 0x0d, 0x33, 0x09,
  0xe1, 0x11, 0x03, 0x08, 0xed, 0xdb, 0xf0, 0xd7, 0x30, 0xee, 0xe6, 0xef,
  0x0c, 0x2e, 0xef, 0xde, 0x00, 0xdb, 0x05, 0xfb, 0x23, 0x21, 0x0f, 0x47,
  0x0f, 0x1e, 0x15, 0xe0, 0x20, 0x31, 0x32, 0x0b, 0xd4, 0x10, 0x13, 0xff,
  0xf9, 0x3a, 0xcd, 0x27, 0x2f, 0xaf, 0xe2, 0x09, 0x40, 0x20, 0x47, 0x5f,
  0xe3, 0x00, 0x02, 0xd5, 0xbb, 0x13, 0x22, 0x1f, 0x2e, 0x1e, 0xed, 0x23,
  0xf3, 0x37, 0x27, 0x02, 0xf9, 0xf0, 0x03, 0xfd, 0x18, 0xff, 0xf3, 0xe5,
  0x34, 0x4f, 0xcd, 0xf3, 0x0a, 0xdb, 0x19, 0x06, 0xc0, 0xe5, 0x2d, 0x36,
  0xf5, 0xe1, 0x07, 0xd2, 0xe4, 0x23, 0x3a, 0xed, 0xcc, 0x22, 0x0b, 0x44,
  0x05, 0x1c, 0xed, 0x23, 0xff, 0xf7, 0xa2, 0xdc, 0x33, 0x1e, 0x30, 0x2a,
  0xca, 0xe5, 0xc9, 0xaa, 0xcc, 0xb2, 0x28, 0x05, 0x43, 0x35, 0x09, 0x0f,
  0xb0, 0x04, 0xda, 0xe8, 0xe1, 0xd0, 0xde, 0xec, 0xea, 0xe9, 0xcc, 0x27,
  0x40, 0x11, 0xdc, 0xb3, 0xed, 0xbf, 0x0c, 0x04, 0xea, 0x40, 0x4a, 0x35,
  0xf5, 0xe6, 0xe5, 0xdd, 0xef, 0x34, 0x09, 0xf4, 0xf1, 0x05, 0x2b, 0x09,
  0x21, 0x26, 0xd3, 0xe8, 0x02, 0xbb, 0xe4, 0x0e, 0x22, 0x35, 0x43, 0x46,
  0x9e, 0xd9, 0x0b, 0x1a, 0xb5, 0x9d, 0x3a, 0xf4, 0x1e, 0x34, 0xcb, 0xbd,
  0xbd, 0x7c, 0xcb, 0xcc, 0xf3, 0xa6, 0x23, 0xff, 0x09, 0xec, 0xc4, 0x56,
  0x2b, 0xe8, 0xc2, 0xbd, 0xc5, 0xba, 0x0c, 0xf7, 0xdd, 0xee, 0x28, 0x08,
  0xd8, 0xd0, 0xdb, 0xc3, 0x20, 0x05, 0xe3, 0x11, 0x11, 0x05, 0xe8, 0xf6,
  0xe1, 0x13, 0xdc, 0xff, 0x09, 0xfa, 0xc9, 0x0a, 0x2d, 0x24, 0x20, 0x22,
  0xdf, 0xc6, 0x3f, 0x15, 0xc4, 0xc5, 0x1d, 0xfd, 0x2a, 0x1f, 0x22, 0xb2,
  0xea, 0x27, 0x16, 0xab, 0x11, 0x1b, 0x1a, 0xe7, 0xf4, 0xdf, 0xf9, 0x43,
  0x07, 0xcf, 0xfb, 0x18, 0xbb, 0xdd, 0xf3, 0xf4, 0xda, 0xed, 0xd7, 0x1d,
  0x10, 0x2e, 0x08, 0x0a, 0x34, 0x0f, 0x1b, 0x01, 0xf8, 0x37, 0x03, 0xf2,
  0x14, 0x19, 0x2f, 0x12, 0xe2, 0xdc, 0x04, 0xed, 0x06, 0xfa, 0x08, 0xed,
  0x17, 0xfb, 0x3c, 0x1f, 0x16, 0xe8, 0x3f, 0x13, 0xef, 0x2e, 0x4e, 0xba,
  0x00, 0x06, 0xf9, 0xba, 0x54, 0xf0, 0xcb, 0xf0, 0x1f, 0xd5, 0xe3, 0xd3,
  0x0c, 0xd5, 0x2f, 0xfd, 0x02, 0xf7, 0x08, 0x1c, 0xe5, 0x12, 0xfb, 0x0e,
  0x21, 0x25, 0xfe, 0x46, 0x20, 0x13, 0xeb, 0xf4, 0xe9, 0x15, 0x03, 0x11,
  0xf2, 0x35, 0xee, 0xe0, 0xe6, 0xdb, 0xfb, 0xf2, 0x20, 0x2e, 0xe9, 0x2d,
  0x22, 0xe0, 0x2a, 0xfc, 0xf0, 0x03, 0x1d, 0x40, 0x25, 0xef, 0xf0, 0xcf,
  0x1c, 0x0c, 0x1a, 0x03, 0x1b, 0x15, 0xfe, 0x48, 0x13, 0x09, 0xfa, 0x0c,
  0x34, 0xe1, 0xfa, 0x1e, 0x09, 0x03, 0x1b, 0xf3, 0x2a, 0x09, 0xed, 0xef,
  0xc6, 0xd6, 0xff, 0x15, 0xe7, 0x07, 0xf9, 0xf4, 0xd4, 0x1d, 0x22, 0xe6,
  0xfc, 0x40, 0x1f, 0xc7, 0xfe, 0x2b, 0xe1, 0xde, 0x22, 0xee, 0xd6, 0x3b,
  0x4c, 0xc7, 0x2c, 0x4f, 0xea, 0xe3, 0x5f, 0x2b, 0xed, 0xee, 0x0c, 0xb2,
  0x4e, 0x31, 0xf7, 0xd3, 0x5c, 0x16, 0xf5, 0x3d, 0x13, 0x07, 0x27, 0x1d,
  0x0f, 0xce, 0xe7, 0xfe, 0xb3, 0xfc, 0x19, 0x15, 0x04, 0x21, 0x01, 0x15,
  0xd9, 0xf5, 0xd7, 0xc3, 0xcc, 0x1a, 0x3c, 0xf7, 0xc5, 0x21, 0xff, 0x15,
  0x05, 0x2d, 0xd9, 0xbe, 0xf1, 0x06, 0x17, 0xed, 0x00, 0x1e, 0x2a, 0x07,
  0x11, 0x01, 0x01, 0x1f, 0x36, 0xe0, 0xe7, 0xee, 0xc8, 0x18, 0x0d, 0xdd,
  0x35, 0x1d, 0x22, 0xc9, 0x19, 0xf2, 0xcb, 0x14, 0xdd, 0xbb, 0xf3, 0xee,
  0x01, 0xe0, 0x46, 0x1a, 0xd8, 0x2c, 0xdb, 0x31, 0xcf, 0xf2, 0x06, 0x3b,
  0xf7, 0xe9, 0xff, 0x19, 0xfd, 0x03, 0x24, 0xe6, 0x19, 0x58, 0x0f, 0xfe,
  0x1e, 0xf6, 0x21, 0x20, 0xe2, 0xca, 0x44, 0xef, 0xe0, 0xf8, 0x18, 0xc8,
  0x08, 0xed, 0x09, 0x23, 0x23, 0xe7, 0xe9, 0xea, 0x04, 0x06, 0xdc, 0xc5,
  0x10, 0x25, 0x13, 0x0c, 0xed, 0x09, 0xde, 0xe4, 0xc0, 0xf5, 0x0e, 0xf4,
  0x11, 0xf8, 0x19, 0x3c, 0xd3, 0x15, 0xa9, 0x59, 0xff, 0xf0, 0xc0, 0x0f,
  0x29, 0x39, 0x4b, 0x3b, 0x4b, 0x29, 0xa0, 0xed, 0x76, 0x3f, 0xde, 0xe6,
  0x03, 0xc6, 0x31, 0x16, 0xb6, 0xdf, 0x1e, 0x35, 0xbc, 0xb3, 0x27, 0xcb,
  0x21, 0xc1, 0xf9, 0x0d, 0x10, 0x28, 0xca, 0x00, 0xcf, 0xfa, 0x43, 0x01,
  0xe1, 0x2d, 0xec, 0x23, 0x18, 0x1a, 0xea, 0xe9, 0xed, 0x1c, 0x28, 0xd4,
  0x10, 0x39, 0x59, 0x65, 0x04, 0x4d, 0xc1, 0x19, 0x27, 0xd4, 0xad, 0x00,
  0x43, 0x2a, 0x55, 0x33, 0x34, 0x15, 0xb3, 0x0c, 0x26, 0x57, 0xc9, 0xfe,
  0x29, 0xc2, 0x1a, 0xe2, 0xd9, 0x4f, 0x5d, 0x1f, 0xa7, 0x09, 0x41, 0xff,
  0x4e, 0xfd, 0x03, 0x30, 0x23, 0x0c, 0xd6, 0xd4, 0xfb, 0x07, 0x2c, 0x21,
  0xf8, 0xe2, 0x20, 0x13, 0x16, 0xd9, 0xec, 0xf7, 0xcc, 0x2b, 0x4a, 0xc1,
  0xf3, 0x1c, 0x03, 0x0f, 0x30, 0x5b, 0x18, 0x2f, 0x47, 0x1f, 0xd0, 0x1c,
  0x16, 0x2a, 0x48, 0x65, 0x29, 0xfa, 0x0b, 0x23, 0xfe, 0x0d, 0x22, 0xed,
  0x22, 0xe7, 0x03, 0x39, 0xf7, 0xf7, 0x32, 0x2d, 0x25, 0x02, 0x10, 0x09,
  0xe3, 0xf4, 0xf0, 0x16, 0xee, 0x22, 0xca, 0x24, 0xe8, 0xd7, 0xff, 0x36,
  0xcf, 0x0b, 0xd6, 0x51, 0xfe, 0xd7, 0xea, 0xd3, 0x00, 0x2d, 0x17, 0x22,
  0x04, 0x1e, 0xde, 0x1c, 0x10, 0xf5, 0xf0, 0xf4, 0x08, 0x2d, 0x05, 0xd2,
  0x35, 0x46, 0x16, 0xfa, 0x18, 0x0c, 0xcb, 0x1a, 0x4b, 0x19, 0x20, 0x0b,
  0x01, 0xd8, 0x32, 0xef, 0xf3, 0xd0, 0x1e, 0x00, 0xea, 0x17, 0xe9, 0x11,
  0xef, 0x36, 0xc8, 0xee, 0x14, 0x45, 0xda, 0x12, 0x13, 0x1e, 0xe4, 0x2c,
  0xe2, 0x00, 0xe3, 0x54, 0xc9, 0xe9, 0x17, 0xe7, 0xfc, 0x13, 0xf9, 0x1d,
  0xf3, 0x47, 0xe7, 0x2a, 0x3d, 0xe8, 0xe1, 0xe5, 0x3d, 0xf8, 0xe6, 0x1f,
  0x22, 0x2a, 0xef, 0xf6, 0x0b, 0xf4, 0x06, 0x27, 0x16, 0xe8, 0xe4, 0x1b,
  0xe5, 0xf7, 0x17, 0x30, 0xe1, 0x1b, 0x23, 0x1b, 0x03, 0xeb, 0xd7, 0xe0,
  0x14, 0xf7, 0x0f, 0xeb, 0xe1, 0x19, 0x2b, 0x19, 0xff, 0x29, 0xc0, 0x3d,
  0xc9, 0xd3, 0x16, 0x20, 0xd1, 0x0e, 0x40, 0xd9, 0x2e, 0x26, 0x0d, 0xfb,
  0x29, 0x18, 0xe2, 0xf2, 0x38, 0x16, 0x1c, 0xd0, 0xf2, 0xe3, 0xe2, 0x08,
  0x37, 0x2b, 0xe3, 0x12, 0xe7, 0xd0, 0xf5, 0x14, 0xdd, 0x07, 0x16, 0x08,
  0xf7, 0x36, 0x1e, 0xe7, 0x28, 0x10, 0xc2, 0xe3, 0x08, 0x11, 0x1d, 0x28,
  0x02, 0x30, 0x14, 0x1c, 0x00, 0xf5, 0xf3, 0x25, 0x26, 0x0a, 0xc2, 0x1b,
  0x15, 0xc3, 0xd8, 0x1c, 0xe7, 0x05, 0xf4, 0x13, 0x30, 0xf6, 0xd9, 0x0e,
  0x38, 0xf4, 0xe8, 0xe4, 0xea, 0xfc, 0x4d, 0xd7, 0x14, 0x35, 0xfe, 0xf2,
  0xc1, 0x1c, 0xd8, 0xcb, 0xf8, 0xe7, 0x03, 0x1f, 0xeb, 0xf7, 0x59, 0x44,
  0xd0, 0x4e, 0xdc, 0xeb, 0x2c, 0x01, 0xd1, 0xf1, 0x1a, 0x52, 0xfe, 0x14,
  0xff, 0xf9, 0x36, 0xe5, 0xdb, 0x06, 0xff, 0xe2, 0x2d, 0x24, 0xff, 0xf1,
  0xef, 0xc6, 0x10, 0xda, 0xe8, 0xe5, 0x0c, 0x21, 0x1b, 0xf1, 0xe9, 0xec,
  0x1f, 0xf6, 0xdf, 0x00, 0xd4, 0xfa, 0x4e, 0x04, 0xea, 0x0c, 0x19, 0xdf,
  0xc2, 0xc3, 0xf2, 0xf2, 0xef, 0x0b, 0x21, 0xf7, 0x00, 0xe8, 0x3e, 0xfb,
  0xde, 0x1e, 0xde, 0xd9, 0x3e, 0x0a, 0xeb, 0xba, 0x2c, 0x53, 0xce, 0x36,
  0xe3, 0x16, 0xfb, 0x1e, 0xc3, 0xd9, 0x46, 0x0d, 0xfb, 0x15, 0xc4, 0x07,
  0x00, 0x0c, 0xf4, 0x10, 0x18, 0x29, 0x20, 0xf4, 0x0c, 0xfd, 0xdc, 0xfe,
  0x43, 0x01, 0xff, 0xab, 0x15, 0xee, 0x18, 0xba, 0xc4, 0x11, 0x1b, 0x0b,
  0x13, 0xed, 0xec, 0xca, 0xf8, 0xe3, 0x11, 0x26, 0x2a, 0x19, 0xfb, 0x0a,
  0xf7, 0xfc, 0x35, 0x25, 0xfb, 0x41, 0x10, 0x00, 0x1a, 0xf1, 0xeb, 0xd4,
  0x24, 0xe6, 0x11, 0xdf, 0x10, 0x40, 0xc8, 0x0d, 0x15, 0xf9, 0xd3, 0xec,
  0xee, 0xdf, 0xf0, 0xf0, 0xae, 0xe9, 0xd3, 0x07, 0x09, 0xe6, 0x25, 0x20,
  0xfa, 0xf9, 0x23, 0x3b, 0xe3, 0xe4, 0xb9, 0xd9, 0xf6, 0x16, 0xe4, 0xd8,
  0x13, 0x04, 0x2e, 0x3a, 0x0d, 0xd3, 0xf0, 0x16, 0x0e, 0x1c, 0xd2, 0xef,
  0xe9, 0xae, 0x16, 0xee, 0xfc, 0xce, 0x0c, 0x31, 0x14, 0xcf, 0xdd, 0xce,
  0x15, 0x1f, 0xe2, 0x05, 0x12, 0x42, 0xeb, 0xf8, 0xfd, 0xf8, 0x04, 0x39,
  0xf9, 0xc1, 0x15, 0x02, 0xe3, 0xd8, 0xeb, 0xde, 0xee, 0x1f, 0x29, 0xf6,
  0xd6, 0xfd, 0xdd, 0xfc, 0xe2, 0x0b, 0xb4, 0x1b, 0x28, 0xde, 0xdb, 0xdf,
  0x2a, 0x0c, 0x35, 0x0c, 0x4b, 0xce, 0xba, 0x25, 0x1c, 0xef, 0xe8, 0xd2,
  0xeb, 0xcd, 0x18, 0xf9, 0xf4, 0x10, 0x07, 0x22, 0xec, 0xee, 0xda, 0xe9,
  0xef, 0x0e, 0x0a, 0x16, 0xfe, 0x55, 0x18, 0x3c, 0xfc, 0x11, 0x05, 0x21,
  0x03, 0xbe, 0x1b, 0x47, 0x0c, 0xed, 0xe3, 0xee, 0x05, 0xf6, 0x00, 0xe0,
  0xe4, 0xfb, 0xe7, 0x0d, 0x20, 0x15, 0x1e, 0xfd, 0x43, 0xda, 0xd3, 0xab,
  0x38, 0x31, 0x17, 0xe6, 0x04, 0xcf, 0xee, 0x13, 0xf5, 0xd1, 0x12, 0xd8,
  0xe4, 0x04, 0x0b, 0x28, 0x1a, 0x0e, 0xcd, 0x0e, 0xfe, 0x18, 0x11, 0x09,
  0xd2, 0x12, 0x28, 0x22, 0x0b, 0x3c, 0xff, 0x02, 0xcc, 0xea, 0x16, 0x12,
  0x02, 0xbc, 0xe8, 0x44, 0x20, 0x19, 0x04, 0x07, 0x1f, 0x31, 0x0e, 0xd7,
  0xfe, 0x19, 0xf5, 0x1e, 0x06, 0x04, 0x27, 0xf5, 0xff, 0xfb, 0x1b, 0xef,
  0x11, 0x0d, 0x04, 0x08, 0xe6, 0x10, 0x23, 0x33, 0xbf, 0xe5, 0x0d, 0x12,
  0x11, 0x50, 0xef, 0xff, 0x31, 0x37, 0xda, 0x00, 0x0d, 0x29, 0x21, 0x24,
  0x00, 0x2a, 0x19, 0x07, 0x25, 0x21, 0xe9, 0xd8, 0x31, 0x19, 0xdf, 0xeb,
  0xf2, 0xbd, 0xe3, 0x07, 0xe2, 0x14, 0x31, 0x1e, 0xed, 0xd2, 0x12, 0xef,
  0x07, 0xcd, 0xed, 0xca, 0x29, 0xc5, 0x0e, 0x17, 0xdb, 0xf4, 0x48, 0xe4,
  0xcb, 0xe0, 0xb7, 0xdb, 0xc8, 0xd4, 0x3b, 0x0e, 0xcf, 0xef, 0x08, 0x29,
  0x1e, 0x35, 0xe2, 0xf6, 0x16, 0xc5, 0xfb, 0xe0, 0x28, 0x43, 0xd7, 0xf6,
  0xc8, 0x13, 0xd4, 0xfb, 0xbc, 0xf2, 0x0b, 0x3a, 0x41, 0xea, 0xd3, 0xed,
  0xf5, 0x0e, 0x0e, 0xf9, 0xc9, 0x27, 0x2e, 0x0d, 0xce, 0xda, 0x08, 0x36,
  0xf5, 0x0e, 0xe8, 0xcb, 0xd5, 0x9d, 0xec, 0xda, 0xc8, 0xff, 0xf8, 0x19,
  0x0f, 0xc6, 0xd1, 0xdb, 0x22, 0xc9, 0xf1, 0xef, 0xe4, 0x1f, 0x34, 0x08,
  0x15, 0xf5, 0x00, 0xd5, 0xe1, 0x19, 0xf1, 0x08, 0xf1, 0xe0, 0x15, 0xe9,
  0x18, 0x03, 0xdf, 0x4a, 0xf2, 0xe3, 0x28, 0xf1, 0xfb, 0x01, 0x00, 0xea,
  0xe8, 0x01, 0xfb, 0xd9, 0x2c, 0x13, 0x00, 0x3d, 0x32, 0x03, 0xf7, 0xd0,
  0x05, 0xcd, 0xe6, 0x1b, 0x0a, 0xfe, 0xfd, 0x03, 0xd2, 0xf8, 0xdd, 0xc8,
  0xff, 0x03, 0xd7, 0xf6, 0xfe, 0xf7, 0x17, 0x04, 0xef, 0xd5, 0x00, 0xda,
  0xd7, 0xec, 0xfb, 0xe9, 0x08, 0xda, 0x11, 0xe7, 0xfd, 0xe6, 0xcb, 0x0d,
  0x38, 0x21, 0x1c, 0x0b, 0xee, 0x1c, 0x02, 0xea, 0x04, 0xce, 0xf1, 0xf5,
  0x1f, 0x24, 0xf4, 0x13, 0x17, 0x2b, 0xe4, 0x0a, 0x03, 0x18, 0xf6, 0x04,
  0x10, 0x16, 0x37, 0xf9, 0x0e, 0x0a, 0x01, 0xfd, 0xe2, 0xef, 0xfe, 0x30,
  0xf7, 0xf5, 0x28, 0xf7, 0x05, 0x16, 0x00, 0xf2, 0x38, 0x29, 0xfe, 0x01,
  0x1e, 0x00, 0x15, 0xdd, 0x0a, 0x16, 0xf9, 0xef, 0x08, 0xee, 0xd9, 0x04,
  0x43, 0xe4, 0xed, 0x26, 0x25, 0x00, 0x23, 0x07, 0x19, 0xfb, 0x37, 0xeb,
  0x3b, 0x3d, 0x26, 0x0e, 0x30, 0xf2, 0xdd, 0xf6, 0xdc, 0xe6, 0x3b, 0x0b,
  0xf2, 0x0c, 0x2d, 0x02, 0xf6, 0xf6, 0x0c, 0x04, 0x3f, 0xfb, 0x03, 0xed,
  0xfa, 0x34, 0x0d, 0x34, 0x1f, 0x09, 0x03, 0x12, 0xf4, 0x1b, 0x16, 0xfa,
  0x0a, 0xf0, 0x08, 0xe5, 0xf9, 0x2f, 0x17, 0xd2, 0x02, 0xb3, 0xbc, 0xed,
  0x0c, 0x15, 0xf3, 0xcd, 0x4c, 0x12, 0xe4, 0xfd, 0x18, 0xc8, 0xef, 0xe7,
  0x13, 0xf7, 0xdd, 0x0f, 0x27, 0x19, 0xcc, 0x0d, 0xfa, 0x04, 0x18, 0x1c,
  0xbf, 0x04, 0x2d, 0x18, 0x05, 0x5d, 0xe5, 0x1f, 0x0f, 0xec, 0xee, 0xf2,
  0x2e, 0x60, 0x39, 0x0c, 0x21, 0xd4, 0xdd, 0x2a, 0x07, 0x07, 0xde, 0xf5,
  0xde, 0xf4, 0xe1, 0x13, 0xdb, 0x07, 0xf3, 0xe1, 0x31, 0xe9, 0xd7, 0xf6,
  0x4d, 0x22, 0x13, 0x0e, 0x10, 0xdd, 0xdd, 0xd6, 0xe9, 0x0a, 0x06, 0x07,
  0x00, 0xef, 0xde, 0x1d, 0x12, 0x10, 0xcc, 0x2d, 0x07, 0x13, 0x16, 0xe2,
  0xda, 0x2b, 0x22, 0xf8, 0x22, 0x10, 0x05, 0x27, 0xeb, 0x17, 0x19, 0x3b,
  0x2c, 0x55, 0x01, 0xf7, 0xf8, 0xe9, 0x0f, 0x12, 0x27, 0x22, 0x00, 0x14,
  0xd1, 0xe1, 0xe1, 0xec, 0xfa, 0xe5, 0x01, 0x23, 0x16, 0x34, 0x22, 0xca,
  0xd9, 0x11, 0xf5, 0x25, 0x3e, 0x20, 0xe7, 0x08, 0xec, 0xf3, 0x09, 0xee,
  0x17, 0x14, 0x2b, 0x16, 0xfc, 0x17, 0xe3, 0xe7, 0x1f, 0xdf, 0x04, 0xd1,
  0xfd, 0x31, 0x09, 0x3b, 0x32, 0x1e, 0x05, 0x31, 0x21, 0x08, 0x23, 0x3d,
  0x1a, 0xed, 0x2f, 0x1a, 0x10, 0xe7, 0x21, 0xea, 0xbe, 0x0e, 0xf5, 0xf6,
  0x2b, 0xf1, 0x0c, 0xff, 0x19, 0x12, 0xd8, 0xcd, 0xf3, 0xf0, 0xf2, 0xd8,
  0x2d, 0xcf, 0x0e, 0xde, 0xfa, 0xdb, 0x11, 0x22, 0x01, 0x21, 0x2a, 0xcf,
  0x20, 0xea, 0xed, 0xdd, 0x42, 0xf2, 0x12, 0x3d, 0xf8, 0xf5, 0x21, 0x1b,
  0xea, 0xff, 0xec, 0x09, 0xe5, 0x20, 0x01, 0xf6, 0xee, 0xe4, 0xf1, 0x24,
  0x18, 0xd4, 0xdf, 0xd8, 0xd2, 0xf0, 0x1a, 0x01, 0x01, 0xcd, 0x1c, 0xe6,
  0xf3, 0x20, 0xfc, 0xe8, 0x1a, 0x1d, 0x04, 0xc7, 0x28, 0x18, 0xf4, 0x05,
  0x2b, 0xca, 0x39, 0x1e, 0xfa, 0x00, 0x1f, 0xfb, 0xd2, 0x3d, 0x02, 0xea,
  0x02, 0x28, 0x17, 0xb8, 0x49, 0x13, 0xee, 0x03, 0x01, 0xbd, 0x13, 0xe3,
  0xf6, 0xdf, 0x1d, 0x25, 0xd2, 0x09, 0xea, 0xe3, 0x0e, 0x03, 0x12, 0x1d,
  0x0f, 0xd9, 0xd7, 0xe2, 0xb7, 0x36, 0x1e, 0xcd, 0xe1, 0x04, 0xe7, 0x1a,
  0xfc, 0xfb, 0x17, 0x0a, 0xdf, 0x33, 0x11, 0xd6, 0x03, 0xd1, 0xee, 0x00,
  0x05, 0xcc, 0x00, 0x19, 0x3e, 0x08, 0xde, 0x1a, 0xe2, 0xe1, 0x2b, 0xb0,
  0x11, 0xf3, 0xee, 0xc3, 0x68, 0x36, 0xce, 0x32, 0x0f, 0xb9, 0x1c, 0xe9,
  0xb7, 0x05, 0x2e, 0x04, 0xea, 0x35, 0xd2, 0x15, 0xd6, 0x10, 0x08, 0xec,
  0xf7, 0x26, 0xe9, 0xf2, 0x07, 0x2f, 0x09, 0x29, 0x15, 0x2c, 0xc6, 0xb7,
  0x0f, 0x0e, 0x2a, 0xe6, 0xf3, 0x0f, 0x3b, 0xe5, 0xb0, 0xfe, 0xf3, 0xab,
  0x36, 0xe0, 0xcd, 0xf2, 0x48, 0xf2, 0xe1, 0xd2, 0xd8, 0xae, 0x05, 0xf1,
  0x08, 0x0d, 0xfc, 0x30, 0x17, 0x13, 0xb6, 0x22, 0xf3, 0xf9, 0x36, 0xc1,
  0xe6, 0x08, 0x45, 0x3a, 0xfa, 0x34, 0xa6, 0x30, 0x25, 0xd6, 0xeb, 0x3a,
  0xf0, 0x24, 0x03, 0x36, 0x24, 0xe5, 0xd1, 0xda, 0x20, 0x1b, 0xc8, 0xba,
  0x04, 0xee, 0x55, 0x07, 0xbc, 0x1b, 0x2a, 0x0f, 0xec, 0xd8, 0x1e, 0xfe,
  0x0e, 0xc5, 0xb2, 0xff, 0x40, 0x2d, 0xeb, 0xea, 0xdc, 0xed, 0xf6, 0xff,
  0xee, 0x2d, 0x21, 0xfa, 0xde, 0xe0, 0xd4, 0xff, 0xf8, 0x4c, 0x22, 0xfa,
  0xeb, 0x23, 0x4e, 0x13, 0x52, 0x30, 0xcd, 0x46, 0x25, 0xd2, 0xed, 0xf8,
  0x46, 0x2c, 0x12, 0x42, 0x15, 0x1b, 0x0d, 0x18, 0x32, 0x28, 0xda, 0xff,
  0xeb, 0xd2, 0x2b, 0x1f, 0xc8, 0x01, 0x30, 0x14, 0xb2, 0xbb, 0xff, 0xf6,
  0xf9, 0xfe, 0xec, 0x09, 0x2a, 0x40, 0xe5, 0xa9, 0x0b, 0xe4, 0xe3, 0x25,
  0xf5, 0xd7, 0xf5, 0xef, 0xdf, 0xf7, 0xf2, 0xe8, 0x03, 0x23, 0x4e, 0xd2,
  0x01, 0x1b, 0x09, 0x28, 0x48, 0x3d, 0xda, 0x14, 0x45, 0x1e, 0xd1, 0x23,
  0x25, 0x38, 0x08, 0x53, 0xf1, 0x3a, 0xe5, 0xd1, 0x0b, 0x2b, 0x1e, 0x1d,
  0x21, 0x2c, 0x02, 0x29, 0x23, 0x0d, 0xe6, 0x31, 0x26, 0x03, 0x30, 0x07,
  0xe4, 0x06, 0x0e, 0xea, 0xff, 0x12, 0xd8, 0x07, 0x0e, 0x24, 0x29, 0xec,
  0xe2, 0x0b, 0x39, 0x0b, 0xc2, 0x23, 0x33, 0x29, 0x17, 0xed, 0xe8, 0x13,
  0x17, 0x26, 0xff, 0x1a, 0xf4, 0xf1, 0x48, 0x1c, 0x0d, 0xd1, 0x24, 0x27,
  0xf6, 0x06, 0x0c, 0xf8, 0x05, 0x39, 0x38, 0xf1, 0xdc, 0xf4, 0x12, 0xf1,
  0x05, 0x41, 0xe9, 0x02, 0x4e, 0xd4, 0xdf, 0x25, 0x11, 0x2b, 0x1a, 0x1c,
  0xc7, 0x3d, 0xdf, 0xc7, 0xb8, 0xfc, 0x09, 0x09, 0x08, 0x49, 0x0f, 0x08,
  0xe1, 0x1f, 0x2a, 0x30, 0xd9, 0xdf, 0xe6, 0xdf, 0x22, 0xf2, 0xd7, 0x33,
  0x16, 0x24, 0xa7, 0xd8, 0xf5, 0xe2, 0x19, 0x36, 0x19, 0xe7, 0x4f, 0x12,
  0x08, 0xd9, 0xe3, 0xdc, 0xfc, 0x3e, 0x25, 0x06, 0xc9, 0xf1, 0x4d, 0x06,
  0x3a, 0x1f, 0xda, 0x0c, 0x1c, 0xf6, 0xa2, 0x04, 0x42, 0x52, 0x3f, 0x59,
  0x02, 0xf5, 0xef, 0xb6, 0xe7, 0xb5, 0xfe, 0xf1, 0x38, 0x23, 0xc9, 0xf5,
  0xdf, 0x42, 0xc2, 0x0a, 0xea, 0x95, 0x20, 0xe0, 0x15, 0x04, 0xe8, 0x4e,
  0x26, 0x31, 0xb6, 0xe4, 0xc0, 0xdd, 0x12, 0x45, 0xd9, 0x2b, 0x0c, 0x4b,
  0xe5, 0xec, 0xfb, 0xb7, 0xd1, 0xf2, 0xed, 0xdd, 0xdd, 0x37, 0x3e, 0x07,
  0x1c, 0x14, 0xab, 0x14, 0x37, 0xdb, 0xba, 0xc8, 0xff, 0x3f, 0x27, 0xfd,
  0xb7, 0x16, 0xf7, 0x15, 0xb1, 0xd1, 0x3e, 0xe7, 0x51, 0x2f, 0xd8, 0x16,
  0xdd, 0x44, 0x09, 0xcb, 0xe4, 0x9c, 0x39, 0xe4, 0xd1, 0xef, 0xb8, 0x43,
  0x49, 0x14, 0xd7, 0xec, 0xbf, 0xde, 0x2c, 0x27, 0x01, 0x26, 0x34, 0x22,
  0xc0, 0xf6, 0xc4, 0xfc, 0xcf, 0x0f, 0x20, 0x0f, 0x1f, 0x2e, 0xdd, 0xf8,
  0xef, 0x0b, 0x04, 0xd9, 0x18, 0x06, 0xb3, 0xff, 0x14, 0xfa, 0x1d, 0xf7,
  0xfa, 0xce, 0x1f, 0x1c, 0xb7, 0xac, 0x2b, 0x4b, 0x25, 0xfe, 0x1c, 0xe0,
  0xf3, 0x14, 0xf3, 0xc4, 0x3e, 0xfd, 0xf2, 0xea, 0x27, 0xd3, 0xf3, 0x25,
  0x21, 0xcf, 0xd6, 0xe1, 0xd9, 0x08, 0x10, 0xf7, 0x12, 0x03, 0xd1, 0xfe,
  0xdc, 0x11, 0xd0, 0x0e, 0xe5, 0xe9, 0xf0, 0xd4, 0xd8, 0x14, 0xbd, 0x1a,
  0xd2, 0x07, 0x01, 0x16, 0x13, 0x12, 0xe0, 0x1d, 0xea, 0x14, 0xcf, 0xcc,
  0x08, 0xdf, 0x24, 0x38, 0xe9, 0xdd, 0x5a, 0x48, 0xd3, 0x2a, 0x31, 0xb6,
  0xf0, 0x4f, 0x38, 0xbc, 0x59, 0x08, 0xdb, 0xf0, 0x30, 0xbc, 0x1d, 0x28,
  0xf4, 0xc8, 0x25, 0x2e, 0x0f, 0x14, 0xe9, 0xff, 0xf0, 0xc0, 0xdf, 0x12,
  0xed, 0x0e, 0xe8, 0xfa, 0xee, 0xed, 0xff, 0xff, 0x04, 0x00, 0x00, 0x00,
  0x08, 0x00, 0x00, 0x00, 0xff, 0xff, 0xff, 0xff, 0x68, 0x01, 0x00, 0x00,
  0x02, 0xee, 0xff, 0xff, 0x04, 0x00, 0x00, 0x00, 0x50, 0x00, 0x00, 0x00,
  0xf6, 0x79, 0x9d, 0x3d, 0xee, 0x0b, 0x18, 0xbb, 0x86, 0xd6, 0xe8, 0xbb,
  0x5c, 0xb2, 0x0b, 0x3c, 0x27, 0x19, 0x0a, 0x3d, 0xa2, 0x9c, 0xe7, 0xbc,
  0x3c, 0x9b, 0x95, 0xbc, 0x8d, 0xdb, 0x0a, 0x3d, 0x7a, 0x44, 0x76, 0xbc,
  0x25, 0xfb, 0x75, 0x3d, 0xd6, 0x68, 0x51, 0x3d, 0x92, 0xeb, 0x4f, 0x3b,
  0xd0, 0x20, 0x9c, 0xbc, 0x1b, 0xfd, 0x84, 0x3d, 0x61, 0x5e, 0xf8, 0x3c,
  0x10, 0x1d, 0x18, 0x3c, 0x8d, 0xdc, 0x7c, 0xbc, 0x24, 0xd2, 0xf8, 0xbb,
  0x95, 0xc8, 0xac, 0x3c, 0xc3, 0x5a, 0xa9, 0x3d, 0x5e, 0xee, 0xff, 0xff,
  0x04, 0x00, 0x00, 0x00, 0x0c, 0x00, 0x00, 0x00, 0x16, 0x05, 0xdd, 0xbd,
  0xfe, 0x14, 0x5e, 0x3b, 0xe5, 0x95, 0xf1, 0x3d, 0x76, 0xee, 0xff, 0xff,
  0x04, 0x00, 0x00, 0x00, 0x10, 0x0e, 0x00, 0x00, 0x8f, 0x4d, 0x22, 0xbe,
  0x31, 0xce, 0x4b, 0x3d, 0xb9, 0xbb, 0xc8, 0x3c, 0xac, 0xeb, 0xfd, 0xbd,
  0xfe, 0x87, 0x0f, 0x3d, 0x2c, 0x8b, 0x28, 0xbe, 0xd0, 0xdc, 0x88, 0x3d,
  0x70, 0x21, 0x1b, 0x3d, 0x9d, 0x39, 0x14, 0xbe, 0xe0, 0xed, 0x58, 0xbd,
  0xb9, 0x52, 0x83, 0xbd, 0x02, 0x9a, 0x13, 0x3d, 0xa6, 0xe6, 0xfc, 0x3d,
  0x43, 0x90, 0xcc, 0xbd, 0x17, 0x8d, 0x94, 0xbd, 0x7e, 0x4b, 0x95, 0xbb,
  0x85, 0xe9, 0x73, 0x3e, 0xa2, 0xcf, 0xe2, 0x3d, 0x49, 0x3c, 0xff, 0x3c,
  0x33, 0x01, 0x58, 0xbb, 0xc5, 0xca, 0x66, 0xbe, 0x5f, 0x6a, 0x0e, 0x3e,
  0x7d, 0x2b, 0xa5, 0x3e, 0xe8, 0xa5, 0x51, 0xbd, 0x20, 0x99, 0xf3, 0x3d,
  0x17, 0x3a, 0xb2, 0x3d, 0xc7, 0xe5, 0x03, 0x3e, 0x60, 0x67, 0x08, 0x3e,
  0x36, 0xe7, 0xd6, 0xbd, 0x02, 0x8f, 0xa0, 0x3c, 0x10, 0x59, 0x22, 0x3d,
  0xa6, 0xe6, 0x21, 0x3d, 0x98, 0x75, 0xa7, 0xbd, 0xd8, 0x31, 0x50, 0xbe,
  0x81, 0xda, 0xb0, 0xba, 0x7a, 0x9d, 0x9d, 0xbc, 0x0e, 0x58, 0x96, 0x3e,
  0x28, 0x5f, 0x0a, 0x3d, 0x82, 0xb7, 0x91, 0xbe, 0x67, 0x56, 0x50, 0x3e,
  0xd9, 0x56, 0x46, 0x3e, 0x44, 0x40, 0x05, 0xbb, 0xc0, 0x6f, 0x28, 0x3e,
  0x92, 0xe6, 0x9a, 0xbe, 0xd9, 0xa0, 0x57, 0xbe, 0xc7, 0x5e, 0x1d, 0xbc,
  0xc3, 0xaf, 0xab, 0xbd, 0x36, 0x73, 0x28, 0x3e, 0x0d, 0xf6, 0x8b, 0xbe,
  0xe8, 0xd9, 0x8f, 0x3d, 0x74, 0xaa, 0x53, 0xbe, 0xcd, 0xed, 0x72, 0x3c,
  0x67, 0x47, 0x9d, 0x3e, 0x91, 0xb8, 0x2f, 0xbe, 0xc4, 0xe4, 0x42, 0x3e,
  0xbd, 0xcb, 0x29, 0xbe, 0xe2, 0x35, 0x87, 0x3e, 0x9b, 0x9d, 0xac, 0xbd,
  0xd6, 0xa5, 0xb8, 0xbe, 0xa1, 0x98, 0x54, 0x3d, 0xb5, 0x0a, 0xc7, 0x3d,
  0x13, 0xd6, 0x16, 0xbe, 0x21, 0xaa, 0x12, 0x3e, 0x41, 0x91, 0x9d, 0xbe,
  0x7a, 0xc1, 0x83, 0xbd, 0xfa, 0xfa, 0xd0, 0x3d, 0xcb, 0x69, 0x3c, 0x3e,
  0x27, 0xde, 0xf8, 0x3d, 0x02, 0x39, 0x7c, 0xbe, 0x27, 0x75, 0x1e, 0x3e,
  0xd7, 0xeb, 0xf8, 0x3d, 0x9a, 0x6f, 0xbe, 0x3b, 0x3f, 0xa3, 0x07, 0x3e,
  0x4c, 0xa8, 0x08, 0xbe, 0x6e, 0x92, 0xc2, 0xbc, 0x6b, 0x01, 0x31, 0xbd,
  0x2a, 0x10, 0x08, 0xbe, 0xd1, 0x34, 0x03, 0x3e, 0x71, 0xa0, 0x15, 0xbe,
  0xc1, 0x94, 0x75, 0xbd, 0x84, 0x10, 0x39, 0x3d, 0x61, 0x64, 0x1f, 0x3d,
  0x0f, 0x45, 0x2f, 0x3e, 0xcf, 0x6c, 0xe2, 0xbd, 0xc0, 0xd6, 0xbb, 0x3c,
  0x6e, 0xe2, 0x13, 0xbe, 0x64, 0xb5, 0x90, 0x3e, 0x88, 0x44, 0x89, 0xbd,
  0xe5, 0xba, 0x53, 0xbd, 0x31, 0xca, 0x0b, 0x3e, 0x62, 0x2a, 0xab, 0x3d,
  0x9e, 0x51, 0x83, 0xbe, 0x38, 0x06, 0x41, 0x3e, 0x91, 0xe8, 0x2c, 0x3e,
  0x44, 0x2d, 0xf4, 0xbc, 0x7c, 0x1f, 0x0f, 0x3e, 0x55, 0x56, 0x3b, 0xbe,
  0x39, 0x14, 0x26, 0x3e, 0x6e, 0x99, 0x3a, 0x3e, 0x2a, 0xc3, 0x46, 0x3b,
  0xa1, 0x51, 0x39, 0x3d, 0x31, 0x32, 0x43, 0xbe, 0x10, 0xec, 0xd5, 0x3d,
  0x40, 0xb4, 0xd4, 0x3d, 0xcb, 0xbd, 0x18, 0x3d, 0xec, 0xa5, 0xb3, 0xbd,
  0x59, 0x71, 0x5a, 0xbe, 0xe3, 0xf2, 0xd7, 0xbd, 0x3f, 0x99, 0x0c, 0x3e,
  0xfa, 0x27, 0x69, 0x3d, 0x17, 0x9c, 0x15, 0x3e, 0x3f, 0xab, 0x22, 0xbe,
  0x90, 0x5a, 0x75, 0x3e, 0xe6, 0xd8, 0x71, 0x3e, 0xf5, 0x7e, 0xaf, 0x3d,
  0xf5, 0xe2, 0xd9, 0x3c, 0x7d, 0x2c, 0x01, 0xbd, 0x3b, 0xd0, 0x20, 0x3e,
  0x81, 0x6a, 0x49, 0x3e, 0xb8, 0x03, 0x32, 0xbe, 0x54, 0x13, 0x61, 0xbd,
  0x92, 0xe7, 0x0a, 0xbc, 0xcb, 0xcc, 0x92, 0xbd, 0x5f, 0xd0, 0x36, 0xbd,
  0x1a, 0x91, 0xe0, 0x3d, 0xa9, 0x60, 0x9a, 0x3d, 0x00, 0xfe, 0x2a, 0x3d,
  0x1f, 0xb0, 0x31, 0x3e, 0x71, 0x32, 0x9d, 0x3e, 0x62, 0xcc, 0x98, 0xbd,
  0xe5, 0x0a, 0x51, 0x3e, 0x53, 0x28, 0x26, 0xbe, 0xab, 0x1b, 0x53, 0x3d,
  0x8a, 0x9a, 0x4f, 0xbe, 0xc3, 0x85, 0xf0, 0xbc, 0x99, 0xdd, 0x9f, 0x3d,
  0x03, 0x36, 0x40, 0x3e, 0xde, 0xca, 0xe1, 0x3c, 0xeb, 0x13, 0xd1, 0x3e,
  0x4b, 0x88, 0x30, 0xbe, 0xda, 0x5f, 0xb6, 0x3c, 0xc7, 0x69, 0x9c, 0xbe,
  0x23, 0xc3, 0xbc, 0x3d, 0x26, 0x12, 0x15, 0x3d, 0xc0, 0x37, 0x53, 0xbe,
  0x14, 0x75, 0xae, 0x3c, 0x11, 0x83, 0x5e, 0xbd, 0xa7, 0x24, 0x68, 0xbd,
  0x95, 0x5e, 0xac, 0x3e, 0x94, 0xa6, 0x03, 0x3e, 0xf6, 0x3e, 0xee, 0xbd,
  0x8f, 0x85, 0x53, 0xbd, 0x34, 0xc4, 0x3b, 0x3e, 0xb5, 0xee, 0x28, 0xbc,
  0x03, 0x5b, 0xae, 0x3d, 0x98, 0xa6, 0x29, 0xbd, 0x06, 0xd9, 0x13, 0xbc,
  0x23, 0x7f, 0x6d, 0xbd, 0x73, 0x20, 0x30, 0x3e, 0x54, 0x3c, 0x1b, 0xbd,
  0x51, 0x6a, 0xb8, 0xbd, 0xba, 0x10, 0x72, 0xbd, 0x84, 0x49, 0xa6, 0x3d,
  0xdf, 0x4b, 0x6a, 0x3e, 0x53, 0xf8, 0x08, 0x3c, 0x04, 0x0b, 0xc3, 0x3b,
  0x77, 0xab, 0xd2, 0xbd, 0x5c, 0xb5, 0x72, 0xbd, 0x51, 0xbd, 0x83, 0x3d,
  0x76, 0x6d, 0xd3, 0x3d, 0x83, 0x81, 0x22, 0x3c, 0xa1, 0x29, 0x05, 0xbe,
  0xdd, 0x19, 0xa5, 0x3c, 0x75, 0xfc, 0x3d, 0xbc, 0x2b, 0x62, 0x77, 0x3c,
  0xdc, 0x75, 0x10, 0x3e, 0xfc, 0xc8, 0x3d, 0x3e, 0x01, 0x90, 0x9f, 0x3c,
  0x1a, 0x5c, 0x51, 0x3e, 0xc1, 0x91, 0x20, 0xbe, 0x6d, 0x3c, 0xa7, 0x3d,
  0xd3, 0xea, 0x86, 0x3e, 0xb0, 0xc3, 0xc2, 0xbd, 0xb2, 0xd1, 0x31, 0xbd,
  0x0f, 0xf2, 0x93, 0xbc, 0x94, 0x1b, 0x55, 0x3c, 0xab, 0x46, 0x7c, 0xbc,
  0xab, 0x43, 0xc9, 0xbd, 0x9b, 0x22, 0x64, 0x3d, 0x34, 0x49, 0x2b, 0x3d,
  0xe3, 0xae, 0x63, 0x3e, 0x9e, 0xa4, 0xa5, 0x3e, 0x95, 0xbe, 0x85, 0xbe,
  0x55, 0x43, 0x92, 0xbd, 0x36, 0xd8, 0x3d, 0xbe, 0x2e, 0xcf, 0x9b, 0x3d,
  0x3b, 0xa2, 0xa3, 0xbe, 0x95, 0xe1, 0x2b, 0xbd, 0xd3, 0xe3, 0x2d, 0x3e,
  0xc6, 0x88, 0x0e, 0x3e, 0x6a, 0xff, 0x26, 0xbe, 0x73, 0x64, 0xfb, 0xbd,
  0xac, 0xd7, 0xb8, 0xbe, 0x1c, 0x2d, 0xea, 0x3d, 0xfd, 0x41, 0x38, 0x3e,
  0xe8, 0x0a, 0xc7, 0xbd, 0x75, 0xf8, 0xc8, 0xbe, 0x80, 0x88, 0x48, 0xbe,
  0x6d, 0xb7, 0x9f, 0x3d, 0x8c, 0xcc, 0xa6, 0x3e, 0x11, 0xc0, 0x37, 0x3d,
  0xd6, 0x58, 0x11, 0xbe, 0xbf, 0xcb, 0xa8, 0x3d, 0xbd, 0xad, 0x93, 0x3d,
  0x72, 0xce, 0x2a, 0xbd, 0x99, 0x47, 0xc1, 0x3d, 0x32, 0x5f, 0xcd, 0xbd,
  0xf9, 0x6e, 0x25, 0xbe, 0x83, 0xb8, 0x26, 0xbd, 0xb2, 0xdd, 0xf0, 0x3d,
  0x9f, 0x78, 0x63, 0x3e, 0x87, 0xc5, 0x4b, 0x3e, 0xde, 0xb0, 0xd3, 0xbd,
  0xd5, 0xa8, 0xc2, 0xbd, 0x63, 0x05, 0xab, 0x3d, 0xbf, 0x94, 0x99, 0xbc,
  0xcb, 0x8e, 0xbd, 0xbd, 0x24, 0x71, 0xcf, 0x3d, 0x67, 0x82, 0x64, 0x3e,
  0x4f, 0xdc, 0xca, 0xbc, 0xc1, 0x9b, 0x63, 0xbd, 0x3e, 0x9c, 0x39, 0x3e,
  0x28, 0x53, 0x82, 0xbe, 0xbb, 0x65, 0xe7, 0xbd, 0x13, 0xfd, 0x0a, 0xbe,
  0x3b, 0x14, 0x00, 0xbe, 0x57, 0x45, 0xd4, 0xbe, 0xdf, 0x29, 0xb3, 0x3d,
  0xf3, 0x06, 0x2e, 0x3e, 0x97, 0xb3, 0xb5, 0x3d, 0xae, 0xb9, 0xa6, 0xbd,
  0xf6, 0xad, 0x65, 0xbe, 0x8a, 0x59, 0x16, 0xbd, 0x1f, 0x04, 0xe1, 0x3d,
  0x3f, 0x06, 0x74, 0x3d, 0xfe, 0x59, 0x15, 0x3c, 0x9e, 0x44, 0x53, 0xbb,
  0xf8, 0x50, 0xc5, 0xbd, 0x5d, 0x47, 0x26, 0x3e, 0x48, 0x5f, 0xbe, 0xbd,
  0xfb, 0xb6, 0xdc, 0x3d, 0x2a, 0x0f, 0xe1, 0x3d, 0xf7, 0x39, 0x8e, 0xbd,
  0xbe, 0x26, 0xba, 0xbd, 0x52, 0x3a, 0x3f, 0xbe, 0x1b, 0xce, 0xdf, 0x3d,
  0x8e, 0xe6, 0x7c, 0xbe, 0xb8, 0x57, 0xfb, 0x3c, 0x74, 0xc7, 0x58, 0x3e,
  0x4c, 0x2b, 0x4e, 0x3b, 0xa2, 0x61, 0x74, 0x3e, 0x22, 0x93, 0x57, 0x3e,
  0x8d, 0xf4, 0x86, 0xbe, 0x94, 0xa2, 0x3e, 0x3d, 0xec, 0xf0, 0x51, 0x3e,
  0x65, 0x45, 0x16, 0xbe, 0x91, 0x19, 0x07, 0xbc, 0x31, 0x0b, 0x53, 0xbd,
  0x68, 0x83, 0xa8, 0x3e, 0xfe, 0x63, 0x86, 0x3d, 0x1a, 0x62, 0xff, 0x3c,
  0x95, 0xe8, 0xfe, 0x3c, 0x78, 0x9d, 0xde, 0xbd, 0x6a, 0x2f, 0xd2, 0x3d,
  0xe6, 0xc5, 0xbc, 0xbd, 0x3f, 0xbc, 0xb1, 0xbd, 0x96, 0xca, 0x1d, 0xbe,
  0x08, 0x75, 0xed, 0x3d, 0x69, 0x16, 0x8f, 0xbe, 0x92, 0x30, 0x08, 0xbe,
  0x9a, 0x35, 0x96, 0x3d, 0x85, 0x1c, 0x64, 0xbe, 0xb0, 0x97, 0x44, 0x3d,
  0x4c, 0xf0, 0xb0, 0xbc, 0x59, 0x5c, 0x4e, 0x3e, 0xe9, 0x7e, 0x33, 0xbe,
  0x3f, 0x9f, 0xea, 0xbd, 0x04, 0xe8, 0x55, 0x3d, 0x49, 0xce, 0x3e, 0xbe,
  0xb1, 0xa1, 0x84, 0x3d, 0xfe, 0x52, 0x1c, 0x3e, 0x81, 0x11, 0x2b, 0xbd,
  0x49, 0x17, 0x5a, 0x3e, 0xa1, 0xe0, 0xae, 0x3d, 0x3d, 0x01, 0x3d, 0x3e,
  0x72, 0x6c, 0xe8, 0x3c, 0xd5, 0x3f, 0x3a, 0xbe, 0xf4, 0xd3, 0xe4, 0xbd,
  0x92, 0xe7, 0xce, 0xbd, 0x1a, 0x84, 0x73, 0xbe, 0x79, 0x4c, 0x6b, 0xbe,
  0x5e, 0xda, 0x4a, 0xbe, 0x36, 0x2f, 0x3e, 0xbe, 0x75, 0x13, 0x9f, 0xbd,
  0x66, 0x27, 0xd8, 0xbc, 0x28, 0xed, 0x66, 0x3d, 0x1f, 0x56, 0xf8, 0xbd,
  0x27, 0xd4, 0x2a, 0xbe, 0xe4, 0x98, 0x88, 0xbe, 0xda, 0x93, 0x46, 0x3e,
  0x69, 0x6b, 0x2b, 0x3a, 0xc0, 0x8b, 0x2c, 0x3e, 0x8b, 0x6f, 0x40, 0x3e,
  0xdc, 0x1a, 0x3c, 0x3d, 0x91, 0x93, 0xca, 0xbd, 0xc6, 0xd1, 0xf6, 0xbd,
  0xf3, 0x1c, 0xaa, 0xbe, 0x70, 0xd5, 0xa2, 0x3c, 0xa0, 0x38, 0x70, 0xbe,
  0xa6, 0x76, 0x12, 0x3d, 0x55, 0x50, 0x13, 0x3e, 0x7f, 0xba, 0xac, 0x3d,
  0x26, 0xd8, 0x50, 0x3e, 0x54, 0x45, 0x94, 0x3d, 0x83, 0xd0, 0x83, 0xbd,
  0x60, 0x21, 0x94, 0x3b, 0x84, 0x57, 0x3c, 0xbe, 0xc4, 0x77, 0xe7, 0xbd,
  0x42, 0xd8, 0x47, 0xbe, 0x00, 0x93, 0x88, 0xbe, 0xab, 0x86, 0x76, 0xbe,
  0xd7, 0xcf, 0x0f, 0xbe, 0xf8, 0xe5, 0x05, 0xbe, 0x67, 0x94, 0xf3, 0x3d,
  0xb5, 0x5d, 0x40, 0xbc, 0x10, 0xed, 0x00, 0xbe, 0xd9, 0x9f, 0xca, 0xbd,
  0xe6, 0xd1, 0x8c, 0xbd, 0x95, 0x52, 0xd5, 0xbd, 0xde, 0xe4, 0x2c, 0x3d,
  0x7d, 0xc4, 0x76, 0xbd, 0x5b, 0x9e, 0x47, 0x3e, 0x8e, 0xbd, 0x3a, 0x3e,
  0xe2, 0x74, 0x0e, 0x3e, 0x50, 0xc1, 0xd1, 0xbd, 0x7c, 0x16, 0x13, 0x3e,
  0x58, 0x75, 0xb9, 0xbc, 0x87, 0x9f, 0xce, 0xbd, 0x23, 0x7d, 0x42, 0xbe,
  0xcc, 0xbb, 0xd5, 0xbd, 0x59, 0xb9, 0x69, 0x3d, 0xb8, 0x5b, 0x8f, 0x3e,
  0xf3, 0xdd, 0x0d, 0x3d, 0x1f, 0xb4, 0xfa, 0x3c, 0xf3, 0x7c, 0xd7, 0xbd,
  0xca, 0x79, 0xba, 0xbd, 0x7c, 0xc5, 0x7b, 0xbd, 0xec, 0xe7, 0x04, 0xbe,
  0xfd, 0xf6, 0x7c, 0xbe, 0xb3, 0xbd, 0x42, 0xbe, 0x80, 0xce, 0xc9, 0xbd,
  0x0e, 0xb8, 0xb8, 0xbd, 0x9d, 0x4a, 0x64, 0xbd, 0x1f, 0xea, 0x3c, 0xbe,
  0x28, 0x12, 0xd0, 0x3d, 0x2f, 0x67, 0x1c, 0x3e, 0xb9, 0x2c, 0xd8, 0x3d,
  0x7b, 0xcf, 0xc8, 0xbd, 0x65, 0x7a, 0xc7, 0xbd, 0x89, 0xc5, 0x3a, 0x3d,
  0x33, 0x0f, 0xe7, 0xbc, 0x0e, 0x9c, 0x2e, 0x3e, 0x91, 0xae, 0x8c, 0x3d,
  0xa4, 0x1c, 0xd9, 0x3d, 0xfe, 0x6c, 0x8e, 0xbe, 0xfa, 0x70, 0xdd, 0xbd,
  0xd6, 0x9b, 0x88, 0xbd, 0x8a, 0xe4, 0x28, 0xbe, 0x4d, 0x7d, 0x84, 0xbe,
  0x1b, 0x9a, 0xa6, 0xbd, 0x58, 0x2a, 0x5e, 0xbe, 0xd6, 0xaf, 0xa6, 0x3d,
  0x1b, 0xee, 0xbd, 0x3e, 0xbe, 0xac, 0x32, 0xbe, 0x8d, 0x07, 0x0f, 0x3e,
  0xfc, 0x87, 0x30, 0x3e, 0xe1, 0x54, 0x42, 0x3e, 0xfe, 0x05, 0x8e, 0x3c,
  0xd7, 0x38, 0xc5, 0xbd, 0x21, 0x2f, 0x3b, 0xbe, 0x10, 0x65, 0x8b, 0x3d,
  0x60, 0x36, 0xf2, 0xbd, 0xb3, 0x26, 0xa4, 0x3c, 0x73, 0x60, 0x0a, 0x3d,
  0x9e, 0x8d, 0x30, 0xbd, 0xcf, 0xc7, 0x33, 0xbe, 0xa5, 0x2d, 0x89, 0x3e,
  0x74, 0x39, 0x33, 0xbe, 0x98, 0x8d, 0x5b, 0xbd, 0x3f, 0xdb, 0x0d, 0x3d,
  0x41, 0x8b, 0xd3, 0x3c, 0x7a, 0x1d, 0x90, 0xbd, 0x45, 0xe3, 0x96, 0x3e,
  0x8b, 0xef, 0x0e, 0x3e, 0xac, 0x91, 0xc9, 0x3d, 0x59, 0x84, 0xdb, 0x3b,
  0x82, 0x64, 0x2f, 0x3b, 0xba, 0xe0, 0x25, 0xbe, 0x50, 0xf1, 0xe8, 0xbd,
  0x46, 0x0b, 0x95, 0xbe, 0x37, 0x75, 0x46, 0xbe, 0xd4, 0x45, 0x08, 0xbe,
  0xca, 0x59, 0x82, 0xbd, 0xa4, 0xfc, 0x7b, 0xbd, 0x1d, 0x5e, 0x79, 0x3e,
  0x09, 0xda, 0xb3, 0x3c, 0x44, 0x4d, 0xcf, 0x3e, 0x1c, 0x86, 0x0e, 0x3e,
  0x75, 0x2e, 0x76, 0xbe, 0x00, 0x0a, 0x00, 0x3e, 0xd5, 0x23, 0x6b, 0xbd,
  0x78, 0xe5, 0x3b, 0x3d, 0x16, 0x63, 0x22, 0x3e, 0x7d, 0x03, 0x0d, 0x3e,
  0xb7, 0x20, 0xfa, 0x3d, 0x39, 0x6d, 0x07, 0xbe, 0x65, 0x8c, 0xcd, 0x3d,
  0x50, 0x77, 0xbb, 0x3d, 0xc0, 0x17, 0x3a, 0xbe, 0xd2, 0xee, 0x14, 0xbe,
  0xe2, 0xb8, 0x21, 0xbe, 0xa9, 0x0b, 0x5f, 0x3d, 0x8b, 0x55, 0xdb, 0x3e,
  0x03, 0x7d, 0x6e, 0xbe, 0xf6, 0x24, 0xd3, 0x3d, 0x46, 0x14, 0x15, 0x3e,
  0x9f, 0xd2, 0xc0, 0x3e, 0xe8, 0x1b, 0xca, 0x3d, 0x96, 0x34, 0x6f, 0xbe,
  0x53, 0x50, 0x9c, 0x3d, 0xfe, 0x8e, 0xa7, 0xbd, 0x5c, 0x1d, 0x6c, 0xbe,
  0xc7, 0x72, 0x46, 0x3d, 0xe9, 0xca, 0x00, 0xbe, 0x07, 0x60, 0x98, 0x3d,
  0xea, 0xb2, 0x67, 0xbd, 0x2a, 0x50, 0x81, 0x3e, 0x8b, 0xac, 0xfa, 0x3d,
  0xd2, 0x6f, 0xa1, 0xbd, 0x6b, 0xe1, 0x3b, 0x3d, 0x50, 0x56, 0xe5, 0xbd,
  0xd5, 0xad, 0x1f, 0xbd, 0x1e, 0x49, 0x97, 0xbc, 0xd9, 0x1a, 0x0d, 0xbe,
  0x84, 0x77, 0x34, 0x3e, 0x48, 0x32, 0xe4, 0x3d, 0xf1, 0x38, 0x4f, 0x3e,
  0xb5, 0x69, 0x17, 0x3d, 0xc6, 0xc1, 0xa9, 0xbc, 0xcf, 0x72, 0x68, 0xbe,
  0x06, 0xce, 0x0e, 0xbc, 0x59, 0xcd, 0xdd, 0xbd, 0xd5, 0x8c, 0x93, 0x3e,
  0x79, 0x0b, 0x41, 0x3e, 0x1a, 0xeb, 0xf6, 0x3d, 0x37, 0xde, 0x14, 0xbe,
  0x9b, 0xcf, 0xf0, 0x3c, 0x7e, 0x0b, 0x33, 0x3d, 0x6a, 0xf5, 0x83, 0x3e,
  0xc9, 0xbe, 0xeb, 0xbd, 0xb8, 0x4a, 0x9e, 0xbd, 0xa5, 0xb4, 0xe9, 0xbd,
  0x6f, 0xc2, 0x4c, 0x3c, 0xa2, 0xd0, 0x8b, 0x3e, 0x66, 0xa6, 0x19, 0xbd,
  0x34, 0x0d, 0x10, 0xbe, 0xae, 0x59, 0x98, 0x3d, 0x50, 0xfc, 0x85, 0xbd,
  0x97, 0x97, 0x8e, 0x3d, 0x77, 0x00, 0x58, 0xbe, 0x5e, 0xe5, 0x23, 0xbd,
  0x31, 0x95, 0xd4, 0xbc, 0x4a, 0x1d, 0xac, 0x3e, 0xe3, 0x78, 0xca, 0xbc,
  0x8e, 0x4e, 0xad, 0xbd, 0xea, 0x38, 0x94, 0x3d, 0x8d, 0xbd, 0x23, 0x3d,
  0x87, 0x3c, 0x11, 0xbe, 0x3a, 0x7e, 0xf8, 0xbd, 0x2c, 0x08, 0xbf, 0x3b,
  0xc9, 0xf5, 0xdd, 0x3c, 0x2d, 0x09, 0x82, 0xbe, 0x9c, 0x1e, 0x57, 0x3e,
  0xfe, 0x47, 0x95, 0x3e, 0x0a, 0x6e, 0x14, 0x3e, 0x33, 0x00, 0xcf, 0x3d,
  0xa1, 0x46, 0x6b, 0x3e, 0x20, 0x14, 0x11, 0x3d, 0xc4, 0xa2, 0xc3, 0xbc,
  0x6c, 0x93, 0x09, 0x3c, 0xc8, 0x9d, 0xa7, 0xbd, 0x13, 0x42, 0x69, 0xbe,
  0x63, 0xe7, 0x86, 0x3e, 0x2f, 0x2e, 0x98, 0x3e, 0x32, 0xee, 0x48, 0xbd,
  0x09, 0xe4, 0x9c, 0x3a, 0x12, 0xf7, 0x97, 0x3d, 0x09, 0x0f, 0x0e, 0xbc,
  0x32, 0xc8, 0xbd, 0x3d, 0x75, 0xbc, 0x33, 0xbd, 0xe6, 0x6e, 0xfc, 0x3d,
  0x52, 0xe5, 0x4d, 0xbe, 0xa7, 0xa9, 0x63, 0xbc, 0x4b, 0x1f, 0xb6, 0x3d,
  0xf8, 0xdb, 0x36, 0x3e, 0x74, 0xc8, 0x2b, 0xbe, 0x60, 0xb3, 0x1e, 0x3e,
  0x10, 0xac, 0xef, 0x3c, 0xe9, 0x7e, 0x0b, 0x3d, 0x97, 0x53, 0x00, 0x3c,
  0xb0, 0x3f, 0x72, 0x3e, 0xbb, 0xa6, 0x82, 0xbe, 0xb6, 0x36, 0x69, 0x3e,
  0x3f, 0x5c, 0x18, 0xbe, 0xfd, 0x29, 0x2a, 0xbe, 0xe4, 0x88, 0x81, 0xbd,
  0x8c, 0x9f, 0x4d, 0x3e, 0x39, 0x82, 0x22, 0x3e, 0x79, 0x14, 0x08, 0x3e,
  0x9b, 0xfe, 0xad, 0xbd, 0x2d, 0x50, 0x62, 0xbc, 0x1a, 0x97, 0x5c, 0xbe,
  0x2e, 0x3a, 0x8e, 0x3d, 0xd5, 0xb9, 0x5f, 0x3e, 0x77, 0x36, 0x44, 0xbe,
  0xee, 0x53, 0x0b, 0xbe, 0xf3, 0xd1, 0x9c, 0x3e, 0x88, 0x66, 0x82, 0x3d,
  0xad, 0x3f, 0x74, 0x3e, 0xff, 0xc5, 0x4d, 0xbe, 0x36, 0x17, 0xb6, 0xbc,
  0x90, 0x72, 0x70, 0x3e, 0x68, 0xc6, 0xb3, 0xbe, 0x7d, 0xa6, 0x0a, 0xbe,
  0x0c, 0xd2, 0x4d, 0xbd, 0x26, 0xd2, 0x0c, 0xbd, 0x32, 0xc0, 0x69, 0xbe,
  0xd0, 0xa7, 0x9d, 0x3d, 0x95, 0x4d, 0xd5, 0x3d, 0x54, 0x4b, 0xb4, 0x3d,
  0x51, 0xa9, 0x7a, 0xbe, 0x42, 0x9a, 0xfa, 0xbc, 0xaf, 0x79, 0x4e, 0xbe,
  0xc5, 0xcc, 0x4e, 0x3e, 0xf5, 0xef, 0x90, 0xbd, 0x43, 0x74, 0x28, 0xbe,
  0x74, 0xe5, 0x87, 0xbe, 0x9f, 0x3b, 0x1e, 0x3c, 0xdf, 0xd3, 0x16, 0x3d,
  0x9d, 0x97, 0x83, 0x3e, 0x40, 0x76, 0x96, 0xbc, 0xb7, 0x45, 0xe8, 0x3d,
  0x5d, 0xd1, 0xa1, 0xbe, 0xc8, 0x30, 0x14, 0x3e, 0x32, 0xfe, 0x40, 0x3e,
  0xc0, 0xa1, 0x98, 0x3d, 0x70, 0xe9, 0x78, 0xbe, 0x3c, 0x66, 0xb3, 0x3d,
  0xa7, 0xb1, 0x66, 0x3e, 0x21, 0xc9, 0xe4, 0xbd, 0xdf, 0x49, 0x21, 0x3e,
  0x55, 0x20, 0x0a, 0x3e, 0x70, 0x50, 0x5b, 0xbe, 0x78, 0xee, 0x9a, 0x3d,
  0x87, 0x16, 0x08, 0xbe, 0x66, 0xd5, 0x1c, 0x3e, 0x7d, 0xd8, 0x92, 0xbc,
  0xed, 0xee, 0xe9, 0xbd, 0xf0, 0x67, 0x11, 0x3e, 0xc0, 0xdd, 0xb2, 0xbd,
  0xb5, 0x1c, 0x21, 0x3e, 0x99, 0x49, 0x35, 0x3e, 0x55, 0x85, 0x93, 0xbe,
  0xb7, 0x7c, 0x18, 0x3d, 0xca, 0xde, 0x68, 0xbd, 0xfb, 0x34, 0xa2, 0x3d,
  0x65, 0x12, 0xb1, 0xbe, 0x68, 0x63, 0x22, 0x3d, 0x11, 0x36, 0x1c, 0xbe,
  0x8a, 0x14, 0x9e, 0x3d, 0x56, 0x93, 0x21, 0xbe, 0x4b, 0xdc, 0x87, 0x3d,
  0x7f, 0x21, 0x63, 0xbe, 0xa5, 0x17, 0x46, 0xbd, 0x78, 0x6a, 0x3e, 0x3e,
  0xa9, 0x8c, 0xd7, 0x3d, 0x30, 0x4b, 0x9b, 0xbe, 0xd8, 0x7c, 0x1f, 0x3e,
  0xe9, 0x84, 0x8b, 0xbd, 0xec, 0xd5, 0x9e, 0x3d, 0xa6, 0x47, 0xd5, 0xbd,
  0xd0, 0xda, 0x70, 0x3e, 0x56, 0x9e, 0x61, 0x3c, 0xa2, 0x99, 0xdf, 0xbd,
  0x48, 0xc1, 0x9e, 0xbd, 0xd0, 0x93, 0x62, 0xbd, 0xff, 0x0b, 0xfb, 0xbd,
  0x64, 0x83, 0x2e, 0xbe, 0x07, 0xe1, 0x9b, 0xbc, 0xa6, 0x5b, 0x6d, 0x3d,
  0x98, 0xe0, 0x07, 0x3e, 0x3e, 0x88, 0x98, 0x3e, 0x59, 0x7a, 0x19, 0xbe,
  0x2b, 0x98, 0x4f, 0xbe, 0xde, 0xb5, 0x1a, 0x3e, 0xd7, 0x49, 0x50, 0x3e,
  0x54, 0xae, 0x5c, 0x3c, 0xf2, 0xcb, 0x97, 0xbd, 0x44, 0xda, 0x4f, 0x3e,
  0xfb, 0x0e, 0xe4, 0xbd, 0x8c, 0xb8, 0xbd, 0x3d, 0x92, 0xf3, 0xc3, 0xbd,
  0x1c, 0x7d, 0x66, 0xbe, 0xb3, 0x31, 0x7c, 0x3e, 0xd2, 0x10, 0x20, 0x3d,
  0x6f, 0x2c, 0xa9, 0xbd, 0x61, 0x89, 0x9b, 0xbe, 0xfe, 0x60, 0xe4, 0xbd,
  0x2e, 0x25, 0x77, 0xbe, 0x05, 0xc0, 0x68, 0x3e, 0x45, 0x97, 0x8e, 0xbb,
  0x2c, 0x14, 0x01, 0x3e, 0x02, 0xaa, 0x88, 0xbc, 0x3b, 0x3f, 0x97, 0xbd,
  0x2c, 0x5f, 0x0d, 0xbe, 0x55, 0xd1, 0xfb, 0x3d, 0xbb, 0x0e, 0x5c, 0x3d,
  0xe4, 0x1c, 0x25, 0x3d, 0x3a, 0x3b, 0x2f, 0x3e, 0x6f, 0x2a, 0x05, 0x3d,
  0xc1, 0x75, 0xe0, 0xbc, 0x6f, 0x43, 0x17, 0x3e, 0x25, 0xc4, 0x3a, 0xbe,
  0x9c, 0xfe, 0x2b, 0x3e, 0x2f, 0xa8, 0xdb, 0x3c, 0x29, 0xe7, 0x35, 0x3d,
  0xdc, 0x62, 0x66, 0xbe, 0x18, 0xe9, 0x15, 0x3e, 0x2a, 0x86, 0x6a, 0x3e,
  0x79, 0x11, 0x42, 0x3e, 0x29, 0x09, 0xaf, 0x3d, 0x50, 0x01, 0x50, 0xbe,
  0x99, 0xb1, 0x73, 0xbe, 0x85, 0xc0, 0x90, 0x3e, 0x5c, 0x7c, 0xb6, 0x3d,
  0x7e, 0x74, 0xa6, 0x3d, 0xdb, 0x05, 0x50, 0xbe, 0x67, 0x89, 0x4a, 0x3d,
  0xec, 0xc2, 0x17, 0xbe, 0xcd, 0x96, 0x3c, 0x3e, 0x03, 0xc9, 0xd6, 0xbd,
  0x37, 0x4b, 0x43, 0xbc, 0xdc, 0x8d, 0x09, 0xbe, 0x9c, 0x93, 0xeb, 0xbd,
  0xfd, 0x19, 0x27, 0xbd, 0x08, 0xb4, 0x16, 0x3e, 0xb6, 0x09, 0xe0, 0xbd,
  0x54, 0x5a, 0x2f, 0xbd, 0x5e, 0x8d, 0xa6, 0xbc, 0xe0, 0xed, 0x03, 0x3c,
  0x7c, 0xa9, 0xaf, 0x3d, 0xfc, 0x7b, 0x68, 0x3e, 0xe9, 0x70, 0x8c, 0xbe,
  0xe9, 0x08, 0x5f, 0xbd, 0x60, 0x68, 0x37, 0xbc, 0x9a, 0xa1, 0x28, 0xbc,
  0x18, 0x00, 0x84, 0xbe, 0x08, 0xd3, 0xb4, 0xbc, 0x23, 0x0e, 0x73, 0x3e,
  0x4a, 0x92, 0x02, 0x3e, 0x0b, 0x88, 0x46, 0x3d, 0x64, 0xf3, 0x66, 0x3e,
  0x30, 0x14, 0x4c, 0xbe, 0x2c, 0x1e, 0xe6, 0x3d, 0x98, 0x6c, 0x61, 0x3d,
  0x19, 0x74, 0x35, 0xbe, 0xba, 0x15, 0xcb, 0xbd, 0x46, 0x37, 0x01, 0x3e,
  0xcf, 0x08, 0xf0, 0x3d, 0x8c, 0xbf, 0x0c, 0x3d, 0x90, 0xf5, 0x06, 0xbe,
  0x72, 0x28, 0x6e, 0x3e, 0x95, 0xea, 0xb8, 0x3d, 0xc5, 0xc4, 0x24, 0xbd,
  0x1b, 0x9a, 0xfd, 0xbd, 0x34, 0x5b, 0x12, 0x3d, 0xc7, 0xb4, 0xfd, 0x3b,
  0x83, 0x15, 0xbf, 0xbd, 0x61, 0xaa, 0x57, 0x3e, 0x8d, 0xb0, 0x40, 0xbd,
  0x2a, 0xa9, 0x10, 0x3e, 0xc1, 0x5c, 0x81, 0x3d, 0xf1, 0xe0, 0x8a, 0xbe,
  0x3b, 0x9c, 0x40, 0xbb, 0x32, 0x00, 0x66, 0x3b, 0x3c, 0x2e, 0x58, 0x3d,
  0xaa, 0xe5, 0xa0, 0xbc, 0xb8, 0x17, 0x36, 0x3e, 0x6c, 0xbc, 0x17, 0x3b,
  0xfe, 0x2b, 0x25, 0xbe, 0x57, 0x15, 0x61, 0xbc, 0xd9, 0x67, 0xa1, 0x3e,
  0x27, 0x0f, 0x77, 0xbe, 0x0f, 0xaa, 0xcb, 0xbd, 0x4a, 0xf1, 0xef, 0xbd,
  0x7d, 0xf6, 0x17, 0x3e, 0x18, 0x53, 0x64, 0xbe, 0x95, 0x43, 0x61, 0x3d,
  0x4b, 0x7d, 0x4e, 0x3e, 0x26, 0xf6, 0x46, 0xbc, 0x18, 0xbe, 0x64, 0xbd,
  0x3d, 0xb9, 0x11, 0x3e, 0xb2, 0x0b, 0xbd, 0xbd, 0x3c, 0x81, 0xe1, 0x3d,
  0x0d, 0xfb, 0x0b, 0x3e, 0xaf, 0xef, 0x4b, 0xbc, 0xed, 0xd9, 0x59, 0xbd,
  0xa2, 0x80, 0x22, 0xbe, 0xa7, 0x5f, 0x9d, 0x3e, 0x61, 0xab, 0xa9, 0x3c,
  0x7e, 0x2a, 0x12, 0x3e, 0xbf, 0xce, 0xf7, 0x3c, 0x1d, 0xc7, 0x67, 0xbe,
  0x2f, 0xf9, 0xa1, 0xbb, 0x1a, 0x45, 0xa8, 0x3a, 0xfc, 0x8c, 0xd7, 0x3d,
  0x24, 0xaf, 0xe7, 0xbc, 0xa8, 0x6b, 0xaa, 0x3d, 0x81, 0xab, 0x9c, 0x3e,
  0x91, 0x3d, 0x64, 0xbe, 0x88, 0x10, 0x11, 0x3d, 0xe9, 0xf8, 0x48, 0xbe,
  0x7e, 0x19, 0x17, 0xbe, 0x76, 0xe7, 0x72, 0xbe, 0x8e, 0xbc, 0xce, 0x3c,
  0x98, 0x57, 0xb9, 0xba, 0xaa, 0x25, 0xe6, 0xbd, 0xa4, 0x13, 0xe5, 0xbd,
  0xa0, 0x8e, 0x1a, 0x3d, 0xde, 0x38, 0x95, 0x3d, 0xa0, 0xe3, 0x8a, 0xbd,
  0x6f, 0x57, 0x78, 0xbd, 0xd5, 0x11, 0x25, 0xbd, 0x99, 0x9e, 0x9a, 0x3e,
  0x58, 0x63, 0x56, 0xbd, 0x82, 0x70, 0xa6, 0x3d, 0x64, 0xef, 0x1b, 0xbe,
  0x1a, 0x30, 0x99, 0xbb, 0x40, 0x1c, 0x1b, 0xbe, 0xe4, 0x0d, 0x09, 0x3e,
  0x3c, 0x27, 0x87, 0xbd, 0xbd, 0xb8, 0x1e, 0xbe, 0x3b, 0x2d, 0x39, 0xbe,
  0x39, 0x0e, 0x96, 0x3e, 0xd2, 0xc5, 0xf8, 0x3d, 0x43, 0x33, 0xda, 0x3d,
  0xda, 0x24, 0x50, 0xbe, 0x7c, 0x69, 0x5a, 0x3d, 0xec, 0xc5, 0x92, 0xbc,
  0xe5, 0xb1, 0x2f, 0xbd, 0xd8, 0x50, 0x82, 0xbc, 0xbd, 0xf3, 0x08, 0xbd,
  0x37, 0x5a, 0xaa, 0xbd, 0xfb, 0xe5, 0x5c, 0x3c, 0xbf, 0x38, 0xad, 0x3d,
  0xeb, 0x02, 0xe6, 0xbd, 0x08, 0xc3, 0x6e, 0xbe, 0x02, 0xe2, 0xf5, 0xbd,
  0x06, 0xcc, 0x7c, 0x3d, 0xb6, 0x5c, 0x71, 0xbd, 0x50, 0xa6, 0x9f, 0x3e,
  0xcd, 0xe7, 0x9a, 0xbc, 0xf3, 0x85, 0xac, 0x3d, 0xa7, 0xb9, 0xb1, 0xbd,
  0xb0, 0xf8, 0x47, 0xbe, 0xd3, 0x7b, 0x2e, 0xbd, 0xb4, 0x41, 0xf4, 0x3d,
  0x9f, 0x78, 0xea, 0xbd, 0xd0, 0xbf, 0xce, 0x3e, 0xa4, 0xfd, 0x0d, 0x3d,
  0x7c, 0xdb, 0xeb, 0xbb, 0x4d, 0x34, 0xc9, 0x3d, 0x76, 0x36, 0xfc, 0xbd,
  0xc8, 0xba, 0xb6, 0x3c, 0x47, 0xd8, 0x05, 0xbe, 0x75, 0x0a, 0xe8, 0xbd,
  0x49, 0xac, 0x0f, 0xbd, 0x0a, 0x15, 0x15, 0x3d, 0x64, 0x1e, 0x47, 0x3d,
  0xa9, 0xbd, 0x30, 0x3e, 0x24, 0x12, 0xd4, 0x3d, 0x7d, 0x3b, 0x3e, 0xbe,
  0x3c, 0x69, 0x81, 0x3d, 0x49, 0xea, 0xd9, 0x3c, 0x3a, 0xcf, 0x13, 0x3e,
  0xbc, 0x77, 0x33, 0xbe, 0xcd, 0xdc, 0x7a, 0x3d, 0x2f, 0x61, 0xd8, 0x3d,
  0xe9, 0x83, 0x80, 0xbd, 0x87, 0x21, 0xd5, 0x3d, 0xae, 0xef, 0x3c, 0x3e,
  0x1a, 0x4e, 0x90, 0x3e, 0xc7, 0x9c, 0x56, 0xbc, 0xed, 0x06, 0xc5, 0xbd,
  0x85, 0xb8, 0xd6, 0x3c, 0xb5, 0x1f, 0x14, 0xbe, 0x87, 0xf9, 0x39, 0xbe,
  0x66, 0xa5, 0x23, 0x3d, 0x4e, 0xe5, 0x14, 0x3e, 0x4f, 0xb9, 0x8d, 0x3d,
  0xd2, 0xca, 0x04, 0x3e, 0x36, 0xd9, 0x84, 0x3d, 0xdc, 0x1e, 0x51, 0x3d,
  0x9d, 0xec, 0x5f, 0x3e, 0x22, 0x4a, 0x3d, 0xbe, 0xaa, 0xf5, 0x25, 0xbe,
  0x19, 0xb6, 0x01, 0xbc, 0x6f, 0x4c, 0x83, 0xbd, 0x8d, 0x6a, 0x0f, 0xbe,
  0x71, 0x3e, 0x18, 0x3d, 0x31, 0x5b, 0x8c, 0x3b, 0x14, 0xf9, 0xe7, 0xbc,
  0xc0, 0x62, 0x8d, 0xbe, 0x2f, 0x38, 0x3d, 0x3e, 0x09, 0xf7, 0x4a, 0x3e,
  0xa0, 0xba, 0x0f, 0x3e, 0xf6, 0xf7, 0x80, 0xbe, 0xd5, 0x00, 0xe9, 0x3d,
  0x91, 0xc5, 0xb5, 0x3e, 0x45, 0x90, 0x24, 0x3a, 0x70, 0x5e, 0x38, 0x3e,
  0x39, 0xdd, 0x9d, 0x3d, 0x6d, 0x93, 0xec, 0x3d, 0xab, 0x86, 0x26, 0xbd,
  0x29, 0x2b, 0xfb, 0xbb, 0x29, 0x0f, 0xa2, 0xba, 0x5c, 0xcc, 0xdd, 0xbd,
  0x59, 0xa1, 0x3b, 0xbe, 0x74, 0x28, 0xf5, 0xbc, 0xbf, 0xcb, 0xce, 0xbd,
  0xe8, 0x1b, 0x8b, 0x3e, 0x26, 0xf4, 0x27, 0x3e, 0x09, 0x57, 0x9c, 0xbe,
  0x3f, 0x29, 0x86, 0xbd, 0x38, 0xf1, 0xc0, 0xbc, 0x0f, 0x98, 0x34, 0xbe,
  0xb8, 0x8d, 0x8b, 0xbe, 0x44, 0xb2, 0xdc, 0x3b, 0xce, 0xb1, 0xba, 0x3c,
  0x92, 0x48, 0x0a, 0x3e, 0x36, 0x44, 0x2c, 0x3e, 0xa3, 0xfb, 0x0f, 0xbe,
  0xcd, 0x11, 0x1f, 0xbe, 0x3d, 0x5c, 0x24, 0x3d, 0x70, 0xa1, 0x87, 0x3d,
  0xe0, 0x4a, 0xc6, 0xbd, 0xeb, 0xa9, 0xa2, 0xbe, 0x2f, 0x93, 0x54, 0x3d,
  0xe1, 0xd5, 0x97, 0x3c, 0x16, 0xdd, 0xf1, 0x3d, 0xf2, 0x39, 0x40, 0xbe,
  0xbf, 0x2d, 0x4a, 0xbe, 0xe2, 0x49, 0x4b, 0xbe, 0x8b, 0xe4, 0x87, 0x3d,
  0xe3, 0x9e, 0x63, 0xbd, 0x55, 0x2b, 0x18, 0xbc, 0xaa, 0x15, 0x43, 0xbe,
  0x12, 0xfc, 0x99, 0xbd, 0x92, 0xbc, 0x34, 0x3c, 0xe0, 0x98, 0x1d, 0x3e,
  0x46, 0x4c, 0x81, 0x3c, 0xdc, 0x5f, 0xb1, 0x3e, 0x2e, 0xde, 0x3f, 0xbe,
  0x33, 0x13, 0xf1, 0x3d, 0xce, 0x43, 0xc6, 0x3d, 0x18, 0x27, 0x2b, 0x3e,
  0xda, 0x27, 0x11, 0xbe, 0x86, 0x3e, 0x27, 0x3e, 0x7f, 0x07, 0xe6, 0x3e,
  0x7d, 0x1a, 0xa0, 0x3d, 0xde, 0x63, 0xbb, 0x3d, 0x90, 0x96, 0xc6, 0xbc,
  0xf5, 0x65, 0x86, 0xbe, 0xce, 0xdf, 0x3c, 0x3e, 0x8a, 0x6d, 0x3c, 0xbe,
  0x0e, 0x96, 0x2e, 0x3e, 0xde, 0x2f, 0x77, 0xbe, 0x6a, 0x4c, 0x71, 0x3d,
  0x45, 0x4a, 0x80, 0x3e, 0x98, 0xab, 0x35, 0x3e, 0x92, 0xfc, 0xff, 0xff,
  0x04, 0x00, 0x00, 0x00, 0x68, 0x01, 0x00, 0x00, 0x12, 0x2d, 0x1b, 0xbc,
  0x77, 0x99, 0x3f, 0xbe, 0x23, 0x7e, 0x6c, 0xbe, 0x5d, 0xe2, 0x3e, 0x3e,
  0xc7, 0x75, 0x0d, 0x3e, 0x6b, 0x26, 0xef, 0x3d, 0xd2, 0x2d, 0x2f, 0x3b,
  0x7b, 0x21, 0xe0, 0x3d, 0x23, 0x1b, 0x0f, 0xbe, 0x4d, 0xa8, 0x71, 0x3e,
  0xd1, 0x0f, 0x23, 0xbe, 0xf3, 0x06, 0x73, 0xbe, 0xc9, 0xa3, 0x63, 0x3e,
  0x1d, 0x5c, 0x29, 0x3e, 0x2a, 0x8b, 0x96, 0xbe, 0xda, 0xbc, 0x5b, 0xbe,
  0x09, 0x7e, 0xae, 0x3e, 0x2d, 0x67, 0x01, 0xbe, 0x4e, 0x0d, 0x0b, 0x3e,
  0x5a, 0x5e, 0x84, 0xbc, 0x92, 0x86, 0xfa, 0xbc, 0xd7, 0xf1, 0x19, 0x3e,
  0xaf, 0x0f, 0x55, 0x3e, 0x01, 0x1a, 0xcb, 0x3c, 0x1c, 0xe8, 0xb7, 0x3c,
  0x6c, 0x12, 0x87, 0xbe, 0xb9, 0xa7, 0x6c, 0xbe, 0x31, 0x90, 0x33, 0x3e,
  0xe0, 0xff, 0x34, 0x3e, 0x66, 0xac, 0x43, 0x3e, 0x53, 0x32, 0xe8, 0x3b,
  0xf2, 0x89, 0x08, 0xbe, 0x59, 0xb8, 0xe2, 0x3d, 0xbf, 0xfd, 0x71, 0xbe,
  0x21, 0x06, 0x0a, 0x3c, 0x52, 0x7d, 0x64, 0xbe, 0x0d, 0xbe, 0x87, 0x3e,
  0xc8, 0x7f, 0x77, 0xbd, 0x33, 0xc9, 0xb9, 0x3d, 0x77, 0xfe, 0x29, 0x3e,
  0xe3, 0x73, 0x52, 0xbe, 0x8b, 0x48, 0x3e, 0xbe, 0x71, 0x57, 0x5b, 0xbe,
  0xfe, 0x03, 0x0c, 0x3e, 0x9b, 0x75, 0x44, 0x3e, 0xf5, 0x3b, 0xdb, 0x3c,
  0x2d, 0x22, 0xb6, 0xbd, 0x01, 0x09, 0x5b, 0xbd, 0x0e, 0x81, 0x48, 0x3d,
  0x1f, 0xbf, 0x19, 0xbd, 0x0e, 0xc9, 0x35, 0x3d, 0x05, 0xa7, 0x6a, 0xbe,
  0x50, 0xe2, 0xed, 0xbd, 0xcb, 0xfc, 0xfb, 0xbd, 0x4f, 0x43, 0x65, 0x3d,
  0x5b, 0x4f, 0x75, 0xbe, 0x36, 0x8c, 0x6c, 0xbe, 0x7c, 0x65, 0x2f, 0xbe,
  0x18, 0xde, 0x57, 0xbe, 0x40, 0x27, 0x88, 0x3e, 0xdb, 0x7a, 0xad, 0x3d,
  0x5f, 0xe3, 0xdb, 0x3d, 0x86, 0xd4, 0x99, 0x3e, 0xab, 0xc4, 0x3d, 0xbd,
  0xc3, 0x93, 0xa7, 0xbd, 0xc8, 0x48, 0x7e, 0xbe, 0x2f, 0x1d, 0x71, 0xbe,
  0x82, 0x80, 0x2e, 0x3d, 0xaa, 0xbd, 0x29, 0x3e, 0x44, 0x27, 0x3c, 0xbe,
  0xe7, 0x09, 0xd5, 0xbd, 0xe9, 0x28, 0x0d, 0xbe, 0x6c, 0x92, 0xe7, 0xbd,
  0x6b, 0xce, 0x81, 0xbe, 0x12, 0xf5, 0x66, 0xbe, 0x88, 0x3a, 0x49, 0x3e,
  0x26, 0xea, 0xa0, 0x3e, 0xe1, 0x29, 0x2f, 0xbe, 0xb4, 0x4f, 0x3f, 0xbd,
  0x4f, 0x5c, 0xfe, 0x3d, 0x47, 0x61, 0x2d, 0x3e, 0x34, 0xea, 0x85, 0xbc,
  0x23, 0x65, 0xcb, 0x3d, 0xee, 0xfa, 0x7c, 0x3e, 0x3a, 0x71, 0x83, 0xbe,
  0xa8, 0x0a, 0x54, 0xbe, 0x09, 0xcb, 0x6c, 0x3e, 0x80, 0x0b, 0x45, 0xbd,
  0xcb, 0x25, 0xfd, 0xbd, 0x87, 0x91, 0x3e, 0x3e, 0x06, 0xfe, 0xff, 0xff,
  0x04, 0x00, 0x00, 0x00, 0x28, 0x00, 0x00, 0x00, 0x2a, 0x81, 0x21, 0x3b,
  0xe5, 0x93, 0xcb, 0xbc, 0x44, 0x99, 0x91, 0xbc, 0x4e, 0x32, 0x25, 0x3d,
  0x6a, 0x76, 0x81, 0xbc, 0x81, 0x67, 0x11, 0xbd, 0x31, 0x20, 0x85, 0x3c,
  0x32, 0x28, 0x0f, 0x3b, 0x30, 0xab, 0xff, 0xbc, 0x3a, 0x0a, 0xf3, 0xbc,
  0x3a, 0xfe, 0xff, 0xff, 0x04, 0x00, 0x00, 0x00, 0x28, 0x00, 0x00, 0x00,
  0xab, 0x7f, 0x7d, 0x3c, 0xda, 0xad, 0x6d, 0x3d, 0x98, 0xcb, 0x73, 0xbb,
  0x8e, 0x0f, 0x06, 0xbd, 0x11, 0x04, 0xfd, 0xbc, 0xde, 0xf7, 0x4a, 0xbc,
  0x3a, 0xf8, 0x16, 0x3d, 0xfb, 0x44, 0x86, 0xbc, 0x73, 0x0a, 0x5f, 0x3c,
  0x03, 0x41, 0x60, 0xbc, 0x6e, 0xfe, 0xff, 0xff, 0x04, 0x00, 0x00, 0x00,
  0xf0, 0x00, 0x00, 0x00, 0xe7, 0x79, 0x29, 0xbf, 0x53, 0xe2, 0x6e, 0x3e,
  0xd7, 0x0e, 0x23, 0x3f, 0x2c, 0x08, 0x82, 0xbe, 0x1b, 0x7d, 0xed, 0x3d,
  0xcf, 0xba, 0x65, 0x3d, 0xf4, 0xce, 0xfd, 0x3e, 0x13, 0xf5, 0xdb, 0x3e,
  0x5d, 0x61, 0xdc, 0x3e, 0x04, 0x5e, 0x9d, 0xbd, 0x0b, 0xd7, 0xe3, 0xbe,
  0x29, 0x1e, 0xcc, 0x3e, 0x1d, 0x8f, 0x6e, 0x3e, 0xd1, 0x26, 0x88, 0xbe,
  0xd8, 0xf6, 0xed, 0xbe, 0xbd, 0x9d, 0xa9, 0x3e, 0xd6, 0x16, 0xd5, 0x3e,
  0x9a, 0xe8, 0xaf, 0x3d, 0x88, 0x4f, 0x03, 0xbf, 0x8f, 0x9c, 0x77, 0xbe,
  0xa2, 0xa6, 0x03, 0x3f, 0xb9, 0x2d, 0x0c, 0xbd, 0xdf, 0xb1, 0x24, 0xbd,
  0x6c, 0xb9, 0x45, 0xbf, 0x25, 0x77, 0x57, 0x3e, 0xf3, 0x23, 0x45, 0xbf,
  0xf0, 0x74, 0x80, 0xbe, 0x95, 0xe7, 0x14, 0x3f, 0xfb, 0xab, 0x9d, 0xbe,
  0x34, 0x89, 0x2d, 0x3f, 0x53, 0x07, 0xe6, 0x3e, 0x98, 0x1e, 0x79, 0x3e,
  0xa4, 0x5f, 0x16, 0xbf, 0x09, 0x1e, 0x39, 0x3f, 0x77, 0x77, 0xfe, 0xbd,
  0xdc, 0xd5, 0x1b, 0x3e, 0xbb, 0x82, 0xb0, 0xbe, 0xce, 0x5f, 0x0f, 0xbf,
  0x35, 0x13, 0x01, 0xbf, 0x68, 0xe1, 0x3d, 0x3f, 0xe5, 0x6f, 0x01, 0xbf,
  0xd6, 0xff, 0x1e, 0xbf, 0x99, 0xcf, 0xb4, 0xbe, 0xa7, 0xea, 0xbf, 0x3e,
  0x0b, 0xaf, 0x15, 0xbf, 0x16, 0xab, 0x8f, 0x3d, 0xa8, 0x63, 0xa4, 0xbd,
  0x05, 0x60, 0xb4, 0xbe, 0x30, 0x43, 0xc9, 0xbe, 0xe5, 0x4f, 0xa7, 0xbe,
  0xdb, 0xff, 0xb8, 0x3e, 0xd1, 0xa6, 0xf6, 0xbe, 0x53, 0x4a, 0xb4, 0x3e,
  0x62, 0x75, 0xe3, 0xbe, 0xb0, 0xc3, 0x07, 0x3f, 0x38, 0x30, 0xee, 0xbe,
  0x87, 0x95, 0x11, 0xbf, 0xeb, 0x36, 0xf8, 0x3e, 0x28, 0x32, 0x2a, 0x3f,
  0x42, 0x5e, 0x02, 0xbf, 0x14, 0xf5, 0xff, 0xff, 0x18, 0xf5, 0xff, 0xff,
  0x0f, 0x00, 0x00, 0x00, 0x4d, 0x4c, 0x49, 0x52, 0x20, 0x43, 0x6f, 0x6e,
  0x76, 0x65, 0x72, 0x74, 0x65, 0x64, 0x2e, 0x00, 0x01, 0x00, 0x00, 0x00,
  0x14, 0x00, 0x00, 0x00, 0x00, 0x00, 0x0e, 0x00, 0x18, 0x00, 0x14, 0x00,
  0x10, 0x00, 0x0c, 0x00, 0x08, 0x00, 0x04, 0x00, 0x0e, 0x00, 0x00, 0x00,
  0x14, 0x00, 0x00, 0x00, 0x1c, 0x00, 0x00, 0x00, 0x58, 0x02, 0x00, 0x00,
  0x5c, 0x02, 0x00, 0x00, 0x60, 0x02, 0x00, 0x00, 0x04, 0x00, 0x00, 0x00,
  0x6d, 0x61, 0x69, 0x6e, 0x00, 0x00, 0x00, 0x00, 0x08, 0x00, 0x00, 0x00,
  0xf0, 0x01, 0x00, 0x00, 0x8c, 0x01, 0x00, 0x00, 0x38, 0x01, 0x00, 0x00,
  0xf4, 0x00, 0x00, 0x00, 0xcc, 0x00, 0x00, 0x00, 0x78, 0x00, 0x00, 0x00,
  0x40, 0x00, 0x00, 0x00, 0x04, 0x00, 0x00, 0x00, 0x9e, 0xfe, 0xff, 0xff,
  0x1c, 0x00, 0x00, 0x00, 0x00, 0x00, 0x00, 0x09, 0x1c, 0x00, 0x00, 0x00,
  0x20, 0x00, 0x00, 0x00, 0x04, 0x00, 0x00, 0x00, 0x00, 0x00, 0x06, 0x00,
  0x08, 0x00, 0x04, 0x00, 0x06, 0x00, 0x00, 0x00, 0x00, 0x00, 0x80, 0x3f,
  0x01, 0x00, 0x00, 0x00, 0x11, 0x00, 0x00, 0x00, 0x01, 0x00, 0x00, 0x00,
  0x10, 0x00, 0x00, 0x00, 0xd6, 0xfe, 0xff, 0xff, 0x14, 0x00, 0x00, 0x00,
  0x00, 0x00, 0x00, 0x08, 0x10, 0x00, 0x00, 0x00, 0x14, 0x00, 0x00, 0x00,
  0x03, 0x00, 0x00, 0x00, 0xe0, 0xf5, 0xff, 0xff, 0x01, 0x00, 0x00, 0x00,
  0x10, 0x00, 0x00, 0x00, 0x03, 0x00, 0x00, 0x00, 0x0f, 0x00, 0x00, 0x00,
  0x01, 0x00, 0x00, 0x00, 0x06, 0x00, 0x00, 0x00, 0x0a, 0xff, 0xff, 0xff,
  0x20, 0x00, 0x00, 0x00, 0x00, 0x00, 0x00, 0x08, 0x20, 0x00, 0x00, 0x00,
  0x24, 0x00, 0x00, 0x00, 0x03, 0x00, 0x00, 0x00, 0x0c, 0x00, 0x08, 0x00,
  0x07, 0x00, 0x00, 0x00, 0x00, 0x00, 0x06, 0x00, 0x0c, 0x00, 0x00, 0x00,
  0x00, 0x00, 0x01, 0x01, 0x01, 0x00, 0x00, 0x00, 0x0f, 0x00, 0x00, 0x00,
  0x03, 0x00, 0x00, 0x00, 0x0e, 0x00, 0x00, 0x00, 0x09, 0x00, 0x00, 0x00,
  0x07, 0x00, 0x00, 0x00, 0x00, 0x00, 0x0a, 0x00, 0x10, 0x00, 0x0c, 0x00,
  0x08, 0x00, 0x04, 0x00, 0x0a, 0x00, 0x00, 0x00, 0x0c, 0x00, 0x00, 0x00,
  0x10, 0x00, 0x00, 0x00, 0x02, 0x00, 0x00, 0x00, 0x01, 0x00, 0x00, 0x00,
  0x0e, 0x00, 0x00, 0x00, 0x02, 0x00, 0x00, 0x00, 0x0d, 0x00, 0x00, 0x00,
  0x08, 0x00, 0x00, 0x00, 0x7e, 0xff, 0xff, 0xff, 0x14, 0x00, 0x00, 0x00,
  0x00, 0x00, 0x00, 0x05, 0x24, 0x00, 0x00, 0x00, 0x28, 0x00, 0x00, 0x00,
  0x01, 0x00, 0x00, 0x00, 0x6e, 0xff, 0xff, 0xff, 0x02, 0x00, 0x00, 0x00,
  0x02, 0x00, 0x00, 0x00, 0x02, 0x00, 0x00, 0x00, 0x02, 0x00, 0x00, 0x00,
  0x00, 0x00, 0x00, 0x01, 0x01, 0x00, 0x00, 0x00, 0x0d, 0x00, 0x00, 0x00,
  0x01, 0x00, 0x00, 0x00, 0x0c, 0x00, 0x00, 0x00, 0x5e, 0xff, 0xff, 0xff,
  0x10, 0x00, 0x00, 0x00, 0x00, 0x00, 0x00, 0x01, 0x1c, 0x00, 0x00, 0x00,
  0x20, 0x00, 0x00, 0x00, 0x50, 0xff, 0xff, 0xff, 0x00, 0x00, 0x00, 0x01,
  0x01, 0x00, 0x00, 0x00, 0x01, 0x00, 0x00, 0x00, 0x00, 0x00, 0x00, 0x01,
  0x01, 0x00, 0x00, 0x00, 0x0c, 0x00, 0x00, 0x00, 0x03, 0x00, 0x00, 0x00,
  0x0b, 0x00, 0x00, 0x00, 0x05, 0x00, 0x00, 0x00, 0x03, 0x00, 0x00, 0x00,
  0x00, 0x00, 0x0e, 0x00, 0x1a, 0x00, 0x14, 0x00, 0x10, 0x00, 0x0c, 0x00,
  0x0b, 0x00, 0x04, 0x00, 0x0e, 0x00, 0x00, 0x00, 0x24, 0x00, 0x00, 0x00,
  0x00, 0x00, 0x00, 0x05, 0x34, 0x00, 0x00, 0x00, 0x38, 0x00, 0x00, 0x00,
  0x01, 0x00, 0x00, 0x00, 0x00, 0x00, 0x0e, 0x00, 0x18, 0x00, 0x17, 0x00,
  0x10, 0x00, 0x0c, 0x00, 0x08, 0x00, 0x04, 0x00, 0x0e, 0x00, 0x00, 0x00,
  0x02, 0x00, 0x00, 0x00, 0x02, 0x00, 0x00, 0x00, 0x02, 0x00, 0x00, 0x00,
  0x02, 0x00, 0x00, 0x00, 0x00, 0x00, 0x00, 0x01, 0x01, 0x00, 0x00, 0x00,
  0x0b, 0x00, 0x00, 0x00, 0x01, 0x00, 0x00, 0x00, 0x0a, 0x00, 0x00, 0x00,
  0x00, 0x00, 0x0e, 0x00, 0x14, 0x00, 0x00, 0x00, 0x10, 0x00, 0x0c, 0x00,
  0x0b, 0x00, 0x04, 0x00, 0x0e, 0x00, 0x00, 0x00, 0x1c, 0x00, 0x00, 0x00,
  0x00, 0x00, 0x00, 0x01, 0x28, 0x00, 0x00, 0x00, 0x2c, 0x00, 0x00, 0x00,
  0x0c, 0x00, 0x14, 0x00, 0x13, 0x00, 0x0c, 0x00, 0x08, 0x00, 0x07, 0x00,
  0x0c, 0x00, 0x00, 0x00, 0x00, 0x00, 0x00, 0x01, 0x01, 0x00, 0x00, 0x00,
  0x01, 0x00, 0x00, 0x00, 0x00, 0x00, 0x00, 0x01, 0x01, 0x00, 0x00, 0x00,
  0x0a, 0x00, 0x00, 0x00, 0x03, 0x00, 0x00, 0x00, 0x00, 0x00, 0x00, 0x00,
  0x04, 0x00, 0x00, 0x00, 0x02, 0x00, 0x00, 0x00, 0x01, 0x00, 0x00, 0x00,
  0x11, 0x00, 0x00, 0x00, 0x01, 0x00, 0x00, 0x00, 0x00, 0x00, 0x00, 0x00,
  0x12, 0x00, 0x00, 0x00, 0x10, 0x08, 0x00, 0x00, 0xa8, 0x07, 0x00, 0x00,
  0x34, 0x07, 0x00, 0x00, 0xd8, 0x06, 0x00, 0x00, 0x80, 0x06, 0x00, 0x00,
  0x28, 0x06, 0x00, 0x00, 0xcc, 0x05, 0x00, 0x00, 0x70, 0x05, 0x00, 0x00,
  0x20, 0x05, 0x00, 0x00, 0x88, 0x04, 0x00, 0x00, 0x98, 0x03, 0x00, 0x00,
  0x20, 0x03, 0x00, 0x00, 0x4c, 0x02, 0x00, 0x00, 0xd4, 0x01, 0x00, 0x00,
  0x74, 0x01, 0x00, 0x00, 0xdc, 0x00, 0x00, 0x00, 0x60, 0x00, 0x00, 0x00,
  0x04, 0x00, 0x00, 0x00, 0x4e, 0xf8, 0xff, 0xff, 0x00, 0x00, 0x00, 0x01,
  0x14, 0x00, 0x00, 0x00, 0x1c, 0x00, 0x00, 0x00, 0x1c, 0x00, 0x00, 0x00,
  0x12, 0x00, 0x00, 0x00, 0x34, 0x00, 0x00, 0x00, 0x02, 0x00, 0x00, 0x00,
  0xff, 0xff, 0xff, 0xff, 0x03, 0x00, 0x00, 0x00, 0x30, 0xf8, 0xff, 0xff,
  0x19, 0x00, 0x00, 0x00, 0x53, 0x74, 0x61, 0x74, 0x65, 0x66, 0x75, 0x6c,
  0x50, 0x61, 0x72, 0x74, 0x69, 0x74, 0x69, 0x6f, 0x6e, 0x65, 0x64, 0x43,
  0x61, 0x6c, 0x6c, 0x3a, 0x30, 0x00, 0x00, 0x00, 0x02, 0x00, 0x00, 0x00,
  0x01, 0x00, 0x00, 0x00, 0x03, 0x00, 0x00, 0x00, 0xa6, 0xf8, 0xff, 0xff,
  0x00, 0x00, 0x00, 0x01, 0x14, 0x00, 0x00, 0x00, 0x1c, 0x00, 0x00, 0x00,
  0x1c, 0x00, 0x00, 0x00, 0x11, 0x00, 0x00, 0x00, 0x54, 0x00, 0x00, 0x00,
  0x02, 0x00, 0x00, 0x00, 0xff, 0xff, 0xff, 0xff, 0x03, 0x00, 0x00, 0x00,
  0x88, 0xf8, 0xff, 0xff, 0x3a, 0x00, 0x00, 0x00, 0x73, 0x65, 0x71, 0x75,
  0x65, 0x6e, 0x74, 0x69, 0x61, 0x6c, 0x5f, 0x37, 0x2f, 0x64, 0x65, 0x6e,
  0x73, 0x65, 0x5f, 0x31, 0x37, 0x2f, 0x4d, 0x61, 0x74, 0x4d, 0x75, 0x6c,
  0x3b, 0x73, 0x65, 0x71, 0x75, 0x65, 0x6e, 0x74, 0x69, 0x61, 0x6c, 0x5f,
  0x37, 0x2f, 0x64, 0x65, 0x6e, 0x73, 0x65, 0x5f, 0x31, 0x37, 0x2f, 0x42,
  0x69, 0x61, 0x73, 0x41, 0x64, 0x64, 0x00, 0x00, 0x02, 0x00, 0x00, 0x00,
  0x01, 0x00, 0x00, 0x00, 0x03, 0x00, 0x00, 0x00, 0x1e, 0xf9, 0xff, 0xff,
  0x00, 0x00, 0x00, 0x01, 0x14, 0x00, 0x00, 0x00, 0x1c, 0x00, 0x00, 0x00,
  0x1c, 0x00, 0x00, 0x00, 0x10, 0x00, 0x00, 0x00, 0x70, 0x00, 0x00, 0x00,
  0x02, 0x00, 0x00, 0x00, 0xff, 0xff, 0xff, 0xff, 0x14, 0x00, 0x00, 0x00,
  0x00, 0xf9, 0xff, 0xff, 0x55, 0x00, 0x00, 0x00, 0x73, 0x65, 0x71, 0x75,
  0x65, 0x6e, 0x74, 0x69, 0x61, 0x6c, 0x5f, 0x37, 0x2f, 0x64, 0x65, 0x6e,
  0x73, 0x65, 0x5f, 0x31, 0x36, 0x2f, 0x4d, 0x61, 0x74, 0x4d, 0x75, 0x6c,
  0x3b, 0x73, 0x65, 0x71, 0x75, 0x65, 0x6e, 0x74, 0x69, 0x61, 0x6c, 0x5f,
  0x37, 0x2f, 0x64, 0x65, 0x6e, 0x73, 0x65, 0x5f, 0x31, 0x36, 0x2f, 0x52,
  0x65, 0x6c, 0x75, 0x3b, 0x73, 0x65, 0x71, 0x75, 0x65, 0x6e, 0x74, 0x69,
  0x61, 0x6c, 0x5f, 0x37, 0x2f, 0x64, 0x65, 0x6e, 0x73, 0x65, 0x5f, 0x31,
  0x36, 0x2f, 0x42, 0x69, 0x61, 0x73, 0x41, 0x64, 0x64, 0x00, 0x00, 0x00,
  0x02, 0x00, 0x00, 0x00, 0x01, 0x00, 0x00, 0x00, 0x14, 0x00, 0x00, 0x00,
  0xb2, 0xf9, 0xff, 0xff, 0x00, 0x00, 0x00, 0x01, 0x14, 0x00, 0x00, 0x00,
  0x1c, 0x00, 0x00, 0x00, 0x1c, 0x00, 0x00, 0x00, 0x0f, 0x00, 0x00, 0x00,
  0x38, 0x00, 0x00, 0x00, 0x02, 0x00, 0x00, 0x00, 0xff, 0xff, 0xff, 0xff,
  0x68, 0x01, 0x00, 0x00, 0x94, 0xf9, 0xff, 0xff, 0x1e, 0x00, 0x00, 0x00,
  0x73, 0x65, 0x71, 0x75, 0x65, 0x6e, 0x74, 0x69, 0x61, 0x6c, 0x5f, 0x37,
  0x2f, 0x66, 0x6c, 0x61, 0x74, 0x74, 0x65, 0x6e, 0x5f, 0x37, 0x2f, 0x52,
  0x65, 0x73, 0x68, 0x61, 0x70, 0x65, 0x00, 0x00, 0x02, 0x00, 0x00, 0x00,
  0x01, 0x00, 0x00, 0x00, 0x68, 0x01, 0x00, 0x00, 0x0e, 0xfa, 0xff, 0xff,
  0x00, 0x00, 0x00, 0x01, 0x14, 0x00, 0x00, 0x00, 0x24, 0x00, 0x00, 0x00,
  0x24, 0x00, 0x00, 0x00, 0x0e, 0x00, 0x00, 0x00, 0x48, 0x00, 0x00, 0x00,
  0x04, 0x00, 0x00, 0x00, 0xff, 0xff, 0xff, 0xff, 0x06, 0x00, 0x00, 0x00,
  0x06, 0x00, 0x00, 0x00, 0x0a, 0x00, 0x00, 0x00, 0xf8, 0xf9, 0xff, 0xff,
  0x24, 0x00, 0x00, 0x00, 0x73, 0x65, 0x71, 0x75, 0x65, 0x6e, 0x74, 0x69,
  0x61, 0x6c, 0x5f, 0x37, 0x2f, 0x6d, 0x61, 0x78, 0x5f, 0x70, 0x6f, 0x6f,
  0x6c, 0x69, 0x6e, 0x67, 0x32, 0x64, 0x5f, 0x39, 0x2f, 0x4d, 0x61, 0x78,
  0x50, 0x6f, 0x6f, 0x6c, 0x00, 0x00, 0x00, 0x00, 0x04, 0x00, 0x00, 0x00,
  0x01, 0x00, 0x00, 0x00, 0x06, 0x00, 0x00, 0x00, 0x06, 0x00, 0x00, 0x00,
  0x0a, 0x00, 0x00, 0x00, 0x82, 0xfa, 0xff, 0xff, 0x00, 0x00, 0x00, 0x01,
  0x14, 0x00, 0x00, 0x00, 0x24, 0x00, 0x00, 0x00, 0x24, 0x00, 0x00, 0x00,
  0x0d, 0x00, 0x00, 0x00, 0xa4, 0x00, 0x00, 0x00, 0x04, 0x00, 0x00, 0x00,
  0xff, 0xff, 0xff, 0xff, 0x0d, 0x00, 0x00, 0x00, 0x0d, 0x00, 0x00, 0x00,
  0x0a, 0x00, 0x00, 0x00, 0x6c, 0xfa, 0xff, 0xff, 0x82, 0x00, 0x00, 0x00,
  0x73, 0x65, 0x71, 0x75, 0x65, 0x6e, 0x74, 0x69, 0x61, 0x6c, 0x5f, 0x37,
  0x2f, 0x63, 0x6f, 0x6e, 0x76, 0x32, 0x64, 0x5f, 0x37, 0x2f, 0x52, 0x65,
  0x6c, 0x75, 0x3b, 0x73, 0x65, 0x71, 0x75, 0x65, 0x6e, 0x74, 0x69, 0x61,
  0x6c, 0x5f, 0x37, 0x2f, 0x63, 0x6f, 0x6e, 0x76, 0x32, 0x64, 0x5f, 0x37,
  0x2f, 0x42, 0x69, 0x61, 0x73, 0x41, 0x64, 0x64, 0x3b, 0x73, 0x65, 0x71,
  0x75, 0x65, 0x6e, 0x74, 0x69, 0x61, 0x6c, 0x5f, 0x37, 0x2f, 0x63, 0x6f,
  0x6e, 0x76, 0x32, 0x64, 0x5f, 0x37, 0x2f, 0x43, 0x6f, 0x6e, 0x76, 0x32,
  0x44, 0x3b, 0x73, 0x65, 0x71, 0x75, 0x65, 0x6e, 0x74, 0x69, 0x61, 0x6c,
  0x5f, 0x37, 0x2f, 0x63, 0x6f, 0x6e, 0x76, 0x32, 0x64, 0x5f, 0x37, 0x2f,
  0x42, 0x69, 0x61, 0x73, 0x41, 0x64, 0x64, 0x2f, 0x52, 0x65, 0x61, 0x64,
  0x56, 0x61, 0x72, 0x69, 0x61, 0x62, 0x6c, 0x65, 0x4f, 0x70, 0x00, 0x00,
  0x04, 0x00, 0x00, 0x00, 0x01, 0x00, 0x00, 0x00, 0x0d, 0x00, 0x00, 0x00,
  0x0d, 0x00, 0x00, 0x00, 0x0a, 0x00, 0x00, 0x00, 0x52, 0xfb, 0xff, 0xff,
  0x00, 0x00, 0x00, 0x01, 0x14, 0x00, 0x00, 0x00, 0x24, 0x00, 0x00, 0x00,
  0x24, 0x00, 0x00, 0x00, 0x0c, 0x00, 0x00, 0x00, 0x48, 0x00, 0x00, 0x00,
  0x04, 0x00, 0x00, 0x00, 0xff, 0xff, 0xff, 0xff, 0x0f, 0x00, 0x00, 0x00,
  0x0f, 0x00, 0x00, 0x00, 0x0a, 0x00, 0x00, 0x00, 0x3c, 0xfb, 0xff, 0xff,
  0x24, 0x00, 0x00, 0x00, 0x73, 0x65, 0x71, 0x75, 0x65, 0x6e, 0x74, 0x69,
  0x61, 0x6c, 0x5f, 0x37, 0x2f, 0x6d, 0x61, 0x78, 0x5f, 0x70, 0x6f, 0x6f,
  0x6c, 0x69, 0x6e, 0x67, 0x32, 0x64, 0x5f, 0x38, 0x2f, 0x4d, 0x61, 0x78,
  0x50, 0x6f, 0x6f, 0x6c, 0x00, 0x00, 0x00, 0x00, 0x04, 0x00, 0x00, 0x00,
  0x01, 0x00, 0x00, 0x00, 0x0f, 0x00, 0x00, 0x00, 0x0f, 0x00, 0x00, 0x00,
  0x0a, 0x00, 0x00, 0x00, 0xc6, 0xfb, 0xff, 0xff, 0x00, 0x00, 0x00, 0x01,
  0x14, 0x00, 0x00, 0x00, 0x24, 0x00, 0x00, 0x00, 0x24, 0x00, 0x00, 0x00,
  0x0b, 0x00, 0x00, 0x00, 0xc0, 0x00, 0x00, 0x00, 0x04, 0x00, 0x00, 0x00,
  0xff, 0xff, 0xff, 0xff, 0x1e, 0x00, 0x00, 0x00, 0x1e, 0x00, 0x00, 0x00,
  0x0a, 0x00, 0x00, 0x00, 0xb0, 0xfb, 0xff, 0xff, 0x9f, 0x00, 0x00, 0x00,
  0x73, 0x65, 0x71, 0x75, 0x65, 0x6e, 0x74, 0x69, 0x61, 0x6c, 0x5f, 0x37,
  0x2f, 0x63, 0x6f, 0x6e, 0x76, 0x32, 0x64, 0x5f, 0x36, 0x2f, 0x52, 0x65,
  0x6c, 0x75, 0x3b, 0x73, 0x65, 0x71, 0x75, 0x65, 0x6e, 0x74, 0x69, 0x61,
  0x6c, 0x5f, 0x37, 0x2f, 0x63, 0x6f, 0x6e, 0x76, 0x32, 0x64, 0x5f, 0x36,
  0x2f, 0x42, 0x69, 0x61, 0x73, 0x41, 0x64, 0x64, 0x3b, 0x73, 0x65, 0x71,
  0x75, 0x65, 0x6e, 0x74, 0x69, 0x61, 0x6c, 0x5f, 0x37, 0x2f, 0x63, 0x6f,
  0x6e, 0x76, 0x32, 0x64, 0x5f, 0x37, 0x2f, 0x43, 0x6f, 0x6e, 0x76, 0x32,
  0x44, 0x3b, 0x73, 0x65, 0x71, 0x75, 0x65, 0x6e, 0x74, 0x69, 0x61, 0x6c,
  0x5f, 0x37, 0x2f, 0x63, 0x6f, 0x6e, 0x76, 0x32, 0x64, 0x5f, 0x36, 0x2f,
  0x43, 0x6f, 0x6e, 0x76, 0x32, 0x44, 0x3b, 0x73, 0x65, 0x71, 0x75, 0x65,
  0x6e, 0x74, 0x69, 0x61, 0x6c, 0x5f, 0x37, 0x2f, 0x63, 0x6f, 0x6e, 0x76,
  0x32, 0x64, 0x5f, 0x36, 0x2f, 0x42, 0x69, 0x61, 0x73, 0x41, 0x64, 0x64,
  0x2f, 0x52, 0x65, 0x61, 0x64, 0x56, 0x61, 0x72, 0x69, 0x61, 0x62, 0x6c,
  0x65, 0x4f, 0x70, 0x00, 0x04, 0x00, 0x00, 0x00, 0x01, 0x00, 0x00, 0x00,
  0x1e, 0x00, 0x00, 0x00, 0x1e, 0x00, 0x00, 0x00, 0x0a, 0x00, 0x00, 0x00,
  0x82, 0xff, 0xff, 0xff, 0x00, 0x00, 0x00, 0x01, 0x20, 0x00, 0x00, 0x00,
  0x40, 0x00, 0x00, 0x00, 0x0a, 0x00, 0x00, 0x00, 0x00, 0x00, 0x00, 0x09,
  0x58, 0x00, 0x00, 0x00, 0x0c, 0x00, 0x0c, 0x00, 0x00, 0x00, 0x00, 0x00,
  0x08, 0x00, 0x04, 0x00, 0x0c, 0x00, 0x00, 0x00, 0x08, 0x00, 0x00, 0x00,
  0x14, 0x00, 0x00, 0x00, 0x01, 0x00, 0x00, 0x00, 0x00, 0x00, 0x00, 0x00,
  0x00, 0x00, 0x00, 0x00, 0x00, 0x00, 0x00, 0x00, 0x01, 0x00, 0x00, 0x00,
  0xe2, 0xbc, 0x29, 0x3b, 0x1c, 0x00, 0x00, 0x00, 0x73, 0x65, 0x71, 0x75,
  0x65, 0x6e, 0x74, 0x69, 0x61, 0x6c, 0x5f, 0x37, 0x2f, 0x64, 0x65, 0x6e,
  0x73, 0x65, 0x5f, 0x31, 0x36, 0x2f, 0x4d, 0x61, 0x74, 0x4d, 0x75, 0x6c,
  0x00, 0x00, 0x00, 0x00, 0x02, 0x00, 0x00, 0x00, 0x14, 0x00, 0x00, 0x00,
  0x68, 0x01, 0x00, 0x00, 0x00, 0x00, 0x16, 0x00, 0x1c, 0x00, 0x18, 0x00,
  0x17, 0x00, 0x10, 0x00, 0x0c, 0x00, 0x08, 0x00, 0x00, 0x00, 0x00, 0x00,
  0x00, 0x00, 0x07, 0x00, 0x16, 0x00, 0x00, 0x00, 0x00, 0x00, 0x00, 0x01,
  0x14, 0x00, 0x00, 0x00, 0x14, 0x00, 0x00, 0x00, 0x09, 0x00, 0x00, 0x00,
  0x00, 0x00, 0x00, 0x02, 0x2c, 0x00, 0x00, 0x00, 0x1c, 0xfd, 0xff, 0xff,
  0x1c, 0x00, 0x00, 0x00, 0x73, 0x65, 0x71, 0x75, 0x65, 0x6e, 0x74, 0x69,
  0x61, 0x6c, 0x5f, 0x37, 0x2f, 0x66, 0x6c, 0x61, 0x74, 0x74, 0x65, 0x6e,
  0x5f, 0x37, 0x2f, 0x43, 0x6f, 0x6e, 0x73, 0x74, 0x00, 0x00, 0x00, 0x00,
  0x01, 0x00, 0x00, 0x00, 0x02, 0x00, 0x00, 0x00, 0xf6, 0xfd, 0xff, 0xff,
  0x00, 0x00, 0x00, 0x01, 0x10, 0x00, 0x00, 0x00, 0x10, 0x00, 0x00, 0x00,
  0x08, 0x00, 0x00, 0x00, 0x3c, 0x00, 0x00, 0x00, 0x64, 0xfd, 0xff, 0xff,
  0x2c, 0x00, 0x00, 0x00, 0x73, 0x65, 0x71, 0x75, 0x65, 0x6e, 0x74, 0x69,
  0x61, 0x6c, 0x5f, 0x37, 0x2f, 0x64, 0x65, 0x6e, 0x73, 0x65, 0x5f, 0x31,
  0x36, 0x2f, 0x42, 0x69, 0x61, 0x73, 0x41, 0x64, 0x64, 0x2f, 0x52, 0x65,
  0x61, 0x64, 0x56, 0x61, 0x72, 0x69, 0x61, 0x62, 0x6c, 0x65, 0x4f, 0x70,
  0x00, 0x00, 0x00, 0x00, 0x01, 0x00, 0x00, 0x00, 0x14, 0x00, 0x00, 0x00,
  0x4e, 0xfe, 0xff, 0xff, 0x00, 0x00, 0x00, 0x01, 0x10, 0x00, 0x00, 0x00,
  0x10, 0x00, 0x00, 0x00, 0x07, 0x00, 0x00, 0x00, 0x3c, 0x00, 0x00, 0x00,
  0xbc, 0xfd, 0xff, 0xff, 0x2c, 0x00, 0x00, 0x00, 0x73, 0x65, 0x71, 0x75,
  0x65, 0x6e, 0x74, 0x69, 0x61, 0x6c, 0x5f, 0x37, 0x2f, 0x64, 0x65, 0x6e,
  0x73, 0x65, 0x5f, 0x31, 0x37, 0x2f, 0x42, 0x69, 0x61, 0x73, 0x41, 0x64,
  0x64, 0x2f, 0x52, 0x65, 0x61, 0x64, 0x56, 0x61, 0x72, 0x69, 0x61, 0x62,
  0x6c, 0x65, 0x4f, 0x70, 0x00, 0x00, 0x00, 0x00, 0x01, 0x00, 0x00, 0x00,
  0x03, 0x00, 0x00, 0x00, 0xa6, 0xfe, 0xff, 0xff, 0x00, 0x00, 0x00, 0x01,
  0x10, 0x00, 0x00, 0x00, 0x10, 0x00, 0x00, 0x00, 0x06, 0x00, 0x00, 0x00,
  0x2c, 0x00, 0x00, 0x00, 0x14, 0xfe, 0xff, 0xff, 0x1c, 0x00, 0x00, 0x00,
  0x73, 0x65, 0x71, 0x75, 0x65, 0x6e, 0x74, 0x69, 0x61, 0x6c, 0x5f, 0x37,
  0x2f, 0x63, 0x6f, 0x6e, 0x76, 0x32, 0x64, 0x5f, 0x37, 0x2f, 0x43, 0x6f,
  0x6e, 0x76, 0x32, 0x44, 0x00, 0x00, 0x00, 0x00, 0x04, 0x00, 0x00, 0x00,
  0x0a, 0x00, 0x00, 0x00, 0x03, 0x00, 0x00, 0x00, 0x03, 0x00, 0x00, 0x00,
  0x0a, 0x00, 0x00, 0x00, 0xfa, 0xfe, 0xff, 0xff, 0x00, 0x00, 0x00, 0x01,
  0x10, 0x00, 0x00, 0x00, 0x10, 0x00, 0x00, 0x00, 0x05, 0x00, 0x00, 0x00,
  0x2c, 0x00, 0x00, 0x00, 0x68, 0xfe, 0xff, 0xff, 0x1c, 0x00, 0x00, 0x00,
  0x73, 0x65, 0x71, 0x75, 0x65, 0x6e, 0x74, 0x69, 0x61, 0x6c, 0x5f, 0x37,
  0x2f, 0x63, 0x6f, 0x6e, 0x76, 0x32, 0x64, 0x5f, 0x36, 0x2f, 0x43, 0x6f,
  0x6e, 0x76, 0x32, 0x44, 0x00, 0x00, 0x00, 0x00, 0x04, 0x00, 0x00, 0x00,
  0x0a, 0x00, 0x00, 0x00, 0x03, 0x00, 0x00, 0x00, 0x03, 0x00, 0x00, 0x00,
  0x01, 0x00, 0x00, 0x00, 0x4e, 0xff, 0xff, 0xff, 0x00, 0x00, 0x00, 0x01,
  0x10, 0x00, 0x00, 0x00, 0x10, 0x00, 0x00, 0x00, 0x04, 0x00, 0x00, 0x00,
  0x3c, 0x00, 0x00, 0x00, 0xbc, 0xfe, 0xff, 0xff, 0x2c, 0x00, 0x00, 0x00,
  0x73, 0x65, 0x71, 0x75, 0x65, 0x6e, 0x74, 0x69, 0x61, 0x6c, 0x5f, 0x37,
  0x2f, 0x63, 0x6f, 0x6e, 0x76, 0x32, 0x64, 0x5f, 0x37, 0x2f, 0x42, 0x69,
  0x61, 0x73, 0x41, 0x64, 0x64, 0x2f, 0x52, 0x65, 0x61, 0x64, 0x56, 0x61,
  0x72, 0x69, 0x61, 0x62, 0x6c, 0x65, 0x4f, 0x70, 0x00, 0x00, 0x00, 0x00,
  0x01, 0x00, 0x00, 0x00, 0x0a, 0x00, 0x00, 0x00, 0xa6, 0xff, 0xff, 0xff,
  0x00, 0x00, 0x00, 0x01, 0x10, 0x00, 0x00, 0x00, 0x10, 0x00, 0x00, 0x00,
  0x03, 0x00, 0x00, 0x00, 0x3c, 0x00, 0x00, 0x00, 0x14, 0xff, 0xff, 0xff,
  0x2c, 0x00, 0x00, 0x00, 0x73, 0x65, 0x71, 0x75, 0x65, 0x6e, 0x74, 0x69,
  0x61, 0x6c, 0x5f, 0x37, 0x2f, 0x63, 0x6f, 0x6e, 0x76, 0x32, 0x64, 0x5f,
  0x36, 0x2f, 0x42, 0x69, 0x61, 0x73, 0x41, 0x64, 0x64, 0x2f, 0x52, 0x65,
  0x61, 0x64, 0x56, 0x61, 0x72, 0x69, 0x61, 0x62, 0x6c, 0x65, 0x4f, 0x70,
  0x00, 0x00, 0x00, 0x00, 0x01, 0x00, 0x00, 0x00, 0x0a, 0x00, 0x00, 0x00,
  0x00, 0x00, 0x16, 0x00, 0x18, 0x00, 0x14, 0x00, 0x00, 0x00, 0x10, 0x00,
  0x0c, 0x00, 0x08, 0x00, 0x00, 0x00, 0x00, 0x00, 0x00, 0x00, 0x07, 0x00,
  0x16, 0x00, 0x00, 0x00, 0x00, 0x00, 0x00, 0x01, 0x10, 0x00, 0x00, 0x00,
  0x10, 0x00, 0x00, 0x00, 0x02, 0x00, 0x00, 0x00, 0x2c, 0x00, 0x00, 0x00,
  0x84, 0xff, 0xff, 0xff, 0x1c, 0x00, 0x00, 0x00, 0x73, 0x65, 0x71, 0x75,
  0x65, 0x6e, 0x74, 0x69, 0x61, 0x6c, 0x5f, 0x37, 0x2f, 0x64, 0x65, 0x6e,
  0x73, 0x65, 0x5f, 0x31, 0x37, 0x2f, 0x4d, 0x61, 0x74, 0x4d, 0x75, 0x6c,
  0x00, 0x00, 0x00, 0x00, 0x02, 0x00, 0x00, 0x00, 0x03, 0x00, 0x00, 0x00,
  0x14, 0x00, 0x00, 0x00, 0x00, 0x00, 0x16, 0x00, 0x1c, 0x00, 0x18, 0x00,
  0x00, 0x00, 0x14, 0x00, 0x10, 0x00, 0x0c, 0x00, 0x00, 0x00, 0x00, 0x00,
  0x08, 0x00, 0x07, 0x00, 0x16, 0x00, 0x00, 0x00, 0x00, 0x00, 0x00, 0x01,
  0x14, 0x00, 0x00, 0x00, 0x28, 0x00, 0x00, 0x00, 0x28, 0x00, 0x00, 0x00,
  0x01, 0x00, 0x00, 0x00, 0x48, 0x00, 0x00, 0x00, 0x04, 0x00, 0x00, 0x00,
  0xff, 0xff, 0xff, 0xff, 0x20, 0x00, 0x00, 0x00, 0x20, 0x00, 0x00, 0x00,
  0x01, 0x00, 0x00, 0x00, 0x04, 0x00, 0x04, 0x00, 0x04, 0x00, 0x00, 0x00,
  0x20, 0x00, 0x00, 0x00, 0x73, 0x65, 0x72, 0x76, 0x69, 0x6e, 0x67, 0x5f,
  0x64, 0x65, 0x66, 0x61, 0x75, 0x6c, 0x74, 0x5f, 0x63, 0x6f, 0x6e, 0x76,
  0x32, 0x64, 0x5f, 0x36, 0x5f, 0x69, 0x6e, 0x70, 0x75, 0x74, 0x3a, 0x30,
  0x00, 0x00, 0x00, 0x00, 0x04, 0x00, 0x00, 0x00, 0x01, 0x00, 0x00, 0x00,
  0x20, 0x00, 0x00, 0x00, 0x20, 0x00, 0x00, 0x00, 0x01, 0x00, 0x00, 0x00,
  0x05, 0x00, 0x00, 0x00, 0x60, 0x00, 0x00, 0x00, 0x44, 0x00, 0x00, 0x00,
  0x34, 0x00, 0x00, 0x00, 0x20, 0x00, 0x00, 0x00, 0x04, 0x00, 0x00, 0x00,
  0xc0, 0xff, 0xff, 0xff, 0x19, 0x00, 0x00, 0x00, 0x00, 0x00, 0x00, 0x19,
  0x0c, 0x00, 0x10, 0x00, 0x0f, 0x00, 0x00, 0x00, 0x08, 0x00, 0x04, 0x00,
  0x0c, 0x00, 0x00, 0x00, 0x09, 0x00, 0x00, 0x00, 0x09, 0x00, 0x00, 0x00,
  0x00, 0x00, 0x00, 0x09, 0xe8, 0xff, 0xff, 0xff, 0x16, 0x00, 0x00, 0x00,
  0x00, 0x00, 0x00, 0x16, 0xf4, 0xff, 0xff, 0xff, 0x11, 0x00, 0x00, 0x00,
  0x00, 0x00, 0x00, 0x11, 0x0c, 0x00, 0x0c, 0x00, 0x0b, 0x00, 0x00, 0x00,
  0x00, 0x00, 0x04, 0x00, 0x0c, 0x00, 0x00, 0x00, 0x03, 0x00, 0x00, 0x00,
  0x00, 0x00, 0x00, 0x03
};

#endif //BBGT_MODEL_H