#ifndef CNN_SINE_MODEL_H
#define CNN_SINE_MODEL_H


unsigned int cnn_sine_model_len = 6276;
unsigned char cnn_sine_model[] = {
 0x1c, 0x00, 0x00, 0x00, 0x54, 0x46, 0x4c, 0x33, 0x14, 0x00, 0x20, 0x00,
  0x1c, 0x00, 0x18, 0x00, 0x14, 0x00, 0x10, 0x00, 0x0c, 0x00, 0x00, 0x00,
  0x08, 0x00, 0x04, 0x00, 0x14, 0x00, 0x00, 0x00, 0x1c, 0x00, 0x00, 0x00,
  0x88, 0x00, 0x00, 0x00, 0xe0, 0x00, 0x00, 0x00, 0x00, 0x0d, 0x00, 0x00,
  0x10, 0x0d, 0x00, 0x00, 0xf0, 0x17, 0x00, 0x00, 0x03, 0x00, 0x00, 0x00,
  0x01, 0x00, 0x00, 0x00, 0x04, 0x00, 0x00, 0x00, 0x8e, 0xf1, 0xff, 0xff,
  0x0c, 0x00, 0x00, 0x00, 0x1c, 0x00, 0x00, 0x00, 0x38, 0x00, 0x00, 0x00,
  0x0f, 0x00, 0x00, 0x00, 0x73, 0x65, 0x72, 0x76, 0x69, 0x6e, 0x67, 0x5f,
  0x64, 0x65, 0x66, 0x61, 0x75, 0x6c, 0x74, 0x00, 0x01, 0x00, 0x00, 0x00,
  0x04, 0x00, 0x00, 0x00, 0x94, 0xff, 0xff, 0xff, 0x12, 0x00, 0x00, 0x00,
  0x04, 0x00, 0x00, 0x00, 0x07, 0x00, 0x00, 0x00, 0x64, 0x65, 0x6e, 0x73,
  0x65, 0x5f, 0x33, 0x00, 0x01, 0x00, 0x00, 0x00, 0x04, 0x00, 0x00, 0x00,
  0xfe, 0xf3, 0xff, 0xff, 0x04, 0x00, 0x00, 0x00, 0x0e, 0x00, 0x00, 0x00,
  0x63, 0x6f, 0x6e, 0x76, 0x31, 0x64, 0x5f, 0x31, 0x5f, 0x69, 0x6e, 0x70,
  0x75, 0x74, 0x00, 0x00, 0x02, 0x00, 0x00, 0x00, 0x34, 0x00, 0x00, 0x00,
  0x04, 0x00, 0x00, 0x00, 0xdc, 0xff, 0xff, 0xff, 0x15, 0x00, 0x00, 0x00,
  0x04, 0x00, 0x00, 0x00, 0x13, 0x00, 0x00, 0x00, 0x43, 0x4f, 0x4e, 0x56,
  0x45, 0x52, 0x53, 0x49, 0x4f, 0x4e, 0x5f, 0x4d, 0x45, 0x54, 0x41, 0x44,
  0x41, 0x54, 0x41, 0x00, 0x08, 0x00, 0x0c, 0x00, 0x08, 0x00, 0x04, 0x00,
  0x08, 0x00, 0x00, 0x00, 0x14, 0x00, 0x00, 0x00, 0x04, 0x00, 0x00, 0x00,
  0x13, 0x00, 0x00, 0x00, 0x6d, 0x69, 0x6e, 0x5f, 0x72, 0x75, 0x6e, 0x74,
  0x69, 0x6d, 0x65, 0x5f, 0x76, 0x65, 0x72, 0x73, 0x69, 0x6f, 0x6e, 0x00,
  0x16, 0x00, 0x00, 0x00, 0x1c, 0x0c, 0x00, 0x00, 0x14, 0x0c, 0x00, 0x00,
  0x84, 0x0b, 0x00, 0x00, 0x60, 0x0b, 0x00, 0x00, 0xd0, 0x09, 0x00, 0x00,
  0xbc, 0x09, 0x00, 0x00, 0x6c, 0x09, 0x00, 0x00, 0x58, 0x09, 0x00, 0x00,
  0x40, 0x09, 0x00, 0x00, 0x2c, 0x09, 0x00, 0x00, 0x1c, 0x01, 0x00, 0x00,
  0xcc, 0x00, 0x00, 0x00, 0xc4, 0x00, 0x00, 0x00, 0xbc, 0x00, 0x00, 0x00,
  0xb4, 0x00, 0x00, 0x00, 0xac, 0x00, 0x00, 0x00, 0xa4, 0x00, 0x00, 0x00,
  0x9c, 0x00, 0x00, 0x00, 0x94, 0x00, 0x00, 0x00, 0x8c, 0x00, 0x00, 0x00,
  0x6c, 0x00, 0x00, 0x00, 0x04, 0x00, 0x00, 0x00, 0xd2, 0xf4, 0xff, 0xff,
  0x04, 0x00, 0x00, 0x00, 0x58, 0x00, 0x00, 0x00, 0x0c, 0x00, 0x00, 0x00,
  0x08, 0x00, 0x0e, 0x00, 0x08, 0x00, 0x04, 0x00, 0x08, 0x00, 0x00, 0x00,
  0x10, 0x00, 0x00, 0x00, 0x28, 0x00, 0x00, 0x00, 0x00, 0x00, 0x06, 0x00,
  0x08, 0x00, 0x04, 0x00, 0x06, 0x00, 0x00, 0x00, 0x04, 0x00, 0x00, 0x00,
  0x01, 0x00, 0x00, 0x00, 0xea, 0x03, 0x00, 0x00, 0x00, 0x00, 0x0a, 0x00,
  0x10, 0x00, 0x0c, 0x00, 0x08, 0x00, 0x04, 0x00, 0x0a, 0x00, 0x00, 0x00,
  0x02, 0x00, 0x00, 0x00, 0x02, 0x00, 0x00, 0x00, 0x04, 0x00, 0x00, 0x00,
  0x06, 0x00, 0x00, 0x00, 0x32, 0x2e, 0x31, 0x35, 0x2e, 0x30, 0x00, 0x00,
  0x36, 0xf5, 0xff, 0xff, 0x04, 0x00, 0x00, 0x00, 0x10, 0x00, 0x00, 0x00,
  0x31, 0x2e, 0x31, 0x30, 0x2e, 0x30, 0x00, 0x00, 0x00, 0x00, 0x00, 0x00,
  0x00, 0x00, 0x00, 0x00, 0x00, 0xea, 0xff, 0xff, 0x04, 0xea, 0xff, 0xff,
  0x08, 0xea, 0xff, 0xff, 0x0c, 0xea, 0xff, 0xff, 0x10, 0xea, 0xff, 0xff,
  0x14, 0xea, 0xff, 0xff, 0x18, 0xea, 0xff, 0xff, 0x1c, 0xea, 0xff, 0xff,
  0x72, 0xf5, 0xff, 0xff, 0x04, 0x00, 0x00, 0x00, 0x40, 0x00, 0x00, 0x00,
  0x80, 0xc4, 0x0e, 0x3f, 0xe5, 0x85, 0x3b, 0xbe, 0x40, 0xde, 0x0e, 0xbf,
  0x7c, 0xff, 0x89, 0x3e, 0xd7, 0x9d, 0x29, 0xbf, 0xb1, 0xa8, 0xc8, 0x3e,
  0x94, 0x83, 0x13, 0xbe, 0x1d, 0xee, 0xcc, 0x3e, 0x53, 0x1b, 0x02, 0xbf,
  0x12, 0xf0, 0xf8, 0x3e, 0x41, 0xfe, 0xb9, 0xbe, 0xb3, 0x21, 0x05, 0xbf,
  0x96, 0xc0, 0x81, 0x3e, 0x12, 0xd2, 0x00, 0xbf, 0xfc, 0x52, 0xb9, 0x3e,
  0x5a, 0x37, 0xac, 0xbe, 0xbe, 0xf5, 0xff, 0xff, 0x04, 0x00, 0x00, 0x00,
  0x00, 0x08, 0x00, 0x00, 0xda, 0x82, 0x20, 0xbe, 0xb1, 0x33, 0xc5, 0x3b,
  0x81, 0xf7, 0x61, 0xbe, 0x68, 0xda, 0x49, 0x3e, 0xc2, 0x2e, 0x94, 0x3e,
  0xcb, 0x07, 0x92, 0x3d, 0xb3, 0xf1, 0x9c, 0x3e, 0xd5, 0x6c, 0x17, 0x3d,
  0x84, 0x8e, 0x1f, 0x3e, 0x9f, 0xcf, 0x88, 0x3e, 0x97, 0xef, 0xa1, 0xbb,
  0x1c, 0xcc, 0x68, 0xbe, 0xa1, 0x9f, 0x96, 0x3e, 0x10, 0xf0, 0x3e, 0x3e,
  0x51, 0x0d, 0xd5, 0xbe, 0x94, 0xeb, 0x9c, 0x3d, 0x1c, 0xa5, 0xe7, 0x3d,
  0x17, 0x60, 0x3b, 0x3e, 0x3b, 0xf5, 0x77, 0xbb, 0x60, 0xae, 0x4f, 0x3e,
  0x62, 0xb3, 0x8d, 0x3d, 0x6c, 0xc9, 0x84, 0xbe, 0x03, 0x5d, 0x28, 0x3d,
  0x1e, 0xb3, 0xa0, 0x3d, 0x5c, 0x4e, 0x96, 0x3e, 0x17, 0xd1, 0x71, 0xbc,
  0x70, 0xc6, 0x54, 0x3d, 0xd6, 0xc7, 0xb3, 0xbd, 0x45, 0x1b, 0x0c, 0xbd,
  0x93, 0x8b, 0x77, 0xbd, 0x7b, 0x76, 0xc6, 0x3d, 0xd0, 0xd1, 0x39, 0x3e,
  0x32, 0xe4, 0x82, 0xbe, 0x7e, 0x97, 0x92, 0xbe, 0x02, 0x7a, 0x24, 0xbd,
  0x8e, 0x81, 0x38, 0x3e, 0x13, 0xfe, 0xca, 0xbd, 0x22, 0x9e, 0x83, 0xbe,
  0x28, 0x90, 0x1f, 0xbe, 0x09, 0x2c, 0x87, 0x3e, 0x91, 0x33, 0x88, 0x3e,
  0x64, 0x54, 0x28, 0xbe, 0x28, 0x1d, 0x61, 0xbe, 0xe5, 0x83, 0x2c, 0xbc,
  0x48, 0xe7, 0x86, 0x3e, 0xf3, 0xa8, 0x3d, 0xbd, 0x67, 0x50, 0x7c, 0xbe,
  0x1c, 0x9e, 0xce, 0xbd, 0x33, 0x00, 0x6f, 0x3e, 0x89, 0x25, 0x49, 0xbe,
  0xfe, 0xde, 0x46, 0x3e, 0xc1, 0x25, 0x6c, 0x3e, 0x79, 0x0d, 0x56, 0xbe,
  0x47, 0x3b, 0x8b, 0x3e, 0x37, 0x2e, 0x55, 0x3e, 0x1a, 0x9e, 0xbe, 0xbd,
  0x66, 0x18, 0x93, 0x3e, 0xc3, 0x92, 0x2a, 0xbd, 0x75, 0x4d, 0x0f, 0xbe,
  0xdc, 0xae, 0x93, 0xbe, 0x80, 0x54, 0x99, 0xbe, 0x90, 0xe0, 0x5a, 0xbe,
  0xe4, 0xca, 0x5b, 0xbe, 0xe6, 0x20, 0xac, 0x3e, 0x9c, 0x6e, 0x34, 0x3e,
  0x1c, 0x3c, 0x9b, 0x3e, 0x09, 0x00, 0x85, 0x3d, 0xc3, 0xd9, 0x12, 0x3e,
  0x27, 0xe8, 0x98, 0x3e, 0x5e, 0x5a, 0x72, 0xbe, 0x11, 0x3c, 0xcb, 0x3d,
  0x47, 0x29, 0x2d, 0x3e, 0x46, 0x92, 0x4d, 0xbc, 0xd4, 0x44, 0x69, 0xbe,
  0x62, 0x1d, 0xed, 0x3a, 0xdc, 0x94, 0x76, 0x3e, 0x1a, 0x4b, 0xb9, 0xbe,
  0x11, 0x22, 0x6a, 0xbd, 0x43, 0x4c, 0x53, 0x3e, 0xeb, 0xcd, 0x8a, 0x3e,
  0xeb, 0x18, 0x9c, 0xbe, 0x06, 0x6a, 0x51, 0x3e, 0x41, 0x31, 0xa1, 0xbd,
  0x8d, 0x14, 0xbc, 0x3c, 0x49, 0x04, 0x8d, 0xbd, 0xef, 0x26, 0x39, 0x3e,
  0x64, 0x1e, 0xb8, 0x3e, 0x64, 0x8e, 0xe0, 0xba, 0xc6, 0xfe, 0x32, 0xbe,
  0x0e, 0x17, 0x6d, 0xbe, 0x8d, 0xc7, 0x98, 0xbd, 0x96, 0xdf, 0xd3, 0x3d,
  0xad, 0xb8, 0x63, 0x3e, 0xbc, 0xdd, 0x08, 0xbe, 0x73, 0xc5, 0x81, 0xbe,
  0x9f, 0xa2, 0x8d, 0x3d, 0x38, 0x10, 0x15, 0xbd, 0x14, 0x1d, 0x59, 0xbe,
  0x93, 0x65, 0xbb, 0x3e, 0xe5, 0x0f, 0x80, 0xbe, 0x86, 0xe2, 0x8a, 0x3d,
  0x21, 0x13, 0x8f, 0x3d, 0x29, 0x12, 0x42, 0x3e, 0xc7, 0x47, 0x6d, 0xbd,
  0xce, 0xd3, 0x29, 0xbd, 0xb5, 0x98, 0x97, 0x3e, 0xee, 0x4f, 0x94, 0x3e,
  0x63, 0xd5, 0x29, 0xbe, 0x00, 0xb6, 0xdc, 0x3d, 0x2a, 0xff, 0x8b, 0x3e,
  0xa2, 0xf4, 0xfe, 0xbc, 0xee, 0x58, 0xc3, 0x3b, 0x72, 0xba, 0x0c, 0x3e,
  0xd0, 0x66, 0x02, 0xbe, 0x19, 0x90, 0x33, 0xbe, 0xc8, 0xc1, 0x78, 0x3d,
  0x18, 0xf1, 0x12, 0x3d, 0x2a, 0x11, 0x5c, 0x3e, 0x4f, 0x11, 0x0c, 0xbe,
  0xa9, 0x48, 0xef, 0x3b, 0xa4, 0x91, 0x15, 0x3e, 0x31, 0xc2, 0x6a, 0x3e,
  0xfe, 0x82, 0x7e, 0x3e, 0x73, 0xf6, 0x87, 0x3e, 0x39, 0xb8, 0x8a, 0x3e,
  0x4c, 0xb6, 0x60, 0xbe, 0x61, 0xd4, 0x2c, 0xbe, 0x15, 0x87, 0x2a, 0x3e,
  0xc2, 0x93, 0xe6, 0x3d, 0x3b, 0x8a, 0xc1, 0x3e, 0x18, 0xe2, 0x74, 0xbd,
  0xc1, 0xb0, 0x26, 0x3e, 0xc4, 0x07, 0x93, 0xbc, 0x01, 0x12, 0x90, 0xbe,
  0x67, 0xe8, 0x49, 0xbd, 0xe8, 0xbf, 0xb0, 0xbc, 0x78, 0x7f, 0xa8, 0x3e,
  0xa0, 0x7a, 0x95, 0x3d, 0xe4, 0x33, 0x22, 0x3e, 0x9f, 0x5c, 0xb9, 0x3e,
  0x45, 0x15, 0x95, 0x3e, 0x7b, 0x75, 0x04, 0x3e, 0x28, 0x9b, 0x77, 0xbc,
  0x44, 0x65, 0x8a, 0xbe, 0x0a, 0x73, 0xc9, 0x3c, 0xa3, 0x6c, 0xb6, 0x3e,
  0xeb, 0xe6, 0xb4, 0x3e, 0x91, 0xcf, 0x85, 0xbe, 0x5d, 0x4e, 0x94, 0x3e,
  0x71, 0x6c, 0x92, 0x3d, 0xd4, 0x58, 0x56, 0xbd, 0x1e, 0x3d, 0x9a, 0xbe,
  0x58, 0x5c, 0xcf, 0xbe, 0x95, 0x7a, 0xb9, 0x3e, 0xb9, 0xc5, 0xcc, 0xbe,
  0x02, 0x98, 0xca, 0xbe, 0xbf, 0xc6, 0x8d, 0xbe, 0x60, 0x6a, 0x53, 0xbd,
  0x96, 0x82, 0x17, 0x3e, 0xf9, 0x4d, 0x87, 0x3e, 0x5b, 0x06, 0x29, 0xbe,
  0x25, 0xc2, 0x94, 0x3e, 0xf2, 0x1e, 0x11, 0x3e, 0x98, 0xf4, 0x9e, 0xbe,
  0x5c, 0xc4, 0xaf, 0x3d, 0x71, 0xc1, 0x02, 0x3d, 0xe9, 0xfb, 0x85, 0xbe,
  0xdc, 0x1a, 0x2a, 0xbe, 0xf2, 0x70, 0xa9, 0xb9, 0x18, 0xf5, 0x80, 0xbe,
  0xdc, 0xcb, 0xbd, 0x3d, 0x1c, 0xe9, 0xef, 0x3d, 0xc3, 0x82, 0x56, 0xbe,
  0x20, 0x0f, 0x1d, 0xbe, 0x05, 0x53, 0x8c, 0xbe, 0xef, 0x4c, 0x8f, 0xbe,
  0xde, 0xcd, 0xf0, 0xbd, 0xa6, 0x22, 0x13, 0xbb, 0x18, 0x16, 0x52, 0xbd,
  0x73, 0x16, 0xa8, 0xbd, 0x00, 0xba, 0x8e, 0x3a, 0x4b, 0x15, 0xa4, 0x3e,
  0x4f, 0x2c, 0x26, 0xbe, 0x90, 0x1b, 0x4f, 0xbd, 0x33, 0x96, 0x64, 0x3d,
  0x4a, 0x6b, 0x69, 0xbe, 0x23, 0xea, 0x92, 0x3e, 0x03, 0x0e, 0x47, 0xbe,
  0x88, 0x51, 0xda, 0x3c, 0xf2, 0xf9, 0x83, 0x3e, 0x1d, 0xc7, 0xa0, 0x3d,
  0x43, 0xfc, 0x8b, 0x3e, 0x5e, 0x5b, 0x9c, 0xbe, 0x6d, 0x2d, 0x3a, 0x3e,
  0x28, 0x6f, 0x92, 0xbe, 0x7c, 0x1f, 0x8f, 0xbe, 0xc0, 0x9b, 0x8e, 0x3d,
  0x91, 0xc6, 0x80, 0xbd, 0xf7, 0x16, 0x91, 0xbe, 0xba, 0x78, 0x8f, 0xbe,
  0x93, 0x17, 0x9d, 0xbe, 0x99, 0xb7, 0x57, 0xbe, 0xa9, 0x22, 0xe6, 0xbd,
  0xda, 0xb9, 0x78, 0xbe, 0x20, 0x4c, 0xa4, 0x3d, 0x7c, 0x02, 0x73, 0x3d,
  0xea, 0x58, 0xfe, 0xbd, 0xad, 0x39, 0x89, 0x3e, 0xf6, 0xed, 0x79, 0xbe,
  0x2f, 0xed, 0x99, 0xbe, 0x38, 0xb3, 0x37, 0xbe, 0x71, 0xf7, 0x0b, 0xbe,
  0xe8, 0xb6, 0xf1, 0x3d, 0xd4, 0x98, 0x10, 0x3e, 0x09, 0xfe, 0xa4, 0xbe,
  0x16, 0xed, 0x7f, 0x3e, 0xf7, 0x29, 0x3d, 0x3e, 0x9a, 0x30, 0x3e, 0xbe,
  0x0e, 0x94, 0xa7, 0x3e, 0xe6, 0xe5, 0x3e, 0x3e, 0x23, 0xbe, 0x95, 0x3e,
  0x8c, 0x61, 0x14, 0xbd, 0xe0, 0x35, 0xa8, 0x3e, 0xf0, 0xa8, 0xa0, 0x3d,
  0xe8, 0xb9, 0x49, 0xbe, 0xe4, 0x97, 0x76, 0xbe, 0x5f, 0x73, 0x83, 0x3e,
  0x5e, 0xca, 0x42, 0x3e, 0xd7, 0x43, 0x07, 0x3e, 0xf7, 0x5c, 0x41, 0xbe,
  0x9e, 0xe0, 0x96, 0xbc, 0x3b, 0x58, 0xd6, 0xbe, 0xc3, 0x14, 0x83, 0xbe,
  0xde, 0x66, 0x61, 0xbd, 0x46, 0xd3, 0x14, 0xbe, 0x5e, 0x55, 0x80, 0x3e,
  0x88, 0xa9, 0xc4, 0xbd, 0x25, 0x19, 0xf4, 0x3c, 0x24, 0x7c, 0x39, 0x3e,
  0x29, 0x86, 0x8e, 0xbe, 0x4a, 0x5a, 0x8e, 0xbe, 0x05, 0x02, 0x78, 0x3d,
  0x00, 0x51, 0x7b, 0x3d, 0xff, 0x41, 0xd1, 0x3e, 0xf3, 0xe0, 0xcb, 0xbd,
  0xf0, 0x31, 0xc1, 0xbb, 0x1f, 0x41, 0x35, 0x3d, 0xfa, 0xa2, 0xdf, 0x3d,
  0x10, 0x29, 0xea, 0x3d, 0xdc, 0xbf, 0xc2, 0xbe, 0x5e, 0xe3, 0x86, 0x3e,
  0xf8, 0x7a, 0x20, 0xbe, 0xf1, 0x20, 0xae, 0xbd, 0xbb, 0xd3, 0x3c, 0x3c,
  0xa4, 0xd4, 0xec, 0xbb, 0xe3, 0xef, 0xb7, 0xbe, 0x0f, 0x50, 0xb8, 0xbe,
  0xba, 0x58, 0x7b, 0xbe, 0xb7, 0xeb, 0x92, 0x3e, 0xe0, 0x09, 0x48, 0xbe,
  0xba, 0x68, 0xd1, 0x3d, 0xed, 0xea, 0xc8, 0x3e, 0xdd, 0xd5, 0x94, 0xba,
  0xe6, 0x1e, 0x0f, 0x3e, 0x7d, 0x33, 0x5e, 0xbd, 0x0b, 0xb5, 0x1c, 0xbe,
  0xa4, 0x9c, 0xaa, 0x3e, 0xef, 0xef, 0x2b, 0xbe, 0x3b, 0x4a, 0x93, 0xbd,
  0x21, 0xc1, 0x80, 0x3e, 0x17, 0xa2, 0xac, 0x3d, 0xb6, 0x1d, 0x84, 0xbe,
  0xba, 0xc1, 0x36, 0x3e, 0xc0, 0xb4, 0xb9, 0x3e, 0xff, 0xee, 0x1c, 0xbe,
  0x33, 0xe2, 0xec, 0x3d, 0x7e, 0x3e, 0xb3, 0xbd, 0xfc, 0x5a, 0x39, 0x3d,
  0x46, 0xb0, 0x89, 0x3e, 0xf4, 0x9b, 0x59, 0xbd, 0x5b, 0xbb, 0xae, 0xbe,
  0xda, 0xec, 0xa4, 0xbc, 0x33, 0xee, 0x4a, 0x3e, 0x7d, 0x45, 0xa4, 0xbd,
  0x1e, 0xd6, 0x99, 0x3e, 0xd5, 0xd1, 0xb4, 0x3e, 0xa3, 0xfc, 0x5b, 0x3d,
  0x08, 0x08, 0x76, 0xbd, 0xc4, 0xad, 0x18, 0xbd, 0xd9, 0xb1, 0xb9, 0xbd,
  0x67, 0x9c, 0x47, 0xbe, 0xd7, 0xb0, 0xcf, 0xba, 0x99, 0x36, 0x16, 0x3e,
  0xa2, 0x1d, 0x91, 0x3e, 0xff, 0x0f, 0xb9, 0x3e, 0xc2, 0x8a, 0xe8, 0xbc,
  0x3b, 0x99, 0x68, 0x3e, 0x97, 0x99, 0xd0, 0xbd, 0x3c, 0x12, 0x89, 0xbe,
  0x48, 0x04, 0xa8, 0x3e, 0x24, 0x3f, 0x92, 0xbd, 0x87, 0xe6, 0xd4, 0x3e,
  0x6d, 0x15, 0xe7, 0xbd, 0xef, 0xa7, 0x07, 0xbe, 0x1a, 0x44, 0xd9, 0x3d,
  0x6f, 0x05, 0x31, 0xbc, 0xe2, 0x69, 0x8b, 0xbe, 0xa1, 0xfc, 0x1d, 0xbd,
  0x58, 0x41, 0xd5, 0xbd, 0xe2, 0x7f, 0xed, 0x3c, 0xd3, 0x4d, 0x91, 0x3e,
  0x12, 0x65, 0x5a, 0x3e, 0x4e, 0xa5, 0x9e, 0x3d, 0xfa, 0xc0, 0x35, 0xbe,
  0x0c, 0x7a, 0x73, 0x3e, 0x76, 0xa4, 0x90, 0xbe, 0x97, 0x83, 0x7b, 0xbe,
  0x72, 0x2f, 0x72, 0x3d, 0x60, 0x1d, 0x76, 0x3d, 0xaf, 0x41, 0x8e, 0xbe,
  0x6f, 0xa7, 0x1d, 0x3e, 0x73, 0x28, 0x80, 0xbe, 0x47, 0x6a, 0xa2, 0xbe,
  0x0e, 0xa5, 0xc1, 0x3e, 0x61, 0xb0, 0x84, 0xbe, 0x09, 0x67, 0xcd, 0x3d,
  0xda, 0x2d, 0x26, 0xbd, 0x9a, 0xdc, 0x5d, 0x3d, 0x98, 0xa0, 0x8c, 0xbd,
  0xd3, 0x6d, 0xb0, 0x3d, 0x88, 0x35, 0xb5, 0x3e, 0x93, 0x4b, 0x9d, 0xbe,
  0x13, 0xb1, 0x3d, 0x3e, 0x92, 0x0e, 0x7b, 0x3e, 0xd9, 0xe3, 0x7d, 0xbe,
  0x9c, 0x8b, 0x94, 0x3e, 0x86, 0x91, 0x88, 0x3d, 0x17, 0x58, 0x77, 0xbe,
  0xe3, 0x84, 0x04, 0xbd, 0x83, 0x50, 0x2f, 0x3e, 0xe8, 0xec, 0x2a, 0x3e,
  0xd9, 0x8c, 0x26, 0x3e, 0x57, 0x32, 0xc5, 0x3e, 0x36, 0x94, 0xac, 0xbd,
  0x2c, 0xf2, 0x8d, 0x3d, 0x4c, 0x24, 0x71, 0xbe, 0x88, 0x71, 0xba, 0x3d,
  0xe7, 0x84, 0x6b, 0xbe, 0x48, 0xf5, 0x20, 0xbe, 0xff, 0x50, 0xb6, 0x3e,
  0x22, 0xc9, 0x85, 0xbc, 0x2b, 0x25, 0xb0, 0x3e, 0xd1, 0x1d, 0xa0, 0x3e,
  0x81, 0x52, 0x80, 0xbe, 0xff, 0x69, 0x3a, 0x3e, 0x0a, 0x8e, 0x52, 0xbe,
  0xe2, 0x6d, 0xee, 0x3d, 0xd5, 0x25, 0x0f, 0x3e, 0x31, 0x95, 0x52, 0xbe,
  0xfd, 0xc0, 0x54, 0xbe, 0x1b, 0xb4, 0x1f, 0x3e, 0x8c, 0x57, 0xd5, 0x3c,
  0x8f, 0xe5, 0xd3, 0xbd, 0x1a, 0x60, 0x72, 0xbe, 0xe7, 0x6c, 0x96, 0x3e,
  0xe2, 0x44, 0x61, 0xbe, 0x25, 0x77, 0x88, 0x3e, 0x90, 0xe7, 0x8d, 0xbe,
  0xb4, 0xfe, 0xcc, 0x3d, 0x5e, 0x10, 0x8e, 0x3e, 0x1e, 0xd4, 0x82, 0x3c,
  0x5d, 0xa0, 0xb7, 0xbe, 0x95, 0x9d, 0x3d, 0x3e, 0x8b, 0xe1, 0x87, 0x3e,
  0xd4, 0x1a, 0x7d, 0xbe, 0xe5, 0xf3, 0x85, 0x3e, 0x41, 0xca, 0x50, 0x3e,
  0x75, 0xf6, 0x32, 0x3e, 0x65, 0x5f, 0x8c, 0x3e, 0x31, 0x66, 0x60, 0xbe,
  0x6c, 0x5b, 0x5e, 0xbe, 0x7d, 0x60, 0x4d, 0x3d, 0x53, 0x61, 0x1b, 0xbe,
  0xfc, 0x84, 0x9e, 0x3e, 0xe0, 0xf1, 0x97, 0x3d, 0x26, 0x75, 0x92, 0x3c,
  0x05, 0xa0, 0x20, 0x3e, 0xe0, 0x00, 0x96, 0xbe, 0xf1, 0x07, 0x69, 0xbe,
  0x78, 0xd4, 0x89, 0xbe, 0xbe, 0x03, 0x0f, 0xbe, 0x18, 0x57, 0x79, 0xbe,
  0x6b, 0x9c, 0xff, 0xbd, 0x2e, 0xbb, 0xca, 0x3e, 0x6e, 0xd8, 0x75, 0xbe,
  0x77, 0x95, 0x4d, 0xbe, 0x51, 0xc8, 0xb5, 0x3e, 0x58, 0x02, 0xd5, 0x3e,
  0x57, 0x75, 0x0a, 0xbe, 0x41, 0x19, 0x27, 0xbc, 0xfd, 0xd2, 0x8f, 0xbe,
  0x87, 0xdc, 0x95, 0x3e, 0x29, 0x19, 0x99, 0x3e, 0x5d, 0x77, 0x83, 0x3e,
  0x13, 0x51, 0x9a, 0x3e, 0xf2, 0xc6, 0xfb, 0xbd, 0x49, 0x88, 0x10, 0xbd,
  0x10, 0x28, 0xc8, 0x3c, 0x59, 0xfd, 0xc2, 0x3d, 0xf5, 0xa5, 0xb3, 0xbe,
  0xda, 0xa8, 0xc8, 0x3e, 0x9b, 0xba, 0x0e, 0x3d, 0x57, 0xf6, 0x53, 0x3c,
  0x77, 0x6e, 0xa3, 0x3e, 0x77, 0xef, 0x5c, 0x3c, 0x49, 0x21, 0x2d, 0x3e,
  0xfc, 0x24, 0x8b, 0xbd, 0xa0, 0x54, 0x27, 0x3d, 0xa3, 0x7c, 0xab, 0xbe,
  0xca, 0xa4, 0xa8, 0xbe, 0x4a, 0xb0, 0x3f, 0x3e, 0xde, 0xd1, 0xa6, 0xbe,
  0x19, 0xa7, 0x9e, 0xbe, 0x04, 0x67, 0x9c, 0xbe, 0x72, 0x25, 0x77, 0x3e,
  0x24, 0x75, 0x9f, 0xbd, 0x08, 0xd0, 0x84, 0xbd, 0x38, 0x41, 0x0b, 0x3d,
  0x64, 0x63, 0x46, 0xbe, 0x21, 0x63, 0x80, 0x3e, 0x44, 0xde, 0x86, 0xbe,
  0xe4, 0xbc, 0xd0, 0xbd, 0xa5, 0xb2, 0x8d, 0xbe, 0xea, 0x50, 0x8e, 0xbe,
  0xcd, 0x61, 0x9c, 0xbe, 0x56, 0xd0, 0x17, 0x3e, 0xa0, 0x8c, 0x38, 0x3c,
  0xd6, 0x4a, 0x59, 0x3e, 0x86, 0x18, 0x8a, 0xbe, 0x66, 0x55, 0x25, 0xbe,
  0x75, 0xe8, 0x64, 0xbe, 0xdc, 0xed, 0xea, 0x3d, 0xfe, 0xea, 0x22, 0x3e,
  0xf1, 0x0e, 0x8f, 0x3e, 0x51, 0x2c, 0xa4, 0x3e, 0x38, 0xc7, 0x6c, 0xbd,
  0xb2, 0xce, 0x0f, 0xbe, 0xa0, 0xa7, 0xa7, 0xbc, 0x43, 0x65, 0x92, 0xbe,
  0xc6, 0x01, 0x90, 0x39, 0xea, 0x65, 0xaa, 0xbd, 0x3d, 0x6a, 0x8e, 0xbd,
  0x39, 0xe5, 0x89, 0xbe, 0x33, 0x88, 0x38, 0xbe, 0x57, 0x77, 0x90, 0x3c,
  0xda, 0xe1, 0x7e, 0xbd, 0xb9, 0xbe, 0x9f, 0x3e, 0xed, 0x58, 0xb2, 0xbe,
  0x21, 0x50, 0x8c, 0x3e, 0x44, 0xd5, 0xd8, 0xbd, 0x63, 0x2a, 0x4f, 0x3e,
  0x7a, 0x26, 0x9b, 0xbe, 0x64, 0x59, 0x73, 0x3e, 0xbb, 0x7d, 0x5d, 0x3e,
  0xe7, 0x48, 0x86, 0xbe, 0x4e, 0x1c, 0x97, 0xbe, 0x07, 0xe4, 0x6a, 0x3e,
  0x00, 0x37, 0x1a, 0xbd, 0x60, 0xa5, 0xda, 0xbd, 0xc4, 0xae, 0x93, 0xbe,
  0xbc, 0xb9, 0x8f, 0xbc, 0x3a, 0xcb, 0xbf, 0xbe, 0x30, 0x67, 0x1d, 0xbe,
  0x3e, 0x02, 0x20, 0x3d, 0x4d, 0x67, 0x18, 0xba, 0xdd, 0x2c, 0x52, 0x3e,
  0x2a, 0xb7, 0x7a, 0x3d, 0x3f, 0x19, 0x17, 0xbe, 0xec, 0xbf, 0xae, 0xbd,
  0xc9, 0xb1, 0x47, 0x3c, 0x25, 0x8e, 0x84, 0x3e, 0xca, 0xd3, 0x75, 0xbe,
  0xed, 0xed, 0x5b, 0x3e, 0x75, 0x77, 0x9a, 0x3e, 0x41, 0xab, 0xb7, 0xbd,
  0x55, 0xe8, 0x78, 0xbe, 0xd0, 0x0f, 0x1e, 0x3e, 0x23, 0x60, 0xce, 0x3e,
  0x6c, 0x31, 0x87, 0x3e, 0x40, 0xd9, 0x2b, 0x3c, 0xa9, 0xdc, 0x7d, 0xbd,
  0x0f, 0x34, 0xf3, 0xbc, 0x30, 0xb4, 0xc0, 0x3d, 0x3f, 0x53, 0x1b, 0x3c,
  0x3b, 0x9d, 0x5e, 0xbe, 0xcb, 0x9e, 0x4f, 0x3e, 0x93, 0x2e, 0x30, 0x3e,
  0x29, 0xe3, 0xc7, 0x3e, 0x89, 0xeb, 0x25, 0x3d, 0x76, 0xcd, 0xf9, 0xbc,
  0x05, 0x46, 0x57, 0x3e, 0x01, 0xb2, 0x85, 0x3e, 0xe9, 0x6b, 0xbd, 0x3e,
  0xfc, 0xe4, 0x85, 0x3e, 0xa4, 0xfb, 0x01, 0x3e, 0x9f, 0x7e, 0x97, 0xbe,
  0xb1, 0x62, 0xbf, 0xbe, 0xb2, 0x31, 0x54, 0x3e, 0x33, 0x8d, 0x9d, 0x3e,
  0xa9, 0x75, 0x88, 0x3e, 0xa1, 0x2f, 0xe1, 0xbc, 0x9d, 0xa2, 0x73, 0x3e,
  0xca, 0xfd, 0xff, 0xff, 0x04, 0x00, 0x00, 0x00, 0x04, 0x00, 0x00, 0x00,
  0xfd, 0xff, 0xff, 0xff, 0xda, 0xfd, 0xff, 0xff, 0x04, 0x00, 0x00, 0x00,
  0x08, 0x00, 0x00, 0x00, 0xff, 0xff, 0xff, 0xff, 0x20, 0x00, 0x00, 0x00,
  0xee, 0xfd, 0xff, 0xff, 0x04, 0x00, 0x00, 0x00, 0x04, 0x00, 0x00, 0x00,
  0x02, 0x00, 0x00, 0x00, 0xfe, 0xfd, 0xff, 0xff, 0x04, 0x00, 0x00, 0x00,
  0x40, 0x00, 0x00, 0x00, 0xf1, 0x3b, 0x88, 0x3d, 0xc6, 0x58, 0xe4, 0xbc,
  0x87, 0xbe, 0xbe, 0xbc, 0x7a, 0x5d, 0x95, 0x3d, 0xa1, 0x43, 0x73, 0x3d,
  0xe1, 0x6f, 0xa3, 0xbc, 0x28, 0xd2, 0xa2, 0xbc, 0xcc, 0x32, 0x29, 0x3d,
  0x73, 0xb4, 0x5f, 0x3c, 0xa3, 0xa5, 0x90, 0x3d, 0x20, 0xa5, 0x35, 0xbd,
  0x10, 0xa7, 0x27, 0xbd, 0xc8, 0x11, 0xad, 0x3d, 0x00, 0x00, 0x00, 0x00,
  0x2a, 0x7e, 0x1a, 0xbd, 0x4a, 0x35, 0x85, 0xbd, 0x4a, 0xfe, 0xff, 0xff,
  0x04, 0x00, 0x00, 0x00, 0x04, 0x00, 0x00, 0x00, 0xfe, 0x8b, 0x83, 0x3d,
  0x5a, 0xfe, 0xff, 0xff, 0x04, 0x00, 0x00, 0x00, 0x80, 0x01, 0x00, 0x00,
  0x39, 0x69, 0x2f, 0x3e, 0xe2, 0x59, 0x06, 0xbd, 0x90, 0x7d, 0x1f, 0xbe,
  0xd5, 0x0b, 0x75, 0xbe, 0xfb, 0x68, 0x41, 0xbe, 0x20, 0x36, 0xb8, 0x3d,
  0x14, 0x76, 0xaf, 0x3d, 0xce, 0xf4, 0x4d, 0xbd, 0xe7, 0x73, 0x12, 0x3d,
  0xcf, 0xa8, 0xd9, 0xbd, 0x38, 0xe8, 0x53, 0xbd, 0xe1, 0xfb, 0x7d, 0x3d,
  0x23, 0x96, 0x8f, 0x3e, 0xa9, 0x7e, 0x2d, 0x3e, 0xb4, 0x0c, 0xb0, 0xbd,
  0x91, 0xd1, 0xda, 0x3c, 0x87, 0x13, 0x89, 0xbd, 0x34, 0xe7, 0x10, 0x3d,
  0x79, 0x2c, 0x91, 0x3e, 0x49, 0x14, 0x5c, 0x3e, 0xa1, 0x17, 0x60, 0xbe,
  0x78, 0x18, 0x92, 0xbe, 0x26, 0x13, 0x48, 0x3e, 0x4a, 0x4a, 0xe4, 0x3d,
  0x93, 0x68, 0xa1, 0x3d, 0x25, 0xcb, 0x2e, 0x3e, 0x08, 0xec, 0xae, 0xbc,
  0x39, 0x88, 0x66, 0x3e, 0x4d, 0x31, 0x62, 0xbe, 0xe9, 0x25, 0x94, 0xbd,
  0x4b, 0x56, 0x65, 0xbe, 0x75, 0x67, 0x83, 0xbe, 0x75, 0x00, 0x22, 0xbb,
  0x42, 0xc5, 0x81, 0xbc, 0xfc, 0x9c, 0x8b, 0x3e, 0x42, 0xf0, 0xcd, 0xbc,
  0xad, 0x23, 0x06, 0xbd, 0x33, 0xc8, 0x70, 0x3e, 0x66, 0x63, 0x5d, 0xbb,
  0xeb, 0xd6, 0xe9, 0xbd, 0x1e, 0x5f, 0x2f, 0x3e, 0xb2, 0x2d, 0x97, 0xbe,
  0xcb, 0x17, 0x27, 0xbd, 0x16, 0x56, 0xf5, 0xbd, 0x16, 0xa6, 0x6a, 0x3e,
  0xa0, 0xec, 0x1b, 0xbe, 0xa4, 0x12, 0x3f, 0xbe, 0x35, 0x4d, 0x16, 0x3d,
  0x30, 0x38, 0x60, 0x3e, 0x07, 0xa4, 0xbd, 0xbc, 0x76, 0xa6, 0x4d, 0x3e,
  0xcb, 0x4a, 0x88, 0xbe, 0x23, 0x51, 0x9f, 0x3d, 0x74, 0x56, 0x01, 0x3e,
  0x8a, 0xfb, 0x09, 0x3e, 0xef, 0x30, 0x57, 0xbe, 0xcc, 0x31, 0x1b, 0x3e,
  0x7e, 0xb0, 0x3c, 0x3e, 0xd3, 0x92, 0x95, 0x3e, 0x4f, 0x7d, 0xd1, 0xbd,
  0x62, 0x7a, 0x32, 0x3e, 0x3f, 0x7c, 0xa8, 0xbc, 0x15, 0x01, 0xc0, 0x3d,
  0x5e, 0xa8, 0xb5, 0xbb, 0x06, 0x03, 0x44, 0xbe, 0x45, 0x91, 0x64, 0x3d,
  0x2f, 0x20, 0x8f, 0xbe, 0xf0, 0x42, 0xf3, 0xbd, 0x92, 0x00, 0x8e, 0x3e,
  0x65, 0xf2, 0xb2, 0x3d, 0x71, 0x0b, 0xbc, 0x3d, 0xbf, 0xb7, 0x5a, 0x3d,
  0x58, 0x4e, 0x05, 0x3e, 0xaf, 0x74, 0xe0, 0x3c, 0xe4, 0x91, 0x1d, 0xbe,
  0x39, 0x46, 0x37, 0xbe, 0x14, 0x23, 0x1c, 0xbc, 0xea, 0xb9, 0x05, 0x3e,
  0x3a, 0x46, 0x23, 0x3e, 0xb7, 0x7f, 0x66, 0xbd, 0x9b, 0x3a, 0xe7, 0xbd,
  0xdc, 0x97, 0x21, 0xbd, 0xa4, 0x5c, 0x90, 0x3d, 0x6b, 0x10, 0xb7, 0xbd,
  0xa2, 0xbe, 0x46, 0xbd, 0x62, 0xfd, 0x0e, 0x3e, 0xd3, 0x44, 0x13, 0x3e,
  0x6e, 0x2c, 0x17, 0xbe, 0xb2, 0x03, 0x40, 0xbe, 0x16, 0xa6, 0x27, 0x3e,
  0xb1, 0xe1, 0x20, 0x3e, 0xa7, 0xb2, 0x7e, 0xbe, 0xae, 0xd3, 0xac, 0x3d,
  0xcb, 0x9c, 0x45, 0xbe, 0xdb, 0x0c, 0x4b, 0x3d, 0xf3, 0x19, 0x34, 0xbd,
  0xe6, 0xff, 0xff, 0xff, 0x04, 0x00, 0x00, 0x00, 0x0c, 0x00, 0x00, 0x00,
  0xff, 0xff, 0xff, 0xff, 0x03, 0x00, 0x00, 0x00, 0x20, 0x00, 0x00, 0x00,
  0x00, 0x00, 0x06, 0x00, 0x08, 0x00, 0x04, 0x00, 0x06, 0x00, 0x00, 0x00,
  0x04, 0x00, 0x00, 0x00, 0x80, 0x00, 0x00, 0x00, 0xfd, 0xe3, 0x6d, 0xbd,
  0xf9, 0x74, 0x9f, 0x3c, 0xc2, 0xc6, 0x3e, 0xbd, 0xb9, 0x82, 0xc6, 0x3c,
  0xc0, 0x96, 0x1f, 0x3d, 0x73, 0xc6, 0x1e, 0xbd, 0x3d, 0x59, 0x9f, 0x3d,
  0xd2, 0x63, 0xa0, 0x3d, 0x90, 0xa5, 0xcb, 0xbc, 0x00, 0xb5, 0x7b, 0x3d,
  0x7d, 0xae, 0x9a, 0x3d, 0x65, 0x9c, 0x19, 0x3c, 0xa7, 0xbf, 0x09, 0xbd,
  0x22, 0x2f, 0xaa, 0x3d, 0x44, 0x96, 0x19, 0xbc, 0xce, 0x21, 0x4e, 0xbd,
  0x77, 0xa1, 0x8e, 0xbc, 0x7e, 0x0b, 0xa2, 0x3d, 0xee, 0x2b, 0xb1, 0xbc,
  0x87, 0xef, 0x9d, 0x3d, 0xd5, 0xc7, 0x50, 0xbd, 0x71, 0x4b, 0xd3, 0xba,
  0x83, 0x2d, 0x9b, 0x3d, 0xc3, 0xf4, 0x13, 0xbd, 0x7d, 0x10, 0x99, 0x3d,
  0x0b, 0xd9, 0x3a, 0xbd, 0x97, 0xf3, 0x89, 0x3d, 0xb8, 0xb2, 0x44, 0xbd,
  0x99, 0x93, 0x32, 0xbd, 0x04, 0xc0, 0x9f, 0x3d, 0x12, 0x7a, 0xdd, 0x3c,
  0xaa, 0x75, 0xf7, 0x3c, 0x40, 0xf5, 0xff, 0xff, 0x44, 0xf5, 0xff, 0xff,
  0x0f, 0x00, 0x00, 0x00, 0x4d, 0x4c, 0x49, 0x52, 0x20, 0x43, 0x6f, 0x6e,
  0x76, 0x65, 0x72, 0x74, 0x65, 0x64, 0x2e, 0x00, 0x01, 0x00, 0x00, 0x00,
  0x14, 0x00, 0x00, 0x00, 0x00, 0x00, 0x0e, 0x00, 0x18, 0x00, 0x14, 0x00,
  0x10, 0x00, 0x0c, 0x00, 0x08, 0x00, 0x04, 0x00, 0x0e, 0x00, 0x00, 0x00,
  0x14, 0x00, 0x00, 0x00, 0x1c, 0x00, 0x00, 0x00, 0x1c, 0x02, 0x00, 0x00,
  0x20, 0x02, 0x00, 0x00, 0x24, 0x02, 0x00, 0x00, 0x04, 0x00, 0x00, 0x00,
  0x6d, 0x61, 0x69, 0x6e, 0x00, 0x00, 0x00, 0x00, 0x08, 0x00, 0x00, 0x00,
  0xd4, 0x01, 0x00, 0x00, 0x70, 0x01, 0x00, 0x00, 0x38, 0x01, 0x00, 0x00,
  0xfc, 0x00, 0x00, 0x00, 0xa8, 0x00, 0x00, 0x00, 0x80, 0x00, 0x00, 0x00,
  0x3c, 0x00, 0x00, 0x00, 0x04, 0x00, 0x00, 0x00, 0xba, 0xfe, 0xff, 0xff,
  0x14, 0x00, 0x00, 0x00, 0x00, 0x00, 0x00, 0x08, 0x10, 0x00, 0x00, 0x00,
  0x14, 0x00, 0x00, 0x00, 0x04, 0x00, 0x00, 0x00, 0xd4, 0xf5, 0xff, 0xff,
  0x01, 0x00, 0x00, 0x00, 0x12, 0x00, 0x00, 0x00, 0x03, 0x00, 0x00, 0x00,
  0x11, 0x00, 0x00, 0x00, 0x0a, 0x00, 0x00, 0x00, 0x04, 0x00, 0x00, 0x00,
  0xee, 0xfe, 0xff, 0xff, 0x1c, 0x00, 0x00, 0x00, 0x00, 0x00, 0x00, 0x08,
  0x1c, 0x00, 0x00, 0x00, 0x20, 0x00, 0x00, 0x00, 0x04, 0x00, 0x00, 0x00,
  0x00, 0x00, 0x06, 0x00, 0x08, 0x00, 0x07, 0x00, 0x06, 0x00, 0x00, 0x00,
  0x00, 0x00, 0x00, 0x01, 0x01, 0x00, 0x00, 0x00, 0x11, 0x00, 0x00, 0x00,
  0x03, 0x00, 0x00, 0x00, 0x10, 0x00, 0x00, 0x00, 0x09, 0x00, 0x00, 0x00,
  0x05, 0x00, 0x00, 0x00, 0x5e, 0xff, 0xff, 0xff, 0x0c, 0x00, 0x00, 0x00,
  0x10, 0x00, 0x00, 0x00, 0x02, 0x00, 0x00, 0x00, 0x01, 0x00, 0x00, 0x00,
  0x10, 0x00, 0x00, 0x00, 0x02, 0x00, 0x00, 0x00, 0x0f, 0x00, 0x00, 0x00,
  0x07, 0x00, 0x00, 0x00, 0x52, 0xff, 0xff, 0xff, 0x24, 0x00, 0x00, 0x00,
  0x00, 0x00, 0x00, 0x05, 0x34, 0x00, 0x00, 0x00, 0x38, 0x00, 0x00, 0x00,
  0x03, 0x00, 0x00, 0x00, 0x00, 0x00, 0x0e, 0x00, 0x18, 0x00, 0x17, 0x00,
  0x10, 0x00, 0x0c, 0x00, 0x08, 0x00, 0x04, 0x00, 0x0e, 0x00, 0x00, 0x00,
  0x02, 0x00, 0x00, 0x00, 0x01, 0x00, 0x00, 0x00, 0x02, 0x00, 0x00, 0x00,
  0x01, 0x00, 0x00, 0x00, 0x00, 0x00, 0x00, 0x01, 0x01, 0x00, 0x00, 0x00,
  0x0f, 0x00, 0x00, 0x00, 0x01, 0x00, 0x00, 0x00, 0x0e, 0x00, 0x00, 0x00,
  0x42, 0xff, 0xff, 0xff, 0x10, 0x00, 0x00, 0x00, 0x00, 0x00, 0x00, 0x34,
  0x0c, 0x00, 0x00, 0x00, 0x10, 0x00, 0x00, 0x00, 0xb8, 0xf6, 0xff, 0xff,
  0x01, 0x00, 0x00, 0x00, 0x0e, 0x00, 0x00, 0x00, 0x02, 0x00, 0x00, 0x00,
  0x0d, 0x00, 0x00, 0x00, 0x06, 0x00, 0x00, 0x00, 0x00, 0x00, 0x0a, 0x00,
  0x10, 0x00, 0x0c, 0x00, 0x08, 0x00, 0x04, 0x00, 0x0a, 0x00, 0x00, 0x00,
  0x0c, 0x00, 0x00, 0x00, 0x10, 0x00, 0x00, 0x00, 0x02, 0x00, 0x00, 0x00,
  0x01, 0x00, 0x00, 0x00, 0x0d, 0x00, 0x00, 0x00, 0x02, 0x00, 0x00, 0x00,
  0x0c, 0x00, 0x00, 0x00, 0x02, 0x00, 0x00, 0x00, 0x00, 0x00, 0x0e, 0x00,
  0x18, 0x00, 0x14, 0x00, 0x10, 0x00, 0x0c, 0x00, 0x0b, 0x00, 0x04, 0x00,
  0x0e, 0x00, 0x00, 0x00, 0x20, 0x00, 0x00, 0x00, 0x00, 0x00, 0x00, 0x01,
  0x2c, 0x00, 0x00, 0x00, 0x30, 0x00, 0x00, 0x00, 0x01, 0x00, 0x00, 0x00,
  0x0c, 0x00, 0x14, 0x00, 0x13, 0x00, 0x0c, 0x00, 0x08, 0x00, 0x07, 0x00,
  0x0c, 0x00, 0x00, 0x00, 0x00, 0x00, 0x00, 0x01, 0x01, 0x00, 0x00, 0x00,
  0x01, 0x00, 0x00, 0x00, 0x00, 0x00, 0x00, 0x01, 0x01, 0x00, 0x00, 0x00,
  0x0c, 0x00, 0x00, 0x00, 0x03, 0x00, 0x00, 0x00, 0x0b, 0x00, 0x00, 0x00,
  0x03, 0x00, 0x00, 0x00, 0x01, 0x00, 0x00, 0x00, 0x00, 0x00, 0x0e, 0x00,
  0x14, 0x00, 0x00, 0x00, 0x10, 0x00, 0x0c, 0x00, 0x0b, 0x00, 0x04, 0x00,
  0x0e, 0x00, 0x00, 0x00, 0x10, 0x00, 0x00, 0x00, 0x00, 0x00, 0x00, 0x34,
  0x0c, 0x00, 0x00, 0x00, 0x10, 0x00, 0x00, 0x00, 0x84, 0xf7, 0xff, 0xff,
  0x01, 0x00, 0x00, 0x00, 0x0b, 0x00, 0x00, 0x00, 0x02, 0x00, 0x00, 0x00,
  0x00, 0x00, 0x00, 0x00, 0x08, 0x00, 0x00, 0x00, 0x01, 0x00, 0x00, 0x00,
  0x12, 0x00, 0x00, 0x00, 0x01, 0x00, 0x00, 0x00, 0x00, 0x00, 0x00, 0x00,
  0x13, 0x00, 0x00, 0x00, 0x24, 0x08, 0x00, 0x00, 0xb0, 0x07, 0x00, 0x00,
  0x40, 0x07, 0x00, 0x00, 0xd0, 0x06, 0x00, 0x00, 0x78, 0x06, 0x00, 0x00,
  0x20, 0x06, 0x00, 0x00, 0xc8, 0x05, 0x00, 0x00, 0x78, 0x05, 0x00, 0x00,
  0x20, 0x05, 0x00, 0x00, 0xd4, 0x04, 0x00, 0x00, 0x88, 0x04, 0x00, 0x00,
  0x10, 0x04, 0x00, 0x00, 0x18, 0x03, 0x00, 0x00, 0x44, 0x02, 0x00, 0x00,
  0xcc, 0x01, 0x00, 0x00, 0x54, 0x01, 0x00, 0x00, 0xf4, 0x00, 0x00, 0x00,
  0x60, 0x00, 0x00, 0x00, 0x04, 0x00, 0x00, 0x00, 0x3e, 0xf8, 0xff, 0xff,
  0x00, 0x00, 0x00, 0x01, 0x14, 0x00, 0x00, 0x00, 0x1c, 0x00, 0x00, 0x00,
  0x1c, 0x00, 0x00, 0x00, 0x13, 0x00, 0x00, 0x00, 0x34, 0x00, 0x00, 0x00,
  0x02, 0x00, 0x00, 0x00, 0xff, 0xff, 0xff, 0xff, 0x01, 0x00, 0x00, 0x00,
  0x24, 0xf8, 0xff, 0xff, 0x19, 0x00, 0x00, 0x00, 0x53, 0x74, 0x61, 0x74,
  0x65, 0x66, 0x75, 0x6c, 0x50, 0x61, 0x72, 0x74, 0x69, 0x74, 0x69, 0x6f,
  0x6e, 0x65, 0x64, 0x43, 0x61, 0x6c, 0x6c, 0x3a, 0x30, 0x00, 0x00, 0x00,
  0x02, 0x00, 0x00, 0x00, 0x01, 0x00, 0x00, 0x00, 0x01, 0x00, 0x00, 0x00,
  0x96, 0xf8, 0xff, 0xff, 0x00, 0x00, 0x00, 0x01, 0x14, 0x00, 0x00, 0x00,
  0x1c, 0x00, 0x00, 0x00, 0x1c, 0x00, 0x00, 0x00, 0x12, 0x00, 0x00, 0x00,
  0x6c, 0x00, 0x00, 0x00, 0x02, 0x00, 0x00, 0x00, 0xff, 0xff, 0xff, 0xff,
  0x10, 0x00, 0x00, 0x00, 0x7c, 0xf8, 0xff, 0xff, 0x52, 0x00, 0x00, 0x00,
  0x73, 0x65, 0x71, 0x75, 0x65, 0x6e, 0x74, 0x69, 0x61, 0x6c, 0x5f, 0x31,
  0x2f, 0x64, 0x65, 0x6e, 0x73, 0x65, 0x5f, 0x32, 0x2f, 0x4d, 0x61, 0x74,
  0x4d, 0x75, 0x6c, 0x3b, 0x73, 0x65, 0x71, 0x75, 0x65, 0x6e, 0x74, 0x69,
  0x61, 0x6c, 0x5f, 0x31, 0x2f, 0x64, 0x65, 0x6e, 0x73, 0x65, 0x5f, 0x32,
  0x2f, 0x52, 0x65, 0x6c, 0x75, 0x3b, 0x73, 0x65, 0x71, 0x75, 0x65, 0x6e,
  0x74, 0x69, 0x61, 0x6c, 0x5f, 0x31, 0x2f, 0x64, 0x65, 0x6e, 0x73, 0x65,
  0x5f, 0x32, 0x2f, 0x42, 0x69, 0x61, 0x73, 0x41, 0x64, 0x64, 0x00, 0x00,
  0x02, 0x00, 0x00, 0x00, 0x01, 0x00, 0x00, 0x00, 0x10, 0x00, 0x00, 0x00,
  0x26, 0xf9, 0xff, 0xff, 0x00, 0x00, 0x00, 0x01, 0x14, 0x00, 0x00, 0x00,
  0x1c, 0x00, 0x00, 0x00, 0x1c, 0x00, 0x00, 0x00, 0x11, 0x00, 0x00, 0x00,
  0x38, 0x00, 0x00, 0x00, 0x02, 0x00, 0x00, 0x00, 0xff, 0xff, 0xff, 0xff,
  0x20, 0x00, 0x00, 0x00, 0x0c, 0xf9, 0xff, 0xff, 0x1e, 0x00, 0x00, 0x00,
  0x73, 0x65, 0x71, 0x75, 0x65, 0x6e, 0x74, 0x69, 0x61, 0x6c, 0x5f, 0x31,
  0x2f, 0x66, 0x6c, 0x61, 0x74, 0x74, 0x65, 0x6e, 0x5f, 0x31, 0x2f, 0x52,
  0x65, 0x73, 0x68, 0x61, 0x70, 0x65, 0x00, 0x00, 0x02, 0x00, 0x00, 0x00,
  0x01, 0x00, 0x00, 0x00, 0x20, 0x00, 0x00, 0x00, 0x82, 0xf9, 0xff, 0xff,
  0x00, 0x00, 0x00, 0x01, 0x14, 0x00, 0x00, 0x00, 0x24, 0x00, 0x00, 0x00,
  0x24, 0x00, 0x00, 0x00, 0x10, 0x00, 0x00, 0x00, 0x48, 0x00, 0x00, 0x00,
  0x04, 0x00, 0x00, 0x00, 0xff, 0xff, 0xff, 0xff, 0x01, 0x00, 0x00, 0x00,
  0x01, 0x00, 0x00, 0x00, 0x20, 0x00, 0x00, 0x00, 0x70, 0xf9, 0xff, 0xff,
  0x24, 0x00, 0x00, 0x00, 0x73, 0x65, 0x71, 0x75, 0x65, 0x6e, 0x74, 0x69,
  0x61, 0x6c, 0x5f, 0x31, 0x2f, 0x6d, 0x61, 0x78, 0x5f, 0x70, 0x6f, 0x6f,
  0x6c, 0x69, 0x6e, 0x67, 0x31, 0x64, 0x5f, 0x31, 0x2f, 0x4d, 0x61, 0x78,
  0x50, 0x6f, 0x6f, 0x6c, 0x00, 0x00, 0x00, 0x00, 0x04, 0x00, 0x00, 0x00,
  0x01, 0x00, 0x00, 0x00, 0x01, 0x00, 0x00, 0x00, 0x01, 0x00, 0x00, 0x00,
  0x20, 0x00, 0x00, 0x00, 0xf6, 0xf9, 0xff, 0xff, 0x00, 0x00, 0x00, 0x01,
  0x14, 0x00, 0x00, 0x00, 0x24, 0x00, 0x00, 0x00, 0x24, 0x00, 0x00, 0x00,
  0x0f, 0x00, 0x00, 0x00, 0x48, 0x00, 0x00, 0x00, 0x04, 0x00, 0x00, 0x00,
  0xff, 0xff, 0xff, 0xff, 0x03, 0x00, 0x00, 0x00, 0x01, 0x00, 0x00, 0x00,
  0x20, 0x00, 0x00, 0x00, 0xe4, 0xf9, 0xff, 0xff, 0x27, 0x00, 0x00, 0x00,
  0x73, 0x65, 0x71, 0x75, 0x65, 0x6e, 0x74, 0x69, 0x61, 0x6c, 0x5f, 0x31,
  0x2f, 0x6d, 0x61, 0x78, 0x5f, 0x70, 0x6f, 0x6f, 0x6c, 0x69, 0x6e, 0x67,
  0x31, 0x64, 0x5f, 0x31, 0x2f, 0x45, 0x78, 0x70, 0x61, 0x6e, 0x64, 0x44,
  0x69, 0x6d, 0x73, 0x00, 0x04, 0x00, 0x00, 0x00, 0x01, 0x00, 0x00, 0x00,
  0x03, 0x00, 0x00, 0x00, 0x01, 0x00, 0x00, 0x00, 0x20, 0x00, 0x00, 0x00,
  0x6a, 0xfa, 0xff, 0xff, 0x00, 0x00, 0x00, 0x01, 0x14, 0x00, 0x00, 0x00,
  0x20, 0x00, 0x00, 0x00, 0x20, 0x00, 0x00, 0x00, 0x0e, 0x00, 0x00, 0x00,
  0xa8, 0x00, 0x00, 0x00, 0x03, 0x00, 0x00, 0x00, 0xff, 0xff, 0xff, 0xff,
  0x03, 0x00, 0x00, 0x00, 0x20, 0x00, 0x00, 0x00, 0x54, 0xfa, 0xff, 0xff,
  0x8a, 0x00, 0x00, 0x00, 0x73, 0x65, 0x71, 0x75, 0x65, 0x6e, 0x74, 0x69,
  0x61, 0x6c, 0x5f, 0x31, 0x2f, 0x63, 0x6f, 0x6e, 0x76, 0x31, 0x64, 0x5f,
  0x31, 0x2f, 0x52, 0x65, 0x6c, 0x75, 0x3b, 0x73, 0x65, 0x71, 0x75, 0x65,
  0x6e, 0x74, 0x69, 0x61, 0x6c, 0x5f, 0x31, 0x2f, 0x63, 0x6f, 0x6e, 0x76,
  0x31, 0x64, 0x5f, 0x31, 0x2f, 0x42, 0x69, 0x61, 0x73, 0x41, 0x64, 0x64,
  0x3b, 0x73, 0x65, 0x71, 0x75, 0x65, 0x6e, 0x74, 0x69, 0x61, 0x6c, 0x5f,
  0x31, 0x2f, 0x63, 0x6f, 0x6e, 0x76, 0x31, 0x64, 0x5f, 0x31, 0x2f, 0x43,
  0x6f, 0x6e, 0x76, 0x31, 0x44, 0x2f, 0x53, 0x71, 0x75, 0x65, 0x65, 0x7a,
  0x65, 0x3b, 0x73, 0x65, 0x71, 0x75, 0x65, 0x6e, 0x74, 0x69, 0x61, 0x6c,
  0x5f, 0x31, 0x2f, 0x63, 0x6f, 0x6e, 0x76, 0x31, 0x64, 0x5f, 0x31, 0x2f,
  0x42, 0x69, 0x61, 0x73, 0x41, 0x64, 0x64, 0x2f, 0x52, 0x65, 0x61, 0x64,
  0x56, 0x61, 0x72, 0x69, 0x61, 0x62, 0x6c, 0x65, 0x4f, 0x70, 0x00, 0x00,
  0x03, 0x00, 0x00, 0x00, 0x01, 0x00, 0x00, 0x00, 0x03, 0x00, 0x00, 0x00,
  0x20, 0x00, 0x00, 0x00, 0x3a, 0xfb, 0xff, 0xff, 0x00, 0x00, 0x00, 0x01,
  0x14, 0x00, 0x00, 0x00, 0x24, 0x00, 0x00, 0x00, 0x24, 0x00, 0x00, 0x00,
  0x0d, 0x00, 0x00, 0x00, 0xc8, 0x00, 0x00, 0x00, 0x04, 0x00, 0x00, 0x00,
  0xff, 0xff, 0xff, 0xff, 0x01, 0x00, 0x00, 0x00, 0x03, 0x00, 0x00, 0x00,
  0x20, 0x00, 0x00, 0x00, 0x28, 0xfb, 0xff, 0xff, 0xa7, 0x00, 0x00, 0x00,
  0x73, 0x65, 0x71, 0x75, 0x65, 0x6e, 0x74, 0x69, 0x61, 0x6c, 0x5f, 0x31,
  0x2f, 0x63, 0x6f, 0x6e, 0x76, 0x31, 0x64, 0x5f, 0x31, 0x2f, 0x52, 0x65,
  0x6c, 0x75, 0x3b, 0x73, 0x65, 0x71, 0x75, 0x65, 0x6e, 0x74, 0x69, 0x61,
  0x6c, 0x5f, 0x31, 0x2f, 0x63, 0x6f, 0x6e, 0x76, 0x31, 0x64, 0x5f, 0x31,
  0x2f, 0x42, 0x69, 0x61, 0x73, 0x41, 0x64, 0x64, 0x3b, 0x73, 0x65, 0x71,
  0x75, 0x65, 0x6e, 0x74, 0x69, 0x61, 0x6c, 0x5f, 0x31, 0x2f, 0x63, 0x6f,
  0x6e, 0x76, 0x31, 0x64, 0x5f, 0x31, 0x2f, 0x43, 0x6f, 0x6e, 0x76, 0x31,
  0x44, 0x2f, 0x53, 0x71, 0x75, 0x65, 0x65, 0x7a, 0x65, 0x3b, 0x73, 0x65,
  0x71, 0x75, 0x65, 0x6e, 0x74, 0x69, 0x61, 0x6c, 0x5f, 0x31, 0x2f, 0x63,
  0x6f, 0x6e, 0x76, 0x31, 0x64, 0x5f, 0x31, 0x2f, 0x42, 0x69, 0x61, 0x73,
  0x41, 0x64, 0x64, 0x2f, 0x52, 0x65, 0x61, 0x64, 0x56, 0x61, 0x72, 0x69,
  0x61, 0x62, 0x6c, 0x65, 0x4f, 0x70, 0x3b, 0x73, 0x65, 0x71, 0x75, 0x65,
  0x6e, 0x74, 0x69, 0x61, 0x6c, 0x5f, 0x31, 0x2f, 0x63, 0x6f, 0x6e, 0x76,
  0x31, 0x64, 0x5f, 0x31, 0x2f, 0x43, 0x6f, 0x6e, 0x76, 0x31, 0x44, 0x00,
  0x04, 0x00, 0x00, 0x00, 0x01, 0x00, 0x00, 0x00, 0x01, 0x00, 0x00, 0x00,
  0x03, 0x00, 0x00, 0x00, 0x20, 0x00, 0x00, 0x00, 0x2e, 0xfc, 0xff, 0xff,
  0x00, 0x00, 0x00, 0x01, 0x14, 0x00, 0x00, 0x00, 0x24, 0x00, 0x00, 0x00,
  0x24, 0x00, 0x00, 0x00, 0x0c, 0x00, 0x00, 0x00, 0x48, 0x00, 0x00, 0x00,
  0x04, 0x00, 0x00, 0x00, 0xff, 0xff, 0xff, 0xff, 0x01, 0x00, 0x00, 0x00,
  0x05, 0x00, 0x00, 0x00, 0x01, 0x00, 0x00, 0x00, 0x1c, 0xfc, 0xff, 0xff,
  0x27, 0x00, 0x00, 0x00, 0x73, 0x65, 0x71, 0x75, 0x65, 0x6e, 0x74, 0x69,
  0x61, 0x6c, 0x5f, 0x31, 0x2f, 0x63, 0x6f, 0x6e, 0x76, 0x31, 0x64, 0x5f,
  0x31, 0x2f, 0x43, 0x6f, 0x6e, 0x76, 0x31, 0x44, 0x2f, 0x45, 0x78, 0x70,
  0x61, 0x6e, 0x64, 0x44, 0x69, 0x6d, 0x73, 0x00, 0x04, 0x00, 0x00, 0x00,
  0x01, 0x00, 0x00, 0x00, 0x01, 0x00, 0x00, 0x00, 0x05, 0x00, 0x00, 0x00,
  0x01, 0x00, 0x00, 0x00, 0x12, 0xfd, 0xff, 0xff, 0x00, 0x00, 0x00, 0x01,
  0x10, 0x00, 0x00, 0x00, 0x10, 0x00, 0x00, 0x00, 0x0b, 0x00, 0x00, 0x00,
  0x28, 0x00, 0x00, 0x00, 0x78, 0xfc, 0xff, 0xff, 0x1b, 0x00, 0x00, 0x00,
  0x73, 0x65, 0x71, 0x75, 0x65, 0x6e, 0x74, 0x69, 0x61, 0x6c, 0x5f, 0x31,
  0x2f, 0x64, 0x65, 0x6e, 0x73, 0x65, 0x5f, 0x33, 0x2f, 0x4d, 0x61, 0x74,
  0x4d, 0x75, 0x6c, 0x00, 0x02, 0x00, 0x00, 0x00, 0x01, 0x00, 0x00, 0x00,
  0x10, 0x00, 0x00, 0x00, 0x5a, 0xfd, 0xff, 0xff, 0x00, 0x00, 0x00, 0x01,
  0x10, 0x00, 0x00, 0x00, 0x10, 0x00, 0x00, 0x00, 0x0a, 0x00, 0x00, 0x00,
  0x28, 0x00, 0x00, 0x00, 0xc0, 0xfc, 0xff, 0xff, 0x1b, 0x00, 0x00, 0x00,
  0x73, 0x65, 0x71, 0x75, 0x65, 0x6e, 0x74, 0x69, 0x61, 0x6c, 0x5f, 0x31,
  0x2f, 0x64, 0x65, 0x6e, 0x73, 0x65, 0x5f, 0x32, 0x2f, 0x4d, 0x61, 0x74,
  0x4d, 0x75, 0x6c, 0x00, 0x02, 0x00, 0x00, 0x00, 0x10, 0x00, 0x00, 0x00,
  0x20, 0x00, 0x00, 0x00, 0x0e, 0xfe, 0xff, 0xff, 0x00, 0x00, 0x00, 0x01,
  0x14, 0x00, 0x00, 0x00, 0x14, 0x00, 0x00, 0x00, 0x09, 0x00, 0x00, 0x00,
  0x00, 0x00, 0x00, 0x02, 0x38, 0x00, 0x00, 0x00, 0x0c, 0xfd, 0xff, 0xff,
  0x2b, 0x00, 0x00, 0x00, 0x73, 0x65, 0x71, 0x75, 0x65, 0x6e, 0x74, 0x69,
  0x61, 0x6c, 0x5f, 0x31, 0x2f, 0x63, 0x6f, 0x6e, 0x76, 0x31, 0x64, 0x5f,
  0x31, 0x2f, 0x43, 0x6f, 0x6e, 0x76, 0x31, 0x44, 0x2f, 0x45, 0x78, 0x70,
  0x61, 0x6e, 0x64, 0x44, 0x69, 0x6d, 0x73, 0x2f, 0x64, 0x69, 0x6d, 0x00,
  0x00, 0x00, 0x00, 0x00, 0x62, 0xfe, 0xff, 0xff, 0x00, 0x00, 0x00, 0x01,
  0x14, 0x00, 0x00, 0x00, 0x14, 0x00, 0x00, 0x00, 0x08, 0x00, 0x00, 0x00,
  0x00, 0x00, 0x00, 0x02, 0x2c, 0x00, 0x00, 0x00, 0x60, 0xfd, 0xff, 0xff,
  0x1c, 0x00, 0x00, 0x00, 0x73, 0x65, 0x71, 0x75, 0x65, 0x6e, 0x74, 0x69,
  0x61, 0x6c, 0x5f, 0x31, 0x2f, 0x66, 0x6c, 0x61, 0x74, 0x74, 0x65, 0x6e,
  0x5f, 0x31, 0x2f, 0x43, 0x6f, 0x6e, 0x73, 0x74, 0x00, 0x00, 0x00, 0x00,
  0x01, 0x00, 0x00, 0x00, 0x02, 0x00, 0x00, 0x00, 0xae, 0xfe, 0xff, 0xff,
  0x00, 0x00, 0x00, 0x01, 0x14, 0x00, 0x00, 0x00, 0x14, 0x00, 0x00, 0x00,
  0x07, 0x00, 0x00, 0x00, 0x00, 0x00, 0x00, 0x02, 0x38, 0x00, 0x00, 0x00,
  0xac, 0xfd, 0xff, 0xff, 0x2b, 0x00, 0x00, 0x00, 0x73, 0x65, 0x71, 0x75,
  0x65, 0x6e, 0x74, 0x69, 0x61, 0x6c, 0x5f, 0x31, 0x2f, 0x6d, 0x61, 0x78,
  0x5f, 0x70, 0x6f, 0x6f, 0x6c, 0x69, 0x6e, 0x67, 0x31, 0x64, 0x5f, 0x31,
  0x2f, 0x45, 0x78, 0x70, 0x61, 0x6e, 0x64, 0x44, 0x69, 0x6d, 0x73, 0x2f,
  0x64, 0x69, 0x6d, 0x00, 0x00, 0x00, 0x00, 0x00, 0x96, 0xfe, 0xff, 0xff,
  0x00, 0x00, 0x00, 0x01, 0x10, 0x00, 0x00, 0x00, 0x10, 0x00, 0x00, 0x00,
  0x06, 0x00, 0x00, 0x00, 0x38, 0x00, 0x00, 0x00, 0xfc, 0xfd, 0xff, 0xff,
  0x2b, 0x00, 0x00, 0x00, 0x73, 0x65, 0x71, 0x75, 0x65, 0x6e, 0x74, 0x69,
  0x61, 0x6c, 0x5f, 0x31, 0x2f, 0x64, 0x65, 0x6e, 0x73, 0x65, 0x5f, 0x32,
  0x2f, 0x42, 0x69, 0x61, 0x73, 0x41, 0x64, 0x64, 0x2f, 0x52, 0x65, 0x61,
  0x64, 0x56, 0x61, 0x72, 0x69, 0x61, 0x62, 0x6c, 0x65, 0x4f, 0x70, 0x00,
  0x01, 0x00, 0x00, 0x00, 0x10, 0x00, 0x00, 0x00, 0xea, 0xfe, 0xff, 0xff,
  0x00, 0x00, 0x00, 0x01, 0x10, 0x00, 0x00, 0x00, 0x10, 0x00, 0x00, 0x00,
  0x05, 0x00, 0x00, 0x00, 0x38, 0x00, 0x00, 0x00, 0x50, 0xfe, 0xff, 0xff,
  0x2b, 0x00, 0x00, 0x00, 0x73, 0x65, 0x71, 0x75, 0x65, 0x6e, 0x74, 0x69,
  0x61, 0x6c, 0x5f, 0x31, 0x2f, 0x64, 0x65, 0x6e, 0x73, 0x65, 0x5f, 0x33,
  0x2f, 0x42, 0x69, 0x61, 0x73, 0x41, 0x64, 0x64, 0x2f, 0x52, 0x65, 0x61,
  0x64, 0x56, 0x61, 0x72, 0x69, 0x61, 0x62, 0x6c, 0x65, 0x4f, 0x70, 0x00,
  0x01, 0x00, 0x00, 0x00, 0x01, 0x00, 0x00, 0x00, 0x3e, 0xff, 0xff, 0xff,
  0x00, 0x00, 0x00, 0x01, 0x10, 0x00, 0x00, 0x00, 0x10, 0x00, 0x00, 0x00,
  0x04, 0x00, 0x00, 0x00, 0x2c, 0x00, 0x00, 0x00, 0xa4, 0xfe, 0xff, 0xff,
  0x1c, 0x00, 0x00, 0x00, 0x73, 0x65, 0x71, 0x75, 0x65, 0x6e, 0x74, 0x69,
  0x61, 0x6c, 0x5f, 0x31, 0x2f, 0x63, 0x6f, 0x6e, 0x76, 0x31, 0x64, 0x5f,
  0x31, 0x2f, 0x43, 0x6f, 0x6e, 0x76, 0x31, 0x44, 0x00, 0x00, 0x00, 0x00,
  0x04, 0x00, 0x00, 0x00, 0x20, 0x00, 0x00, 0x00, 0x01, 0x00, 0x00, 0x00,
  0x03, 0x00, 0x00, 0x00, 0x01, 0x00, 0x00, 0x00, 0x00, 0x00, 0x16, 0x00,
  0x1c, 0x00, 0x18, 0x00, 0x17, 0x00, 0x10, 0x00, 0x0c, 0x00, 0x08, 0x00,
  0x00, 0x00, 0x00, 0x00, 0x00, 0x00, 0x07, 0x00, 0x16, 0x00, 0x00, 0x00,
  0x00, 0x00, 0x00, 0x01, 0x14, 0x00, 0x00, 0x00, 0x14, 0x00, 0x00, 0x00,
  0x03, 0x00, 0x00, 0x00, 0x00, 0x00, 0x00, 0x02, 0x34, 0x00, 0x00, 0x00,
  0x14, 0xff, 0xff, 0xff, 0x24, 0x00, 0x00, 0x00, 0x73, 0x65, 0x71, 0x75,
  0x65, 0x6e, 0x74, 0x69, 0x61, 0x6c, 0x5f, 0x31, 0x2f, 0x63, 0x6f, 0x6e,
  0x76, 0x31, 0x64, 0x5f, 0x31, 0x2f, 0x43, 0x6f, 0x6e, 0x76, 0x31, 0x44,
  0x2f, 0x53, 0x71, 0x75, 0x65, 0x65, 0x7a, 0x65, 0x00, 0x00, 0x00, 0x00,
  0x01, 0x00, 0x00, 0x00, 0x03, 0x00, 0x00, 0x00, 0x00, 0x00, 0x16, 0x00,
  0x18, 0x00, 0x14, 0x00, 0x00, 0x00, 0x10, 0x00, 0x0c, 0x00, 0x08, 0x00,
  0x00, 0x00, 0x00, 0x00, 0x00, 0x00, 0x07, 0x00, 0x16, 0x00, 0x00, 0x00,
  0x00, 0x00, 0x00, 0x01, 0x10, 0x00, 0x00, 0x00, 0x10, 0x00, 0x00, 0x00,
  0x02, 0x00, 0x00, 0x00, 0x3c, 0x00, 0x00, 0x00, 0x7c, 0xff, 0xff, 0xff,
  0x2c, 0x00, 0x00, 0x00, 0x73, 0x65, 0x71, 0x75, 0x65, 0x6e, 0x74, 0x69,
  0x61, 0x6c, 0x5f, 0x31, 0x2f, 0x63, 0x6f, 0x6e, 0x76, 0x31, 0x64, 0x5f,
  0x31, 0x2f, 0x42, 0x69, 0x61, 0x73, 0x41, 0x64, 0x64, 0x2f, 0x52, 0x65,
  0x61, 0x64, 0x56, 0x61, 0x72, 0x69, 0x61, 0x62, 0x6c, 0x65, 0x4f, 0x70,
  0x00, 0x00, 0x00, 0x00, 0x01, 0x00, 0x00, 0x00, 0x20, 0x00, 0x00, 0x00,
  0x00, 0x00, 0x16, 0x00, 0x1c, 0x00, 0x18, 0x00, 0x00, 0x00, 0x14, 0x00,
  0x10, 0x00, 0x0c, 0x00, 0x00, 0x00, 0x00, 0x00, 0x08, 0x00, 0x07, 0x00,
  0x16, 0x00, 0x00, 0x00, 0x00, 0x00, 0x00, 0x01, 0x14, 0x00, 0x00, 0x00,
  0x24, 0x00, 0x00, 0x00, 0x24, 0x00, 0x00, 0x00, 0x01, 0x00, 0x00, 0x00,
  0x44, 0x00, 0x00, 0x00, 0x03, 0x00, 0x00, 0x00, 0xff, 0xff, 0xff, 0xff,
  0x05, 0x00, 0x00, 0x00, 0x01, 0x00, 0x00, 0x00, 0x04, 0x00, 0x04, 0x00,
  0x04, 0x00, 0x00, 0x00, 0x20, 0x00, 0x00, 0x00, 0x73, 0x65, 0x72, 0x76,
  0x69, 0x6e, 0x67, 0x5f, 0x64, 0x65, 0x66, 0x61, 0x75, 0x6c, 0x74, 0x5f,
  0x63, 0x6f, 0x6e, 0x76, 0x31, 0x64, 0x5f, 0x31, 0x5f, 0x69, 0x6e, 0x70,
  0x75, 0x74, 0x3a, 0x30, 0x00, 0x00, 0x00, 0x00, 0x03, 0x00, 0x00, 0x00,
  0x01, 0x00, 0x00, 0x00, 0x05, 0x00, 0x00, 0x00, 0x01, 0x00, 0x00, 0x00,
  0x05, 0x00, 0x00, 0x00, 0x50, 0x00, 0x00, 0x00, 0x34, 0x00, 0x00, 0x00,
  0x24, 0x00, 0x00, 0x00, 0x14, 0x00, 0x00, 0x00, 0x04, 0x00, 0x00, 0x00,
  0xd0, 0xff, 0xff, 0xff, 0x09, 0x00, 0x00, 0x00, 0x00, 0x00, 0x00, 0x09,
  0xdc, 0xff, 0xff, 0xff, 0x11, 0x00, 0x00, 0x00, 0x00, 0x00, 0x00, 0x11,
  0xe8, 0xff, 0xff, 0xff, 0x16, 0x00, 0x00, 0x00, 0x00, 0x00, 0x00, 0x16,
  0xf4, 0xff, 0xff, 0xff, 0x03, 0x00, 0x00, 0x00, 0x00, 0x00, 0x00, 0x03,
  0x0c, 0x00, 0x0c, 0x00, 0x0b, 0x00, 0x00, 0x00, 0x00, 0x00, 0x04, 0x00,
  0x0c, 0x00, 0x00, 0x00, 0x46, 0x00, 0x00, 0x00, 0x00, 0x00, 0x00, 0x46
 
};

#endif //CNN_SINE_MODEL_H